<unk>	0
<s>	0
</s>	0
▁t	-0
▁th	-1
▁a	-2
in	-3
▁w	-4
▁,	-5
▁the	-6
▁.	-7
ou	-8
er	-9
▁s	-10
at	-11
nd	-12
▁o	-13
re	-14
▁&	-15
it	-16
os	-17
ap	-18
▁c	-19
▁m	-20
is	-21
▁b	-22
en	-23
on	-24
▁h	-25
ing	-26
▁p	-27
apos	-28
▁to	-29
le	-30
▁f	-31
▁I	-32
▁of	-33
▁d	-34
▁in	-35
or	-36
▁y	-37
▁and	-38
an	-39
es	-40
ll	-41
▁you	-42
ed	-43
▁l	-44
ot	-45
ar	-46
▁g	-47
as	-48
▁that	-49
▁wh	-50
om	-51
▁we	-52
▁it	-53
▁n	-54
ve	-55
ic	-56
▁e	-57
▁be	-58
ion	-59
us	-60
▁is	-61
ld	-62
▁A	-63
al	-64
ow	-65
ent	-66
▁T	-67
ay	-68
id	-69
▁on	-70
et	-71
qu	-72
▁Th	-73
▁ha	-74
▁st	-75
▁W	-76
ver	-77
ut	-78
ac	-79
▁re	-80
op	-81
▁And	-82
im	-83
ec	-84
gh	-85
ke	-86
ould	-87
▁S	-88
ro	-89
all	-90
▁li	-91
▁this	-92
ly	-93
▁was	-94
quot	-95
out	-96
▁for	-97
ere	-98
ir	-99
▁do	-100
ith	-101
am	-102
▁?	-103
ur	-104
▁ch	-105
▁they	-106
ght	-107
▁as	-108
▁with	-109
se	-110
st	-111
th	-112
eop	-113
▁go	-114
eople	-115
▁We	-116
▁what	-117
ain	-118
▁k	-119
▁have	-120
if	-121
od	-122
▁an	-123
ome	-124
▁people	-125
▁me	-126
ally	-127
▁u	-128
our	-129
▁ab	-130
▁can	-131
ri	-132
--	-133
▁--	-134
▁So	-135
▁at	-136
very	-137
il	-138
▁B	-139
art	-140
▁It	-141
ce	-142
ch	-143
▁se	-144
▁so	-145
est	-146
▁are	-147
ation	-148
ist	-149
▁my	-150
▁int	-151
ers	-152
▁not	-153
and	-154
▁ex	-155
▁le	-156
▁would	-157
▁he	-158
▁sh	-159
▁The	-160
um	-161
ore	-162
▁one	-163
▁like	-164
ab	-165
▁ne	-166
ol	-167
ul	-168
▁j	-169
ind	-170
▁about	-171
▁M	-172
ect	-173
▁there	-174
ive	-175
▁all	-176
▁con	-177
ok	-178
▁pro	-179
▁wor	-180
▁C	-181
ity	-182
ge	-183
▁ac	-184
▁de	-185
ame	-186
use	-187
ad	-188
eat	-189
▁our	-190
rou	-191
ust	-192
▁bec	-193
▁some	-194
ig	-195
▁Y	-196
her	-197
ss	-198
▁H	-199
ate	-200
ill	-201
rom	-202
▁if	-203
▁lo	-204
▁or	-205
▁could	-206
▁see	-207
▁your	-208
one	-209
per	-210
ud	-211
ant	-212
▁up	-213
▁but	-214
el	-215
▁pl	-216
usic	-217
▁You	-218
▁had	-219
▁cheat	-220
ter	-221
ause	-222
▁music	-223
▁thing	-224
ake	-225
▁more	-226
▁who	-227
▁from	-228
▁when	-229
▁going	-230
▁v	-231
ong	-232
▁com	-233
▁every	-234
▁fe	-235
▁get	-236
▁just	-237
▁were	-238
ak	-239
ci	-240
ie	-241
▁r	-242
▁Wh	-243
▁te	-244
ence	-245
▁But	-246
▁out	-247
red	-248
▁kn	-249
▁because	-250
▁wr	-251
▁how	-252
▁look	-253
un	-254
▁N	-255
ide	-256
ink	-257
▁im	-258
ions	-259
ment	-260
▁O	-261
▁P	-262
itt	-263
ort	-264
pen	-265
▁al	-266
▁their	-267
fe	-268
▁D	-269
ess	-270
▁ri	-271
▁us	-272
▁kind	-273
▁know	-274
ag	-275
ms	-276
ass	-277
▁br	-278
▁su	-279
▁tr	-280
▁life	-281
og	-282
ast	-283
▁sp	-284
hing	-285
▁oth	-286
▁This	-287
▁part	-288
▁very	-289
▁really	-290
io	-291
ble	-292
ose	-293
omet	-294
▁1	-295
▁E	-296
▁F	-297
ack	-298
umb	-299
ater	-300
ight	-301
▁act	-302
▁tim	-303
▁start	-304
uch	-305
▁qu	-306
▁hap	-307
▁way	-308
▁much	-309
▁thou	-310
▁right	-311
▁think	-312
aid	-313
sel	-314
▁did	-315
▁cont	-316
▁pain	-317
▁exper	-318
▁somet	-319
▁happen	-320
wo	-321
ach	-322
ars	-323
ech	-324
▁ro	-325
▁ye	-326
ress	-327
▁them	-328
▁thumb	-329
iv	-330
▁:	-331
ies	-332
▁by	-333
▁don	-334
▁per	-335
▁into	-336
▁world	-337
act	-338
ard	-339
arn	-340
▁dep	-341
▁fil	-342
▁has	-343
▁say	-344
▁these	-345
ace	-346
led	-347
nds	-348
▁In	-349
▁two	-350
▁time	-351
▁brain	-352
▁things	-353
▁something	-354
fer	-355
ure	-356
ling	-357
nder	-358
▁his	-359
▁other	-360
▁G	-361
ank	-362
lec	-363
echn	-364
olog	-365
▁got	-366
▁now	-367
▁play	-368
▁same	-369
▁depress	-370
pl	-371
alk	-372
ine	-373
ite	-374
ody	-375
ves	-376
▁ag	-377
reat	-378
▁imp	-379
ittle	-380
▁That	-381
▁chan	-382
▁here	-383
▁make	-384
▁stud	-385
▁work	-386
▁whist	-387
▁little	-388
amp	-389
are	-390
ually	-391
▁want	-392
▁where	-393
ck	-394
xt	-395
kay	-396
ost	-397
▁Now	-398
▁sci	-399
ology	-400
▁over	-401
av	-402
ng	-403
ob	-404
so	-405
ful	-406
▁gr	-407
▁any	-408
▁big	-409
▁pers	-410
▁room	-411
▁than	-412
▁started	-413
▁thought	-414
echnology	-415
▁cheating	-416
iz	-417
▁R	-418
ous	-419
ven	-420
▁em	-421
▁pre	-422
▁talk	-423
▁those	-424
▁proble	-425
pp	-426
ave	-427
orm	-428
ule	-429
▁He	-430
▁ar	-431
▁co	-432
▁en	-433
▁mo	-434
irst	-435
ound	-436
▁dif	-437
ience	-438
round	-439
▁said	-440
▁will	-441
▁quest	-442
▁actually	-443
em	-444
ys	-445
▁L	-446
age	-447
ens	-448
ick	-449
ory	-450
own	-451
uit	-452
ult	-453
way	-454
▁cl	-455
roup	-456
▁lot	-457
▁man	-458
▁They	-459
▁What	-460
▁back	-461
▁been	-462
▁does	-463
▁long	-464
▁need	-465
▁first	-466
▁under	-467
▁water	-468
▁depression	-469
nt	-470
ign	-471
ree	-472
▁Ch	-473
▁pr	-474
ting	-475
▁end	-476
▁new	-477
▁she	-478
iment	-479
other	-480
▁Well	-481
▁feel	-482
▁film	-483
▁less	-484
▁take	-485
00	-486
ff	-487
ft	-488
ry	-489
ich	-490
ode	-491
▁If	-492
able	-493
ated	-494
self	-495
▁ask	-496
▁dis	-497
▁sur	-498
▁comm	-499
▁even	-500
▁good	-501
▁perf	-502
▁real	-503
▁again	-504
▁group	-505
▁years	-506
▁around	-507
▁intuit	-508
▁person	-509
ne	-510
ty	-511
▁;	-512
oss	-513
▁am	-514
▁gu	-515
aces	-516
inut	-517
ject	-518
ough	-519
ular	-520
▁bet	-521
▁gen	-522
▁her	-523
▁inc	-524
▁rec	-525
▁rem	-526
▁try	-527
ating	-528
▁also	-529
▁down	-530
▁only	-531
▁pass	-532
▁went	-533
▁being	-534
▁learn	-535
▁which	-536
▁experiment	-537
ip	-538
lo	-539
te	-540
wn	-541
anc	-542
ark	-543
ile	-544
ish	-545
rat	-546
urn	-547
▁no	-548
▁po	-549
▁sy	-550
ical	-551
rest	-552
ments	-553
▁mean	-554
▁tell	-555
ations	-556
▁doesn	-557
▁inter	-558
▁change	-559
▁differ	-560
ds	-561
eg	-562
ep	-563
pt	-564
ra	-565
ue	-566
ger	-567
int	-568
▁af	-569
▁sm	-570
ance	-571
ared	-572
body	-573
ents	-574
oney	-575
▁day	-576
▁ins	-577
▁lab	-578
▁nan	-579
▁off	-580
▁sec	-581
unity	-582
▁comp	-583
▁fact	-584
▁game	-585
▁last	-586
▁many	-587
▁then	-588
selves	-589
▁Thank	-590
▁doing	-591
▁might	-592
▁minut	-593
▁molec	-594
▁money	-595
▁three	-596
▁wrong	-597
▁underst	-598
be	-599
ct	-600
▁J	-601
ary	-602
ial	-603
osp	-604
rie	-605
ved	-606
▁bu	-607
▁el	-608
▁sc	-609
▁un	-610
ably	-611
ario	-612
pect	-613
▁beh	-614
▁bit	-615
▁hon	-616
▁may	-617
▁own	-618
▁pap	-619
▁pat	-620
aking	-621
ether	-622
ident	-623
thing	-624
▁able	-625
▁show	-626
▁soci	-627
▁Mario	-628
▁There	-629
▁great	-630
▁never	-631
▁story	-632
▁young	-633
▁better	-634
▁contro	-635
▁scient	-636
▁problem	-637
▁molecule	-638
▁different	-639
▁experience	-640
▁technology	-641
#9	-642
oy	-643
▁2	-644
ans	-645
ase	-646
ber	-647
ild	-648
imp	-649
irr	-650
oph	-651
ric	-652
ths	-653
tty	-654
▁As	-655
▁bi	-656
atch	-657
cess	-658
ists	-659
lect	-660
▁&#9	-661
▁bir	-662
▁few	-663
▁him	-664
▁hum	-665
▁too	-666
▁why	-667
ively	-668
▁Okay	-669
▁When	-670
▁best	-671
▁didn	-672
▁else	-673
▁four	-674
▁most	-675
▁prob	-676
▁seco	-677
▁sing	-678
▁syst	-679
ically	-680
▁stand	-681
▁pretty	-682
▁thumbs	-683
▁control	-684
▁everyone	-685
▁question	-686
▁whistling	-687
▁understand	-688
ah	-689
ix	-690
ert	-691
esc	-692
ety	-693
iew	-694
ise	-695
old	-696
ord	-697
▁Fr	-698
▁dr	-699
egie	-700
fore	-701
mand	-702
ower	-703
▁app	-704
▁bio	-705
▁nur	-706
▁put	-707
ather	-708
▁Carn	-709
▁each	-710
▁form	-711
▁imag	-712
▁okay	-713
▁human	-714
▁paper	-715
▁sound	-716
▁inside	-717
restling	-718
▁perfect	-719
▁Carnegie	-720
▁interest	-721
au	-722
hy	-723
ail	-724
ces	-725
day	-726
edi	-727
ell	-728
ize	-729
ner	-730
ock	-731
oll	-732
ron	-733
▁ad	-734
▁cr	-735
▁gl	-736
▁hu	-737
▁ke	-738
abil	-739
ayer	-740
ious	-741
ount	-742
ving	-743
▁air	-744
▁cal	-745
▁cre	-746
▁inv	-747
▁nar	-748
▁sch	-749
▁sol	-750
▁ven	-751
ities	-752
▁band	-753
▁call	-754
▁doll	-755
▁frie	-756
▁left	-757
▁mass	-758
▁mind	-759
▁next	-760
▁wasn	-761
▁well	-762
▁after	-763
▁gener	-764
▁point	-765
▁small	-766
▁still	-767
▁watch	-768
▁partic	-769
▁another	-770
▁happens	-771
▁science	-772
▁student	-773
▁without	-774
▁happening	-775
ek	-776
gg	-777
ma	-778
wh	-779
els	-780
ext	-781
ged	-782
ice	-783
idd	-784
igh	-785
ool	-786
▁10	-787
ible	-788
ield	-789
ific	-790
mosp	-791
roph	-792
▁Com	-793
▁How	-794
▁art	-795
▁cor	-796
▁dec	-797
▁exc	-798
▁fly	-799
▁ign	-800
▁six	-801
▁str	-802
▁stu	-803
▁won	-804
aught	-805
iting	-806
itive	-807
▁Some	-808
▁came	-809
▁cons	-810
▁disc	-811
▁emot	-812
▁expl	-813
▁hard	-814
▁meas	-815
▁side	-816
▁simp	-817
▁stop	-818
▁told	-819
▁turn	-820
▁creat	-821
▁grand	-822
▁maybe	-823
▁teach	-824
▁today	-825
▁works	-826
▁called	-827
▁import	-828
▁others	-829
▁school	-830
▁Command	-831
▁context	-832
▁getting	-833
▁imagine	-834
▁passion	-835
▁seconds	-836
wrestling	-837
▁personal	-838
▁intuition	-839
▁ourselves	-840
▁Commandments	-841
bs	-842
ib	-843
oc	-844
we	-845
▁!	-846
▁3	-847
▁U	-848
ane	-849
ari	-850
avi	-851
ire	-852
les	-853
lie	-854
lin	-855
ons	-856
ood	-857
ote	-858
oth	-859
ses	-860
uth	-861
vel	-862
▁Sh	-863
▁bo	-864
▁wo	-865
ages	-866
akes	-867
iver	-868
nect	-869
ness	-870
oral	-871
sand	-872
ulti	-873
ways	-874
▁Ten	-875
▁aud	-876
▁dem	-877
▁gre	-878
▁inf	-879
▁kid	-880
▁mod	-881
▁mon	-882
▁pay	-883
▁ter	-884
ently	-885
imate	-886
ourse	-887
rough	-888
▁away	-889
▁body	-890
▁code	-891
▁fear	-892
▁give	-893
▁goes	-894
▁hold	-895
▁live	-896
▁love	-897
▁open	-898
▁week	-899
player	-900
rative	-901
▁birds	-902
▁heard	-903
▁ident	-904
▁multi	-905
▁study	-906
▁stuff	-907
ational	-908
▁People	-909
▁atmosp	-910
▁before	-911
▁course	-912
▁months	-913
▁myself	-914
▁nurses	-915
▁simple	-916
▁social	-917
▁system	-918
▁coating	-919
▁connect	-920
▁dollars	-921
▁learned	-922
▁someone	-923
▁talking	-924
▁problems	-925
▁thousand	-926
▁community	-927
▁important	-928
otechnology	-929
aw	-930
▁K	-931
ade	-932
apt	-933
ask	-934
ced	-935
con	-936
der	-937
ese	-938
ica	-939
ics	-940
mas	-941
ope	-942
ors	-943
str	-944
ues	-945
▁St	-946
▁fu	-947
▁sl	-948
eter	-949
face	-950
ffer	-951
igma	-952
ited	-953
reas	-954
▁acc	-955
▁ago	-956
▁bre	-957
▁cho	-958
▁cur	-959
▁dur	-960
▁eff	-961
▁ent	-962
▁hur	-963
▁let	-964
▁non	-965
▁opp	-966
▁ref	-967
▁rev	-968
▁spe	-969
▁tog	-970
▁use	-971
bject	-972
heric	-973
ional	-974
ished	-975
ories	-976
▁Hall	-977
▁come	-978
▁grab	-979
▁guys	-980
▁hand	-981
▁head	-982
▁norm	-983
▁path	-984
▁spec	-985
▁test	-986
▁ways	-987
illion	-988
▁build	-989
▁count	-990
▁films	-991
▁found	-992
▁honor	-993
▁ignor	-994
▁impro	-995
▁later	-996
▁level	-997
▁rever	-998
▁shred	-999
▁stock	-1000
▁super	-1001
▁tough	-1002
▁turns	-1003
▁while	-1004
▁write	-1005
▁always	-1006
▁became	-1007
▁create	-1008
▁minute	-1009
▁places	-1010
▁single	-1011
▁stigma	-1012
▁suffer	-1013
▁wonder	-1014
▁friends	-1015
▁measure	-1016
▁minutes	-1017
▁through	-1018
▁audience	-1019
▁identity	-1020
▁probably	-1021
▁together	-1022
▁massively	-1023
▁molecules	-1024
▁narrative	-1025
▁questions	-1026
▁everything	-1027
▁intuitions	-1028
▁particular	-1029
▁scientists	-1030
▁multiplayer	-1031
1;	-1032
3;	-1033
IY	-1034
az	-1035
bo	-1036
du	-1037
ew	-1038
lp	-1039
pr	-1040
▁4	-1041
,00	-1042
alf	-1043
eal	-1044
ene	-1045
fit	-1046
gan	-1047
ict	-1048
iec	-1049
iet	-1050
isk	-1051
itu	-1052
ove	-1053
ste	-1054
ual	-1055
ury	-1056
▁30	-1057
▁By	-1058
▁No	-1059
▁fa	-1060
▁fl	-1061
▁gt	-1062
▁lt	-1063
▁ph	-1064
,000	-1065
ates	-1066
avor	-1067
cept	-1068
hack	-1069
iter	-1070
ning	-1071
obic	-1072
over	-1073
reds	-1074
rist	-1075
ross	-1076
ural	-1077
ware	-1078
▁DIY	-1079
▁bed	-1080
▁blo	-1081
▁car	-1082
▁col	-1083
▁det	-1084
▁ext	-1085
▁fin	-1086
▁fun	-1087
▁irr	-1088
▁isn	-1089
▁joy	-1090
▁lik	-1091
▁lou	-1092
▁pop	-1093
▁pos	-1094
▁val	-1095
▁win	-1096
▁yet	-1097
arent	-1098
conom	-1099
droph	-1100
iddle	-1101
irror	-1102
itten	-1103
ivity	-1104
lines	-1105
ollow	-1106
where	-1107
▁anal	-1108
▁both	-1109
▁case	-1110
▁conc	-1111
▁conf	-1112
▁gets	-1113
▁half	-1114
▁hall	-1115
▁hear	-1116
▁help	-1117
▁hund	-1118
▁mess	-1119
▁node	-1120
▁ones	-1121
▁piec	-1122
▁plan	-1123
▁prov	-1124
▁risk	-1125
▁sect	-1126
▁seen	-1127
▁situ	-1128
▁stru	-1129
▁took	-1130
▁vari	-1131
▁year	-1132
▁&#91;	-1133
▁&#93;	-1134
▁Frank	-1135
▁Peter	-1136
▁asked	-1137
▁break	-1138
▁field	-1139
▁moral	-1140
▁order	-1141
▁power	-1142
▁produ	-1143
▁quick	-1144
▁sheet	-1145
▁surpr	-1146
▁truth	-1147
▁venue	-1148
▁wrote	-1149
▁Christ	-1150
▁across	-1151
▁behavi	-1152
▁econom	-1153
▁enough	-1154
▁expect	-1155
▁follow	-1156
▁groups	-1157
▁honest	-1158
▁longer	-1159
▁middle	-1160
▁mirror	-1161
▁opport	-1162
▁recall	-1163
▁shredd	-1164
▁spaces	-1165
▁taking	-1166
▁wanted	-1167
▁increas	-1168
▁painful	-1169
▁playing	-1170
▁process	-1171
▁surface	-1172
▁whistle	-1173
▁writing	-1174
▁written	-1175
drophobic	-1176
▁anything	-1177
▁finished	-1178
▁hundreds	-1179
▁positive	-1180
▁somebody	-1181
▁whistled	-1182
▁yourself	-1183
▁depressed	-1184
▁ignorance	-1185
▁situation	-1186
▁scientific	-1187
▁atmospheric	-1188
▁interesting	-1189
▁opportunity	-1190
50	-1191
CL	-1192
IL	-1193
UB	-1194
ai	-1195
cc	-1196
gr	-1197
lf	-1198
ny	-1199
ov	-1200
to	-1201
ILM	-1202
ady	-1203
ale	-1204
ami	-1205
ath	-1206
bio	-1207
bur	-1208
eck	-1209
fic	-1210
gin	-1211
ied	-1212
its	-1213
ler	-1214
mer	-1215
mit	-1216
ngl	-1217
ubs	-1218
ush	-1219
▁Af	-1220
▁At	-1221
▁Be	-1222
▁Do	-1223
▁Un	-1224
▁ap	-1225
▁ed	-1226
CLUB	-1227
alls	-1228
arch	-1229
esca	-1230
ever	-1231
hyth	-1232
ians	-1233
idea	-1234
ient	-1235
imil	-1236
iven	-1237
ives	-1238
ized	-1239
less	-1240
medi	-1241
rect	-1242
roke	-1243
ther	-1244
udge	-1245
▁200	-1246
▁All	-1247
▁Bec	-1248
▁One	-1249
▁Why	-1250
▁arm	-1251
▁ass	-1252
▁bad	-1253
▁eng	-1254
▁equ	-1255
▁ind	-1256
▁mom	-1257
▁rep	-1258
▁run	-1259
▁sad	-1260
▁sil	-1261
▁sin	-1262
▁sou	-1263
▁tot	-1264
▁tow	-1265
actly	-1266
anger	-1267
arket	-1268
ately	-1269
ellon	-1270
ember	-1271
escri	-1272
ivers	-1273
lieve	-1274
olved	-1275
otech	-1276
▁Engl	-1277
▁FILM	-1278
▁aren	-1279
▁burn	-1280
▁cult	-1281
▁danc	-1282
▁dist	-1283
▁face	-1284
▁find	-1285
▁full	-1286
▁high	-1287
▁home	-1288
▁hurt	-1289
▁idea	-1290
▁labs	-1291
▁loud	-1292
▁made	-1293
▁oper	-1294
▁paid	-1295
▁phys	-1296
▁rese	-1297
▁rule	-1298
▁sees	-1299
▁song	-1300
▁stre	-1301
▁tend	-1302
▁view	-1303
▁weak	-1304
arents	-1305
ensity	-1306
entury	-1307
ficult	-1308
ording	-1309
▁Franc	-1310
▁These	-1311
▁activ	-1312
▁along	-1313
▁areas	-1314
▁check	-1315
▁faith	-1316
▁favor	-1317
▁fight	-1318
▁fudge	-1319
▁halls	-1320
▁liked	-1321
▁liter	-1322
▁lives	-1323
▁model	-1324
▁offer	-1325
▁place	-1326
▁rhyth	-1327
▁rooms	-1328
▁share	-1329
▁short	-1330
▁times	-1331
▁trans	-1332
ability	-1333
lective	-1334
ossible	-1335
▁DIYbio	-1336
▁Mellon	-1337
▁access	-1338
▁become	-1339
▁caught	-1340
▁coming	-1341
▁descri	-1342
▁factor	-1343
▁father	-1344
▁forces	-1345
▁incred	-1346
▁making	-1347
▁market	-1348
▁moment	-1349
▁mother	-1350
▁review	-1351
▁seeing	-1352
▁sounds	-1353
▁stroke	-1354
▁strugg	-1355
▁weight	-1356
▁wouldn	-1357
ulations	-1358
▁Because	-1359
▁against	-1360
▁believe	-1361
▁changed	-1362
▁cheated	-1363
▁correct	-1364
▁exactly	-1365
▁looking	-1366
▁perform	-1367
▁popular	-1368
▁project	-1369
▁society	-1370
▁stories	-1371
▁totally	-1372
▁FILMCLUB	-1373
▁discover	-1374
▁perspect	-1375
▁remember	-1376
▁research	-1377
▁reverber	-1378
▁shredded	-1379
▁watching	-1380
▁difficult	-1381
▁headlines	-1382
▁intensity	-1383
▁perfectly	-1384
▁thousands	-1385
hydrophobic	-1386
▁generation	-1387
▁irrational	-1388
▁themselves	-1389
▁understanding	-1390
▁nanotechnology	-1391
NA	-1392
ax	-1393
br	-1394
ia	-1395
lu	-1396
mb	-1397
pe	-1398
sh	-1399
ti	-1400
ads	-1401
ape	-1402
cal	-1403
den	-1404
ear	-1405
ems	-1406
enc	-1407
gre	-1408
ien	-1409
ier	-1410
ilt	-1411
ime	-1412
iod	-1413
ird	-1414
lex	-1415
ney	-1416
nov	-1417
oin	-1418
orn	-1419
ots	-1420
pro	-1421
umm	-1422
▁..	-1423
▁19	-1424
▁20	-1425
▁Ge	-1426
▁Go	-1427
▁Mr	-1428
▁My	-1429
▁ev	-1430
▁ty	-1431
acle	-1432
ason	-1433
eath	-1434
ered	-1435
icid	-1436
ided	-1437
ider	-1438
ides	-1439
imes	-1440
itts	-1441
most	-1442
oked	-1443
orry	-1444
raft	-1445
raid	-1446
rast	-1447
ream	-1448
ried	-1449
▁...	-1450
▁Any	-1451
▁DNA	-1452
▁Our	-1453
▁ann	-1454
▁cle	-1455
▁dog	-1456
▁eas	-1457
▁fit	-1458
▁guy	-1459
▁its	-1460
▁key	-1461
▁lar	-1462
▁mic	-1463
▁nat	-1464
▁pol	-1465
▁ran	-1466
▁reh	-1467
▁sud	-1468
▁top	-1469
ading	-1470
ality	-1471
amily	-1472
ample	-1473
ators	-1474
atrou	-1475
atter	-1476
burgh	-1477
ingly	-1478
lease	-1479
riger	-1480
stead	-1481
ution	-1482
▁Amer	-1483
▁Then	-1484
▁West	-1485
▁anti	-1486
▁born	-1487
▁care	-1488
▁cert	-1489
▁dark	-1490
▁done	-1491
▁fail	-1492
▁five	-1493
▁fore	-1494
▁grew	-1495
▁heal	-1496
▁hide	-1497
▁hits	-1498
▁hope	-1499
▁huge	-1500
▁join	-1501
▁jour	-1502
▁kids	-1503
▁knew	-1504
▁medi	-1505
▁move	-1506
▁prop	-1507
▁reac	-1508
▁remo	-1509
▁rest	-1510
▁self	-1511
▁sign	-1512
▁soon	-1513
▁sort	-1514
▁step	-1515
▁surv	-1516
▁task	-1517
▁teen	-1518
▁used	-1519
▁wave	-1520
▁whis	-1521
▁yell	-1522
enefit	-1523
ential	-1524
hacker	-1525
icidal	-1526
iracle	-1527
master	-1528
restle	-1529
▁Every	-1530
▁Geert	-1531
▁Other	-1532
▁Pitts	-1533
▁Would	-1534
▁adapt	-1535
▁allow	-1536
▁appro	-1537
▁begin	-1538
▁birth	-1539
▁block	-1540
▁bring	-1541
▁class	-1542
▁clubs	-1543
▁demon	-1544
▁guess	-1545
▁hands	-1546
▁innov	-1547
▁kinds	-1548
▁least	-1549
▁leave	-1550
▁light	-1551
▁mater	-1552
▁meant	-1553
▁organ	-1554
▁party	-1555
▁solve	-1556
▁speak	-1557
▁techn	-1558
▁terms	-1559
▁terri	-1560
▁third	-1561
▁whole	-1562
▁words	-1563
▁afraid	-1564
▁almost	-1565
▁bigger	-1566
▁brains	-1567
▁choose	-1568
▁common	-1569
▁comput	-1570
▁couldn	-1571
▁during	-1572
▁family	-1573
▁feared	-1574
▁immedi	-1575
▁impact	-1576
▁inform	-1577
▁normal	-1578
▁period	-1579
▁planet	-1580
▁played	-1581
▁record	-1582
▁saying	-1583
▁should	-1584
▁solved	-1585
▁streng	-1586
▁sudden	-1587
▁trying	-1588
▁venues	-1589
iversity	-1590
▁America	-1591
▁Chatrou	-1592
▁biotech	-1593
▁certain	-1594
▁climate	-1595
▁content	-1596
▁dancers	-1597
▁failure	-1598
▁message	-1599
▁quickly	-1600
▁subject	-1601
▁systems	-1602
▁whether	-1603
▁wrestle	-1604
▁accident	-1605
▁behavior	-1606
▁emotions	-1607
▁favorite	-1608
▁involved	-1609
▁material	-1610
▁reaching	-1611
▁refriger	-1612
▁sections	-1613
▁standing	-1614
▁struggle	-1615
▁students	-1616
▁suicidal	-1617
▁thinking	-1618
▁Francesca	-1619
▁beginning	-1620
▁biohacker	-1621
▁everybody	-1622
▁sometimes	-1623
▁Pittsburgh	-1624
▁activation	-1625
▁creativity	-1626
▁discovered	-1627
▁grandmaster	-1628
▁perspective	-1629
▁probability	-1630
▁particularly	-1631
▁refrigerators	-1632
BG	-1633
CC	-1634
ED	-1635
IT	-1636
af	-1637
gu	-1638
me	-1639
ph	-1640
sc	-1641
uc	-1642
xy	-1643
yz	-1644
▁9	-1645
Aid	-1646
BGB	-1647
PCC	-1648
ait	-1649
ama	-1650
ann	-1651
arr	-1652
ash	-1653
azz	-1654
bas	-1655
bor	-1656
cum	-1657
edr	-1658
egr	-1659
ele	-1660
eli	-1661
end	-1662
ern	-1663
eth	-1664
got	-1665
hic	-1666
hip	-1667
ian	-1668
ike	-1669
ios	-1670
irt	-1671
iss	-1672
lyn	-1673
nge	-1674
ork	-1675
put	-1676
ray	-1677
toc	-1678
ton	-1679
ude	-1680
▁11	-1681
▁12	-1682
▁40	-1683
▁50	-1684
▁Ag	-1685
▁En	-1686
▁Ex	-1687
▁Is	-1688
▁Lo	-1689
▁Oh	-1690
▁Or	-1691
▁Re	-1692
▁Sm	-1693
▁To	-1694
▁bl	-1695
▁fr	-1696
▁ly	-1697
▁op	-1698
▁pu	-1699
▁sk	-1700
aign	-1701
aken	-1702
anda	-1703
arly	-1704
avid	-1705
book	-1706
come	-1707
emic	-1708
ency	-1709
ense	-1710
ensp	-1711
fort	-1712
gend	-1713
gest	-1714
gram	-1715
grat	-1716
here	-1717
ibly	-1718
ilan	-1719
ills	-1720
inat	-1721
ings	-1722
iron	-1723
ital	-1724
lete	-1725
lief	-1726
line	-1727
llen	-1728
obal	-1729
omob	-1730
opre	-1731
osed	-1732
ouch	-1733
ouse	-1734
outh	-1735
pers	-1736
reen	-1737
reme	-1738
ries	-1739
rook	-1740
soci	-1741
tell	-1742
tern	-1743
vers	-1744
vise	-1745
ween	-1746
ysis	-1747
▁100	-1748
▁Did	-1749
▁Fed	-1750
▁For	-1751
▁Hon	-1752
▁MIT	-1753
▁She	-1754
▁TED	-1755
▁Wag	-1756
▁Was	-1757
▁adv	-1758
▁att	-1759
▁awe	-1760
▁ben	-1761
▁bou	-1762
▁cap	-1763
▁def	-1764
▁doz	-1765
▁dry	-1766
▁enc	-1767
▁eth	-1768
▁fac	-1769
▁far	-1770
▁flo	-1771
▁gam	-1772
▁med	-1773
▁mut	-1774
▁occ	-1775
▁oxy	-1776
▁pil	-1777
▁rad	-1778
▁reg	-1779
▁rip	-1780
▁sat	-1781
▁ser	-1782
▁set	-1783
▁son	-1784
▁tan	-1785
▁tem	-1786
▁tok	-1787
▁typ	-1788
5,000	-1789
acter	-1790
afety	-1791
ailed	-1792
allen	-1793
artic	-1794
ative	-1795
aving	-1796
based	-1797
craft	-1798
edral	-1799
ggest	-1800
grees	-1801
ially	-1802
ibust	-1803
idden	-1804
ility	-1805
inary	-1806
inter	-1807
ising	-1808
ision	-1809
istic	-1810
ither	-1811
ition	-1812
nment	-1813
obody	-1814
orous	-1815
ronic	-1816
strum	-1817
tocin	-1818
urons	-1819
▁Band	-1820
▁CBGB	-1821
▁Eric	-1822
▁Face	-1823
▁From	-1824
▁Here	-1825
▁IPCC	-1826
▁Jane	-1827
▁Will	-1828
▁With	-1829
▁appl	-1830
▁arms	-1831
▁bask	-1832
▁beat	-1833
▁brou	-1834
▁camp	-1835
▁cath	-1836
▁cell	-1837
▁cool	-1838
▁days	-1839
▁educ	-1840
▁fake	-1841
▁gave	-1842
▁hist	-1843
▁hosp	-1844
▁hour	-1845
▁jazz	-1846
▁keep	-1847
▁lost	-1848
▁main	-1849
▁news	-1850
▁numb	-1851
▁once	-1852
▁onto	-1853
▁pred	-1854
▁prim	-1855
▁rain	-1856
▁rock	-1857
▁says	-1858
▁seem	-1859
▁sequ	-1860
▁sitt	-1861
▁size	-1862
▁slum	-1863
▁such	-1864
▁summ	-1865
▁team	-1866
▁text	-1867
▁true	-1868
▁wish	-1869
▁yeah	-1870
abilit	-1871
cument	-1872
forest	-1873
idence	-1874
imilar	-1875
iosity	-1876
letely	-1877
oprene	-1878
outing	-1879
ricate	-1880
soever	-1881
utomob	-1882
▁Afric	-1883
▁Brook	-1884
▁David	-1885
▁Ellen	-1886
▁Enron	-1887
▁Gensp	-1888
▁Milan	-1889
▁above	-1890
▁alone	-1891
▁bands	-1892
▁built	-1893
▁cents	-1894
▁child	-1895
▁comes	-1896
▁drama	-1897
▁drink	-1898
▁elect	-1899
▁equal	-1900
▁given	-1901
▁looks	-1902
▁lower	-1903
▁makes	-1904
▁nanop	-1905
▁nurse	-1906
▁opera	-1907
▁piece	-1908
▁polic	-1909
▁quiet	-1910
▁scale	-1911
▁sorry	-1912
▁spray	-1913
▁stage	-1914
▁steal	-1915
▁taken	-1916
▁takes	-1917
▁thank	-1918
▁tower	-1919
▁tried	-1920
▁using	-1921
▁walls	-1922
▁white	-1923
aughter	-1924
gendary	-1925
itement	-1926
olution	-1927
▁Fedeli	-1928
▁United	-1929
▁Wagner	-1930
▁accept	-1931
▁acting	-1932
▁analyz	-1933
▁associ	-1934
▁behind	-1935
▁breaks	-1936
▁chance	-1937
▁coated	-1938
▁commun	-1939
▁contin	-1940
▁corner	-1941
▁danger	-1942
▁detail	-1943
▁effect	-1944
▁effort	-1945
▁entire	-1946
▁flight	-1947
▁flying	-1948
▁forced	-1949
▁friend	-1950
▁global	-1951
▁gothic	-1952
▁having	-1953
▁health	-1954
▁hidden	-1955
▁inject	-1956
▁integr	-1957
▁levels	-1958
▁models	-1959
▁needed	-1960
▁object	-1961
▁pathog	-1962
▁pieces	-1963
▁player	-1964
▁reason	-1965
▁relief	-1966
▁remark	-1967
▁remind	-1968
▁report	-1969
▁screen	-1970
▁second	-1971
▁select	-1972
▁shared	-1973
▁strong	-1974
▁theory	-1975
▁though	-1976
▁varied	-1977
istently	-1978
stration	-1979
▁English	-1980
▁Miracle	-1981
▁beneath	-1982
▁between	-1983
▁brought	-1984
▁century	-1985
▁challen	-1986
▁congrat	-1987
▁country	-1988
▁culture	-1989
▁degrees	-1990
▁emotion	-1991
▁entered	-1992
▁example	-1993
▁explore	-1994
▁extreme	-1995
▁general	-1996
▁greater	-1997
▁improve	-1998
▁instead	-1999
▁instrum	-2000
▁massive	-2001
▁meaning	-2002
▁million	-2003
▁nanomet	-2004
▁neurons	-2005
▁offered	-2006
▁opening	-2007
▁parents	-2008
▁patient	-2009
▁predict	-2010
▁program	-2011
▁rhythms	-2012
▁silence	-2013
▁similar	-2014
▁singers	-2015
▁sitting	-2016
▁studies	-2017
▁suggest	-2018
▁summary	-2019
▁working	-2020
utomobile	-2021
▁Brooklyn	-2022
▁Facebook	-2023
▁Genspace	-2024
▁aircraft	-2025
▁analysis	-2026
▁approach	-2027
▁bandages	-2028
▁building	-2029
▁campaign	-2030
▁consider	-2031
▁daughter	-2032
▁describe	-2033
▁document	-2034
▁duration	-2035
▁economic	-2036
▁exciting	-2037
▁experien	-2038
▁filibust	-2039
▁hospital	-2040
▁isoprene	-2041
▁learning	-2042
▁normally	-2043
▁oxytocin	-2044
▁particip	-2045
▁powerful	-2046
▁realized	-2047
▁recently	-2048
▁recorded	-2049
▁sequence	-2050
▁shouting	-2051
▁surprise	-2052
▁teachers	-2053
▁terrible	-2054
▁thoughts	-2055
▁transmit	-2056
▁Christmas	-2057
▁according	-2058
▁cathedral	-2059
▁connected	-2060
▁countries	-2061
▁curiosity	-2062
▁dangerous	-2063
▁education	-2064
▁improvise	-2065
▁intricate	-2066
▁legendary	-2067
▁literally	-2068
▁rehabilit	-2069
▁storytell	-2070
▁strengths	-2071
▁collective	-2072
▁completely	-2073
▁excitement	-2074
▁impossible	-2075
▁incredibly	-2076
▁innovation	-2077
▁nanopartic	-2078
▁rainforest	-2079
▁whatsoever	-2080
▁immediately	-2081
▁information	-2082
▁instruments	-2083
▁consistently	-2084
▁increasingly	-2085
▁measurements	-2086
▁demonstration	-2087
▁reverberation	-2088
▁rehabilitation	-2089
▁congratulations	-2090
Ch	-2091
RI	-2092
bb	-2093
bl	-2094
bu	-2095
cG	-2096
co	-2097
eb	-2098
ev	-2099
fu	-2100
gn	-2101
gs	-2102
lt	-2103
ni	-2104
ru	-2105
tc	-2106
yn	-2107
zy	-2108
aby	-2109
acy	-2110
alp	-2111
als	-2112
asp	-2113
ata	-2114
att	-2115
aut	-2116
bed	-2117
bug	-2118
but	-2119
cky	-2120
com	-2121
eed	-2122
elt	-2123
erm	-2124
esp	-2125
etb	-2126
ges	-2127
ife	-2128
law	-2129
lig	-2130
lla	-2131
lod	-2132
mak	-2133
nal	-2134
nce	-2135
nth	-2136
och	-2137
oke	-2138
oms	-2139
onf	-2140
ops	-2141
opy	-2142
org	-2143
ott	-2144
oyz	-2145
ped	-2146
pir	-2147
rab	-2148
ran	-2149
ren	-2150
res	-2151
rew	-2152
ria	-2153
rit	-2154
riv	-2155
rne	-2156
ros	-2157
row	-2158
sed	-2159
sor	-2160
ten	-2161
the	-2162
ume	-2163
unt	-2164
urs	-2165
wes	-2166
wit	-2167
xes	-2168
▁25	-2169
▁90	-2170
▁De	-2171
▁El	-2172
▁La	-2173
▁MP	-2174
▁Mo	-2175
▁OK	-2176
▁Of	-2177
▁Rw	-2178
▁av	-2179
▁la	-2180
▁lu	-2181
▁pe	-2182
▁ra	-2183
▁sw	-2184
▁vo	-2185
Ange	-2186
Char	-2187
Ever	-2188
adit	-2189
ager	-2190
amed	-2191
ancy	-2192
angu	-2193
anks	-2194
apan	-2195
atus	-2196
avel	-2197
borh	-2198
bust	-2199
cGon	-2200
cala	-2201
cent	-2202
ched	-2203
cing	-2204
eban	-2205
elle	-2206
erto	-2207
evin	-2208
gant	-2209
igal	-2210
igur	-2211
imin	-2212
ined	-2213
inim	-2214
itiz	-2215
ived	-2216
ivid	-2217
leag	-2218
leas	-2219
leys	-2220
ltra	-2221
mast	-2222
mbre	-2223
ndit	-2224
ntil	-2225
okes	-2226
oler	-2227
onds	-2228
ones	-2229
ords	-2230
orld	-2231
orms	-2232
orts	-2233
osci	-2234
otel	-2235
pack	-2236
pose	-2237
pted	-2238
rant	-2239
razy	-2240
reel	-2241
rete	-2242
rics	-2243
rink	-2244
rown	-2245
tend	-2246
unch	-2247
unni	-2248
uper	-2249
ured	-2250
ward	-2251
year	-2252
ynam	-2253
▁150	-2254
▁Acc	-2255
▁Beh	-2256
▁Bio	-2257
▁Bob	-2258
▁Can	-2259
▁Dan	-2260
▁Des	-2261
▁Dry	-2262
▁Eur	-2263
▁Eve	-2264
▁God	-2265
▁Jim	-2266
▁Kid	-2267
▁Let	-2268
▁Lou	-2269
▁Mah	-2270
▁Mon	-2271
▁New	-2272
▁Per	-2273
▁Put	-2274
▁Rob	-2275
▁Rom	-2276
▁age	-2277
▁amb	-2278
▁boy	-2279
▁che	-2280
▁cut	-2281
▁deb	-2282
▁del	-2283
▁dev	-2284
▁dou	-2285
▁ear	-2286
▁ele	-2287
▁env	-2288
▁ess	-2289
▁etc	-2290
▁fre	-2291
▁fur	-2292
▁gir	-2293
▁glo	-2294
▁ham	-2295
▁hid	-2296
▁ice	-2297
▁ill	-2298
▁iss	-2299
▁job	-2300
▁jud	-2301
▁low	-2302
▁mem	-2303
▁mud	-2304
▁old	-2305
▁opt	-2306
▁pin	-2307
▁pit	-2308
▁pot	-2309
▁res	-2310
▁saw	-2311
▁sub	-2312
▁ten	-2313
▁tip	-2314
▁vol	-2315
▁vot	-2316
achel	-2317
acher	-2318
acked	-2319
agged	-2320
aging	-2321
alked	-2322
anced	-2323
annah	-2324
antic	-2325
aring	-2326
arted	-2327
bsect	-2328
buted	-2329
crast	-2330
cture	-2331
eared	-2332
eatsh	-2333
elebr	-2334
emist	-2335
ensen	-2336
enste	-2337
ering	-2338
erman	-2339
eting	-2340
group	-2341
ients	-2342
ified	-2343
impse	-2344
inder	-2345
ineer	-2346
inema	-2347
inion	-2348
inute	-2349
iping	-2350
ister	-2351
mbers	-2352
nding	-2353
ogled	-2354
onent	-2355
opher	-2356
orted	-2357
otsie	-2358
pping	-2359
raord	-2360
ready	-2361
rease	-2362
riely	-2363
scape	-2364
ulate	-2365
uring	-2366
ushed	-2367
vious	-2368
while	-2369
▁Aust	-2370
▁Boyz	-2371
▁Brit	-2372
▁Conf	-2373
▁Give	-2374
▁Grab	-2375
▁Holl	-2376
▁Hood	-2377
▁Jorg	-2378
▁Just	-2379
▁Live	-2380
▁Love	-2381
▁Mark	-2382
▁Pick	-2383
▁Pike	-2384
▁Real	-2385
▁Shaw	-2386
▁Sica	-2387
▁Star	-2388
▁Talk	-2389
▁Twit	-2390
▁Wait	-2391
▁York	-2392
▁acad	-2393
▁acce	-2394
▁alth	-2395
▁area	-2396
▁aunt	-2397
▁auth	-2398
▁aver	-2399
▁baby	-2400
▁ball	-2401
▁bill	-2402
▁boat	-2403
▁capt	-2404
▁cash	-2405
▁cost	-2406
▁data	-2407
▁deep	-2408
▁defy	-2409
▁demo	-2410
▁diet	-2411
▁diss	-2412
▁ears	-2413
▁edge	-2414
▁felt	-2415
▁flex	-2416
▁frag	-2417
▁free	-2418
▁glow	-2419
▁goat	-2420
▁gone	-2421
▁goss	-2422
▁hack	-2423
▁hate	-2424
▁held	-2425
▁hell	-2426
▁hire	-2427
▁iron	-2428
▁kept	-2429
▁kick	-2430
▁list	-2431
▁ment	-2432
▁meth	-2433
▁mine	-2434
▁miss	-2435
▁must	-2436
▁nine	-2437
▁palp	-2438
▁past	-2439
▁pick	-2440
▁prep	-2441
▁priv	-2442
▁prof	-2443
▁prom	-2444
▁repl	-2445
▁runs	-2446
▁save	-2447
▁sens	-2448
▁sick	-2449
▁sinc	-2450
▁soft	-2451
▁soph	-2452
▁sure	-2453
▁tack	-2454
▁tone	-2455
▁uses	-2456
▁vote	-2457
▁wide	-2458
Angelo	-2459
Charms	-2460
aining	-2461
ampion	-2462
etball	-2463
fortun	-2464
gnancy	-2465
icians	-2466
inatal	-2467
ipment	-2468
itical	-2469
itizen	-2470
lodies	-2471
mented	-2472
minute	-2473
ochrom	-2474
pering	-2475
profit	-2476
rosion	-2477
stream	-2478
verity	-2479
wesome	-2480
▁After	-2481
▁Again	-2482
▁Belle	-2483
▁Breel	-2484
▁Byrne	-2485
▁Could	-2486
▁Creat	-2487
▁Exper	-2488
▁Given	-2489
▁Heads	-2490
▁Hotel	-2491
▁Japan	-2492
▁Kevin	-2493
▁Lords	-2494
▁McGon	-2495
▁Scala	-2496
▁Smith	-2497
▁Stand	-2498
▁Sunni	-2499
▁Ultra	-2500
▁While	-2501
▁Whist	-2502
▁World	-2503
▁actor	-2504
▁admit	-2505
▁amate	-2506
▁annoy	-2507
▁apart	-2508
▁arena	-2509
▁aspir	-2510
▁began	-2511
▁biofu	-2512
▁blood	-2513
▁board	-2514
▁calls	-2515
▁cells	-2516
▁clear	-2517
▁close	-2518
▁crazy	-2519
▁crime	-2520
▁disap	-2521
▁diver	-2522
▁dozen	-2523
▁dream	-2524
▁dynam	-2525
▁ended	-2526
▁faces	-2527
▁floor	-2528
▁gamer	-2529
▁glass	-2530
▁gover	-2531
▁grasp	-2532
▁haven	-2533
▁heart	-2534
▁house	-2535
▁influ	-2536
▁input	-2537
▁knows	-2538
▁langu	-2539
▁large	-2540
▁layer	-2541
▁local	-2542
▁lucky	-2543
▁means	-2544
▁media	-2545
▁minds	-2546
▁minim	-2547
▁needs	-2548
▁neigh	-2549
▁night	-2550
▁occas	-2551
▁pages	-2552
▁parts	-2553
▁pills	-2554
▁pilot	-2555
▁plane	-2556
▁pract	-2557
▁press	-2558
▁pride	-2559
▁print	-2560
▁radio	-2561
▁raise	-2562
▁reach	-2563
▁ready	-2564
▁reels	-2565
▁relig	-2566
▁rules	-2567
▁scene	-2568
▁seems	-2569
▁shock	-2570
▁shows	-2571
▁since	-2572
▁songs	-2573
▁space	-2574
▁spect	-2575
▁state	-2576
▁stood	-2577
▁synth	-2578
▁tells	-2579
▁token	-2580
▁touch	-2581
▁track	-2582
▁umbre	-2583
▁until	-2584
▁upper	-2585
▁voice	-2586
▁weeks	-2587
▁whose	-2588
▁worth	-2589
acteria	-2590
ampions	-2591
artment	-2592
avannah	-2593
benefit	-2594
borhood	-2595
century	-2596
ception	-2597
crastin	-2598
enstein	-2599
imenter	-2600
inating	-2601
ividual	-2602
masters	-2603
ologist	-2604
parents	-2605
ression	-2606
ributed	-2607
rophone	-2608
▁15,000	-2609
▁Africa	-2610
▁Ariely	-2611
▁Beeban	-2612
▁Europe	-2613
▁Kidron	-2614
▁Mahler	-2615
▁Nobody	-2616
▁Please	-2617
▁Rachel	-2618
▁Rwanda	-2619
▁States	-2620
▁allows	-2621
▁amount	-2622
▁anyone	-2623
▁apples	-2624
▁applic	-2625
▁arenas	-2626
▁asking	-2627
▁aspect	-2628
▁assess	-2629
▁behave	-2630
▁burned	-2631
▁canopy	-2632
▁career	-2633
▁celebr	-2634
▁choice	-2635
▁cinder	-2636
▁condit	-2637
▁crunch	-2638
▁demand	-2639
▁discus	-2640
▁dollar	-2641
▁double	-2642
▁easier	-2643
▁either	-2644
▁encode	-2645
▁engage	-2646
▁ethics	-2647
▁explan	-2648
▁facing	-2649
▁forest	-2650
▁forgot	-2651
▁genome	-2652
▁gloves	-2653
▁invent	-2654
▁itself	-2655
▁lesson	-2656
▁living	-2657
▁looked	-2658
▁lyrics	-2659
▁mainly	-2660
▁matter	-2661
▁medium	-2662
▁narrow	-2663
▁nature	-2664
▁offers	-2665
▁papers	-2666
▁passed	-2667
▁policy	-2668
▁rather	-2669
▁rhythm	-2670
▁safety	-2671
▁shield	-2672
▁shrink	-2673
▁silver	-2674
▁specif	-2675
▁sports	-2676
▁status	-2677
▁talked	-2678
▁thrown	-2679
▁topics	-2680
▁toward	-2681
▁tradit	-2682
▁unless	-2683
▁useful	-2684
▁values	-2685
▁voters	-2686
▁walked	-2687
▁within	-2688
▁worked	-2689
eatshirt	-2690
estimate	-2691
olerance	-2692
▁Biohack	-2693
▁England	-2694
▁Googled	-2695
▁Roberto	-2696
▁Talking	-2697
▁Tootsie	-2698
▁Twitter	-2699
▁Whether	-2700
▁ability	-2701
▁already	-2702
▁analyze	-2703
▁anybody	-2704
▁artists	-2705
▁assimil	-2706
▁average	-2707
▁benefit	-2708
▁biggest	-2709
▁billion	-2710
▁capable	-2711
▁captain	-2712
▁chemist	-2713
▁chronic	-2714
▁classic	-2715
▁colleag	-2716
▁concern	-2717
▁created	-2718
▁curious	-2719
▁decided	-2720
▁dragged	-2721
▁excited	-2722
▁feeling	-2723
▁filmmak	-2724
▁glimpse	-2725
▁guessed	-2726
▁history	-2727
▁honesty	-2728
▁journal	-2729
▁journey	-2730
▁medical	-2731
▁meeting	-2732
▁members	-2733
▁musical	-2734
▁natural	-2735
▁nothing	-2736
▁opinion	-2737
▁options	-2738
▁percent	-2739
▁periods	-2740
▁players	-2741
▁pretend	-2742
▁printer	-2743
▁private	-2744
▁produce	-2745
▁reading	-2746
▁realize	-2747
▁release	-2748
▁removed	-2749
▁reverse	-2750
▁reviews	-2751
▁ripping	-2752
▁schools	-2753
▁serious	-2754
▁setting	-2755
▁smaller	-2756
▁special	-2757
▁species	-2758
▁stopped	-2759
▁subsect	-2760
▁surpris	-2761
▁telling	-2762
▁testing	-2763
▁usually	-2764
▁valleys	-2765
▁variety	-2766
▁weather	-2767
▁willing	-2768
▁wishful	-2769
abilities	-2770
isticated	-2771
▁Romantic	-2772
▁academic	-2773
▁advanced	-2774
▁although	-2775
▁anywhere	-2776
▁appeared	-2777
▁bacteria	-2778
▁behaving	-2779
▁children	-2780
▁computer	-2781
▁concrete	-2782
▁continue	-2783
▁creating	-2784
▁creation	-2785
▁cultural	-2786
▁deCharms	-2787
▁detailed	-2788
▁drinking	-2789
▁engineer	-2790
▁extraord	-2791
▁happened	-2792
▁hardware	-2793
▁melodies	-2794
▁minimize	-2795
▁overcome	-2796
▁patients	-2797
▁physical	-2798
▁possible	-2799
▁provided	-2800
▁provoked	-2801
▁removing	-2802
▁restless	-2803
▁severity	-2804
▁software	-2805
▁sounding	-2806
▁subjects	-2807
▁suddenly	-2808
▁tananger	-2809
▁tendency	-2810
▁umbrella	-2811
▁unfortun	-2812
▁whatever	-2813
▁whispers	-2814
ampionship	-2815
olutionize	-2816
▁According	-2817
▁Everybody	-2818
▁Jorgensen	-2819
▁McGonigal	-2820
▁Monochrom	-2821
▁Whistling	-2822
▁associate	-2823
▁biologist	-2824
▁challenge	-2825
▁component	-2826
▁computing	-2827
▁distorted	-2828
▁emotional	-2829
▁equipment	-2830
▁essential	-2831
▁following	-2832
▁gossiping	-2833
▁materials	-2834
▁musicians	-2835
▁nanometer	-2836
▁nonprofit	-2837
▁pathogens	-2838
▁perinatal	-2839
▁practical	-2840
▁pregnancy	-2841
▁processes	-2842
▁producing	-2843
▁promising	-2844
▁religious	-2845
▁restarted	-2846
▁somewhere	-2847
▁suffering	-2848
▁wonderful	-2849
▁wrestling	-2850
▁University	-2851
▁atmosphere	-2852
▁automobile	-2853
▁basketball	-2854
▁conditions	-2855
▁department	-2856
▁difference	-2857
▁everywhere	-2858
▁explaining	-2859
▁fragmented	-2860
▁government	-2861
▁individual	-2862
▁interested	-2863
▁microphone	-2864
▁passionate	-2865
▁physically	-2866
▁procrastin	-2867
▁reflective	-2868
▁sweatshirt	-2869
▁understood	-2870
▁university	-2871
▁whispering	-2872
▁Christopher	-2873
▁communality	-2874
▁contentment	-2875
▁experienced	-2876
▁intolerance	-2877
▁participate	-2878
▁predictably	-2879
▁regulations	-2880
▁reverberant	-2881
▁storyteller	-2882
▁technicians	-2883
▁traditional	-2884
▁Experimenter	-2885
▁Frankenstein	-2886
▁applications	-2887
▁experimenter	-2888
▁grandmasters	-2889
▁grandparents	-2890
▁integrations	-2891
▁neighborhood	-2892
▁specifically	-2893
▁biotechnology	-2894
▁extraordinary	-2895
▁filibustering	-2896
▁nanoparticles	-2897
▁revolutionize	-2898
▁sophisticated	-2899
▁unfortunately	-2900
▁irrationalities	-2901
00-	-2902
500	-2903
awn	-2904
aze	-2905
azi	-2906
eks	-2907
haz	-2908
iao	-2909
ixt	-2910
lug	-2911
nne	-2912
nys	-2913
obi	-2914
spe	-2915
tew	-2916
too	-2917
ubb	-2918
ywo	-2919
▁1,	-2920
▁13	-2921
▁EU	-2922
▁GM	-2923
▁Le	-2924
acts	-2925
aily	-2926
aire	-2927
aliv	-2928
ambr	-2929
apra	-2930
arks	-2931
ashv	-2932
augh	-2933
aybe	-2934
barr	-2935
bast	-2936
berg	-2937
blic	-2938
boat	-2939
brew	-2940
burg	-2941
cens	-2942
cott	-2943
cuit	-2944
doll	-2945
east	-2946
eeks	-2947
fast	-2948
form	-2949
fran	-2950
gage	-2951
goti	-2952
gree	-2953
iage	-2954
iews	-2955
inct	-2956
irty	-2957
isco	-2958
ivat	-2959
ixty	-2960
jury	-2961
keep	-2962
lict	-2963
like	-2964
load	-2965
lude	-2966
luga	-2967
nels	-2968
ocus	-2969
ogen	-2970
olph	-2971
ooth	-2972
othe	-2973
phon	-2974
play	-2975
pled	-2976
plus	-2977
racy	-2978
rael	-2979
ront	-2980
shly	-2981
time	-2982
ture	-2983
ubby	-2984
umph	-2985
unte	-2986
ures	-2987
ushi	-2988
well	-2989
wise	-2990
woop	-2991
work	-2992
yard	-2993
▁110	-2994
▁12-	-2995
▁130	-2996
▁193	-2997
▁194	-2998
▁Act	-2999
ogn	-3000
una	-3001
▁Dy	-3002
▁Ne	-3003
▁Ni	-3004
▁Ob	-3005
▁On	-3006
▁Oz	-3007
▁Pl	-3008
▁Po	-3009
aref	-3010
ideo	-3011
isms	-3012
side	-3013
▁Don	-3014
▁Dyl	-3015
▁Ele	-3016
▁Far	-3017
▁GMO	-3018
▁Gen	-3019
▁Get	-3020
▁Jaw	-3021
▁Jop	-3022
▁Lat	-3023
▁Len	-3024
▁MRI	-3025
▁Max	-3026
▁Moz	-3027
▁Pop	-3028
▁Rec	-3029
▁Red	-3030
▁Rie	-3031
▁Rio	-3032
▁Rud	-3033
▁Sho	-3034
▁Six	-3035
▁Try	-3036
▁Two	-3037
▁Wiz	-3038
▁aff	-3039
▁box	-3040
▁cry	-3041
▁giv	-3042
▁hoc	-3043
▁imm	-3044
▁opi	-3045
▁osc	-3046
▁pox	-3047
▁pun	-3048
▁roy	-3049
▁tru	-3050
▁une	-3051
▁vib	-3052
▁wax	-3053
Nosed	-3054
abeth	-3055
abled	-3056
aiden	-3057
amine	-3058
anged	-3059
arefo	-3060
arily	-3061
arrow	-3062
atory	-3063
attoo	-3064
autif	-3065
aviar	-3066
awned	-3067
bbers	-3068
bined	-3069
board	-3070
boats	-3071
boxes	-3072
ccess	-3073
chise	-3074
cious	-3075
colog	-3076
comes	-3077
ctant	-3078
ction	-3079
cuits	-3080
dwell	-3081
earse	-3082
enser	-3083
epend	-3084
eside	-3085
esize	-3086
essed	-3087
essel	-3088
estra	-3089
estry	-3090
etime	-3091
gment	-3092
gover	-3093
idney	-3094
ierce	-3095
illed	-3096
indsh	-3097
iness	-3098
inied	-3099
aks	-3100
cip	-3101
tie	-3102
aker	-3103
anel	-3104
ants	-3105
chie	-3106
iant	-3107
nces	-3108
subs	-3109
terd	-3110
ttie	-3111
uded	-3112
▁Who	-3113
▁fix	-3114
▁rid	-3115
acred	-3116
anner	-3117
cient	-3118
ciple	-3119
icine	-3120
inner	-3121
irect	-3122
isney	-3123
itier	-3124
itled	-3125
itted	-3126
ivide	-3127
ivors	-3128
izing	-3129
lared	-3130
lated	-3131
ledge	-3132
lfrie	-3133
luded	-3134
mered	-3135
ndeed	-3136
nyson	-3137
ocide	-3138
ocket	-3139
onanc	-3140
ortly	-3141
osite	-3142
ossil	-3143
ouths	-3144
ovies	-3145
owned	-3146
paces	-3147
peare	-3148
phony	-3149
pting	-3150
ption	-3151
ratch	-3152
resum	-3153
rials	-3154
rical	-3155
rives	-3156
rooms	-3157
rture	-3158
sical	-3159
sions	-3160
sorbs	-3161
strat	-3162
think	-3163
tings	-3164
tonis	-3165
tware	-3166
uable	-3167
unami	-3168
urred	-3169
verty	-3170
veter	-3171
ywood	-3172
▁1939	-3173
▁2004	-3174
▁2005	-3175
▁2009	-3176
▁Alex	-3177
▁Anne	-3178
▁Bach	-3179
▁Cham	-3180
▁Chan	-3181
▁Chet	-3182
▁Ciao	-3183
▁Coke	-3184
▁Cons	-3185
▁Does	-3186
▁Each	-3187
▁East	-3188
▁Eliz	-3189
▁Exce	-3190
▁Gand	-3191
▁Goes	-3192
▁Head	-3193
▁Honh	-3194
▁Init	-3195
▁Into	-3196
▁Iran	-3197
▁Jimm	-3198
▁Kore	-3199
agg	-3200
bes	-3201
med	-3202
▁Hu	-3203
▁Ph	-3204
▁Ye	-3205
cket	-3206
date	-3207
idel	-3208
ites	-3209
oter	-3210
▁Har	-3211
▁Huh	-3212
▁PhD	-3213
▁Yes	-3214
▁len	-3215
▁rob	-3216
▁rou	-3217
aggly	-3218
armed	-3219
atell	-3220
edule	-3221
icher	-3222
lling	-3223
osers	-3224
osoph	-3225
oterr	-3226
riate	-3227
robes	-3228
ulity	-3229
ulner	-3230
views	-3231
▁Harv	-3232
▁Left	-3233
▁Leni	-3234
▁Made	-3235
▁Make	-3236
▁Mass	-3237
▁Mild	-3238
▁Most	-3239
▁Nazi	-3240
▁Neur	-3241
▁None	-3242
▁Orch	-3243
▁Pass	-3244
▁Perf	-3245
▁Pers	-3246
▁Play	-3247
▁Rear	-3248
▁Ross	-3249
▁Smog	-3250
▁Stew	-3251
▁Stri	-3252
▁Turn	-3253
▁Wars	-3254
▁Yeah	-3255
▁ampl	-3256
▁argu	-3257
▁aria	-3258
▁asks	-3259
▁athe	-3260
▁batt	-3261
▁bike	-3262
▁blow	-3263
▁book	-3264
▁bott	-3265
▁bran	-3266
▁bugg	-3267
▁bugs	-3268
▁carp	-3269
▁cast	-3270
▁cave	-3271
▁clin	-3272
▁clip	-3273
▁clos	-3274
▁coll	-3275
▁cops	-3276
▁decl	-3277
▁defe	-3278
▁depe	-3279
▁desp	-3280
▁dogs	-3281
▁drop	-3282
▁earn	-3283
▁easi	-3284
▁easy	-3285
▁embr	-3286
▁ener	-3287
▁excl	-3288
▁fair	-3289
▁fant	-3290
▁feet	-3291
▁fict	-3292
▁fill	-3293
▁fits	-3294
▁gaze	-3295
▁grap	-3296
▁grow	-3297
▁happ	-3298
▁hero	-3299
AM	-3300
RE	-3301
AAM	-3302
ORE	-3303
cor	-3304
hin	-3305
how	-3306
sep	-3307
sia	-3308
▁Bi	-3309
▁di	-3310
▁fM	-3311
▁pa	-3312
▁sa	-3313
▁vi	-3314
HORE	-3315
atri	-3316
deal	-3317
quid	-3318
stah	-3319
ying	-3320
▁Bye	-3321
▁bar	-3322
▁der	-3323
▁fed	-3324
▁mor	-3325
PHORE	-3326
aller	-3327
asics	-3328
atrix	-3329
aysia	-3330
iscon	-3331
osing	-3332
ouses	-3333
sepol	-3334
stahl	-3335
tower	-3336
useum	-3337
▁Code	-3338
▁FAAM	-3339
▁barc	-3340
▁diam	-3341
▁fMRI	-3342
▁fing	-3343
▁holl	-3344
▁horm	-3345
▁hush	-3346
▁issu	-3347
▁keys	-3348
▁lady	-3349
▁legs	-3350
▁leng	-3351
▁lous	-3352
▁mach	-3353
▁mane	-3354
▁mank	-3355
▁math	-3356
▁nano	-3357
▁orch	-3358
▁outd	-3359
▁outp	-3360
▁pair	-3361
▁pict	-3362
▁poll	-3363
▁port	-3364
▁poss	-3365
▁post	-3366
▁pres	-3367
▁prin	-3368
▁pull	-3369
▁pure	-3370
▁purs	-3371
▁push	-3372
▁puts	-3373
▁race	-3374
▁radi	-3375
▁raid	-3376
▁rich	-3377
▁roll	-3378
▁safe	-3379
▁send	-3380
▁sewn	-3381
▁shap	-3382
▁slow	-3383
▁smil	-3384
▁smog	-3385
▁span	-3386
▁spir	-3387
▁suit	-3388
▁tale	-3389
▁temp	-3390
▁tilt	-3391
▁tink	-3392
▁unco	-3393
▁viol	-3394
▁wait	-3395
▁wife	-3396
▁wine	-3397
▁wond	-3398
acular	-3399
gy	-3400
ism	-3401
pit	-3402
rap	-3403
▁hi	-3404
ndon	-3405
rend	-3406
uest	-3407
uiet	-3408
▁120	-3409
▁195	-3410
▁Dep	-3411
▁Sch	-3412
▁avo	-3413
▁bat	-3414
▁bus	-3415
▁hah	-3416
▁lat	-3417
▁pur	-3418
▁wer	-3419
acing	-3420
agers	-3421
apsed	-3422
erism	-3423
ittor	-3424
riety	-3425
usive	-3426
▁1951	-3427
▁appr	-3428
▁calc	-3429
▁fast	-3430
▁rece	-3431
▁spre	-3432
▁whim	-3433
aganda	-3434
ailors	-3435
allery	-3436
alling	-3437
ambrid	-3438
amples	-3439
anners	-3440
apters	-3441
arable	-3442
ariest	-3443
arring	-3444
ashvil	-3445
asible	-3446
ateful	-3447
avelas	-3448
aveled	-3449
backed	-3450
bacter	-3451
buster	-3452
cestry	-3453
comput	-3454
econds	-3455
ecture	-3456
ensely	-3457
etwork	-3458
father	-3459
gative	-3460
ground	-3461
hazard	-3462
hingly	-3463
icient	-3464
idelin	-3465
iences	-3466
ifacts	-3467
ighten	-3468
ignant	-3469
igrant	-3470
inated	-3471
inatra	-3472
indler	-3473
ingsle	-3474
iother	-3475
ipates	-3476
isters	-3477
itated	-3478
itness	-3479
leases	-3480
lerate	-3481
mphony	-3482
ocates	-3483
oliage	-3484
ombast	-3485
ormous	-3486
osions	-3487
othequ	-3488
oundar	-3489
ources	-3490
peared	-3491
person	-3492
pocket	-3493
porous	-3494
quency	-3495
rapist	-3496
rastru	-3497
ratosp	-3498
riumph	-3499
apy	-3500
eer	-3501
lly	-3502
oor	-3503
ump	-3504
ums	-3505
wer	-3506
▁44	-3507
iums	-3508
lean	-3509
odes	-3510
swer	-3511
zing	-3512
▁113	-3513
▁Dut	-3514
▁Not	-3515
▁Rot	-3516
▁ain	-3517
▁buz	-3518
▁dro	-3519
▁hun	-3520
▁pen	-3521
▁pet	-3522
▁tab	-3523
clean	-3524
espec	-3525
indow	-3526
ioned	-3527
ority	-3528
rilly	-3529
▁400-	-3530
▁Look	-3531
▁arch	-3532
▁bold	-3533
▁brut	-3534
▁crew	-3535
▁died	-3536
▁evol	-3537
▁grid	-3538
▁hung	-3539
▁jump	-3540
▁road	-3541
▁tabo	-3542
adiums	-3543
dollar	-3544
ermany	-3545
ightly	-3546
indeer	-3547
ionist	-3548
orable	-3549
roject	-3550
ronaut	-3551
ronted	-3552
rupted	-3553
safety	-3554
sorbed	-3555
stinct	-3556
tenbor	-3557
terdam	-3558
teries	-3559
ternet	-3560
titled	-3561
urable	-3562
urists	-3563
utants	-3564
vement	-3565
ximate	-3566
▁1,000	-3567
▁Baker	-3568
▁Beale	-3569
▁Cokes	-3570
▁Death	-3571
▁Dutch	-3572
▁Dylan	-3573
▁Eleon	-3574
▁Ettie	-3575
▁Focus	-3576
▁Gandh	-3577
▁Great	-3578
▁Honor	-3579
▁House	-3580
▁Inter	-3581
▁Jimmy	-3582
▁Korea	-3583
▁Latin	-3584
▁Louis	-3585
▁Maybe	-3586
▁Music	-3587
▁Panel	-3588
▁Scott	-3589
▁Sixty	-3590
▁Sorry	-3591
▁South	-3592
▁Strip	-3593
▁Super	-3594
▁Think	-3595
▁Turns	-3596
▁Where	-3597
▁achie	-3598
▁appet	-3599
de	-3600
wk	-3601
ara	-3602
def	-3603
des	-3604
ora	-3605
osc	-3606
▁sn	-3607
atic	-3608
aves	-3609
eted	-3610
okas	-3611
onic	-3612
oons	-3613
▁900	-3614
▁Tok	-3615
▁awk	-3616
▁mil	-3617
▁tit	-3618
ahara	-3619
asted	-3620
defin	-3621
edian	-3622
grads	-3623
oscow	-3624
rodes	-3625
uture	-3626
white	-3627
▁Rief	-3628
▁Toky	-3629
▁ages	-3630
▁bass	-3631
▁hint	-3632
▁insp	-3633
▁lose	-3634
▁name	-3635
▁nice	-3636
▁nois	-3637
▁prot	-3638
▁snow	-3639
iconic	-3640
ouring	-3641
umming	-3642
▁Hanks	-3643
▁Reach	-3644
▁Tokyo	-3645
▁apply	-3646
▁artic	-3647
▁attit	-3648
▁avail	-3649
▁avoid	-3650
▁badly	-3651
▁balls	-3652
▁banks	-3653
▁baton	-3654
▁becom	-3655
▁bills	-3656
▁bioch	-3657
▁black	-3658
▁books	-3659
▁boxes	-3660
▁brave	-3661
▁brick	-3662
▁buggy	-3663
▁cared	-3664
▁cause	-3665
▁cheap	-3666
▁chess	-3667
▁chick	-3668
▁chose	-3669
▁comic	-3670
▁couch	-3671
▁crops	-3672
▁crude	-3673
▁daily	-3674
▁dance	-3675
▁death	-3676
▁demos	-3677
▁dense	-3678
▁devot	-3679
▁disen	-3680
▁drove	-3681
▁early	-3682
▁emiss	-3683
▁enter	-3684
▁envel	-3685
▁espec	-3686
▁fable	-3687
▁falls	-3688
▁fears	-3689
▁flatt	-3690
▁flies	-3691
▁forms	-3692
▁funny	-3693
▁genet	-3694
▁hamle	-3695
▁happy	-3696
▁hated	-3697
▁hired	-3698
▁hours	-3699
14	-3700
bi	-3701
ls	-3702
of	-3703
ye	-3704
ift	-3705
lew	-3706
nis	-3707
omy	-3708
rep	-3709
▁Ah	-3710
▁Se	-3711
bius	-3712
icep	-3713
orth	-3714
osen	-3715
room	-3716
stit	-3717
tint	-3718
▁See	-3719
▁ble	-3720
▁esc	-3721
▁eur	-3722
▁eye	-3723
▁gut	-3724
▁pou	-3725
▁tut	-3726
atomy	-3727
elage	-3728
proof	-3729
▁anym	-3730
▁crap	-3731
▁door	-3732
▁ever	-3733
▁flew	-3734
▁gift	-3735
▁kill	-3736
▁mill	-3737
▁pane	-3738
▁tuna	-3739
▁vast	-3740
ocracy	-3741
repell	-3742
stract	-3743
sunami	-3744
tinted	-3745
▁North	-3746
▁Table	-3747
▁Watch	-3748
▁bicep	-3749
▁bleed	-3750
▁euros	-3751
▁facil	-3752
▁float	-3753
▁girls	-3754
▁hurry	-3755
▁illum	-3756
▁incis	-3757
▁inher	-3758
▁invas	-3759
▁irony	-3760
▁issue	-3761
▁keeps	-3762
▁knife	-3763
▁known	-3764
▁laugh	-3765
▁lousy	-3766
▁loved	-3767
▁lying	-3768
▁manag	-3769
▁match	-3770
▁meter	-3771
▁milit	-3772
▁moved	-3773
▁nodes	-3774
▁noisy	-3775
▁norms	-3776
▁often	-3777
▁older	-3778
▁outwe	-3779
▁owner	-3780
▁paths	-3781
▁peace	-3782
▁peaks	-3783
▁picks	-3784
▁plant	-3785
▁plate	-3786
▁pleas	-3787
▁plent	-3788
▁prose	-3789
▁quite	-3790
▁react	-3791
▁reass	-3792
▁recap	-3793
▁repet	-3794
▁ridic	-3795
▁risks	-3796
▁risky	-3797
▁river	-3798
▁robot	-3799
20	-3800
oo	-3801
add	-3802
dog	-3803
gar	-3804
ooo	-3805
pty	-3806
enes	-3807
nded	-3808
onal	-3809
pgar	-3810
rous	-3811
▁bel	-3812
addle	-3813
asons	-3814
umdog	-3815
▁Wooo	-3816
▁acou	-3817
▁bars	-3818
▁fans	-3819
▁till	-3820
limate	-3821
lumdog	-3822
scient	-3823
▁Apgar	-3824
▁Bible	-3825
▁atoms	-3826
▁below	-3827
▁craft	-3828
▁curly	-3829
▁email	-3830
▁empty	-3831
▁paint	-3832
▁roomm	-3833
▁roots	-3834
▁rough	-3835
▁round	-3836
▁royal	-3837
▁rural	-3838
▁secur	-3839
▁sense	-3840
▁serve	-3841
▁shake	-3842
▁shape	-3843
▁skill	-3844
▁skirt	-3845
▁slump	-3846
▁slums	-3847
▁smile	-3848
▁sorts	-3849
▁south	-3850
▁spend	-3851
▁spent	-3852
▁steps	-3853
▁stick	-3854
▁stuck	-3855
▁surve	-3856
▁sushi	-3857
▁swoop	-3858
▁table	-3859
▁talks	-3860
▁tasks	-3861
▁tempt	-3862
▁threw	-3863
▁title	-3864
▁topic	-3865
▁trend	-3866
▁truly	-3867
▁types	-3868
▁value	-3869
▁video	-3870
▁views	-3871
▁vying	-3872
▁wants	-3873
▁waste	-3874
▁waxed	-3875
▁weigh	-3876
▁weren	-3877
▁wrist	-3878
▁yeast	-3879
▁yoked	-3880
abethan	-3881
alaysia	-3882
arefoot	-3883
arified	-3884
asively	-3885
assment	-3886
atively	-3887
autiful	-3888
avioral	-3889
bustion	-3890
changed	-3891
dealing	-3892
enstahl	-3893
entions	-3894
entives	-3895
escales	-3896
essions	-3897
ginally	-3898
gregant	-3899
ex	-3900
asc	-3901
asy	-3902
hai	-3903
ili	-3904
ina	-3905
inv	-3906
ols	-3907
ows	-3908
sec	-3909
▁34	-3910
▁Gs	-3911
▁hy	-3912
edly	-3913
uite	-3914
▁Tod	-3915
▁hip	-3916
▁met	-3917
▁pup	-3918
adows	-3919
amili	-3920
inite	-3921
olina	-3922
secur	-3923
speed	-3924
▁Jaws	-3925
▁Once	-3926
▁city	-3927
▁fasc	-3928
▁hasn	-3929
▁loop	-3930
▁mort	-3931
▁penc	-3932
▁phil	-3933
haired	-3934
▁1,500	-3935
▁Mount	-3936
▁Today	-3937
▁ambit	-3938
▁aware	-3939
▁green	-3940
▁hocke	-3941
▁index	-3942
▁noted	-3943
▁pupil	-3944
▁tools	-3945
amiliar	-3946
arolina	-3947
cedures	-3948
eatedly	-3949
hington	-3950
ientele	-3951
ifetime	-3952
illages	-3953
iminate	-3954
imposed	-3955
imulate	-3956
ircuits	-3957
irector	-3958
ishment	-3959
isition	-3960
istakes	-3961
ittorio	-3962
ization	-3963
keeping	-3964
lfriend	-3965
luctant	-3966
nmental	-3967
odities	-3968
onances	-3969
opriate	-3970
oratory	-3971
otheque	-3972
othered	-3973
pitched	-3974
proving	-3975
ratives	-3976
sepolis	-3977
strates	-3978
subsect	-3979
theless	-3980
tronaut	-3981
ulating	-3982
umerism	-3983
unteers	-3984
vidence	-3985
wearing	-3986
▁50,000	-3987
▁Around	-3988
▁Atmosp	-3989
▁Austen	-3990
▁Change	-3991
▁Cinema	-3992
▁Desert	-3993
▁Disney	-3994
▁During	-3995
▁Escape	-3996
▁Excell	-3997
▁Gandhi	-3998
▁Genome	-3999
dge	-4000
ils	-4001
nar	-4002
owl	-4003
▁21	-4004
▁Co	-4005
eral	-4006
fere	-4007
iced	-4008
ighs	-4009
pain	-4010
▁Cha	-4011
▁dom	-4012
▁hem	-4013
▁mus	-4014
▁nic	-4015
▁nor	-4016
▁war	-4017
ature	-4018
enced	-4019
sized	-4020
▁bowl	-4021
▁deal	-4022
▁forg	-4023
▁musc	-4024
▁oils	-4025
▁spot	-4026
▁stay	-4027
▁vice	-4028
censor	-4029
etting	-4030
icroph	-4031
isting	-4032
▁Chaos	-4033
▁Coast	-4034
▁Honho	-4035
▁Spain	-4036
▁aside	-4037
▁feral	-4038
▁fuels	-4039
▁geeks	-4040
▁ledge	-4041
▁nicer	-4042
▁offic	-4043
▁petty	-4044
▁store	-4045
▁tears	-4046
▁thick	-4047
▁worst	-4048
axation	-4049
ingsley	-4050
uperate	-4051
wetting	-4052
▁Design	-4053
▁Hebrew	-4054
▁Honest	-4055
▁Howard	-4056
▁Indeed	-4057
▁Israel	-4058
▁Joplin	-4059
▁London	-4060
▁Looked	-4061
▁Lounge	-4062
▁Lovell	-4063
▁Moscow	-4064
▁Moving	-4065
▁Mozart	-4066
▁Orchid	-4067
▁Pierce	-4068
▁Porous	-4069
▁Sahara	-4070
▁Shakes	-4071
▁Sidney	-4072
▁Thirty	-4073
▁Window	-4074
▁Wizard	-4075
▁acoust	-4076
▁actual	-4077
▁advers	-4078
▁affect	-4079
▁altern	-4080
▁annals	-4081
▁annual	-4082
▁archit	-4083
▁assume	-4084
▁attent	-4085
▁awhile	-4086
▁barcod	-4087
▁basics	-4088
▁beings	-4089
▁beluga	-4090
▁beside	-4091
▁binary	-4092
▁bonded	-4093
▁bottle	-4094
▁bought	-4095
▁bounce	-4096
▁branch	-4097
▁brooms	-4098
▁brutal	-4099
▁z	-4100
iny	-4101
men	-4102
oes	-4103
usb	-4104
▁Am	-4105
▁Me	-4106
▁ju	-4107
erly	-4108
etic	-4109
etle	-4110
omas	-4111
omic	-4112
uver	-4113
vent	-4114
▁Tom	-4115
▁Win	-4116
▁Yep	-4117
▁eat	-4118
▁leg	-4119
▁sky	-4120
▁wid	-4121
▁zet	-4122
aliva	-4123
enter	-4124
entic	-4125
erity	-4126
estig	-4127
lever	-4128
owing	-4129
▁List	-4130
▁husb	-4131
▁juke	-4132
▁tick	-4133
▁tiny	-4134
▁type	-4135
▁vers	-4136
▁zeta	-4137
▁Capra	-4138
▁Shoah	-4139
▁clean	-4140
▁named	-4141
▁seven	-4142
▁shame	-4143
▁shoes	-4144
▁stops	-4145
▁width	-4146
growing	-4147
ogenous	-4148
uvering	-4149
▁Clever	-4150
▁Movies	-4151
▁Thomas	-4152
▁Yorker	-4153
▁answer	-4154
▁beetle	-4155
▁caviar	-4156
▁cheese	-4157
▁chosen	-4158
▁chubby	-4159
▁cinema	-4160
▁cities	-4161
▁closed	-4162
▁closer	-4163
▁commit	-4164
▁covers	-4165
▁crimin	-4166
▁debate	-4167
▁decade	-4168
▁decent	-4169
▁decide	-4170
▁defend	-4171
▁define	-4172
▁degree	-4173
▁denser	-4174
▁dinner	-4175
▁drives	-4176
▁eating	-4177
▁ecolog	-4178
▁embarr	-4179
▁encore	-4180
▁endure	-4181
▁energy	-4182
▁escape	-4183
▁evolve	-4184
▁except	-4185
▁explod	-4186
▁extent	-4187
▁fields	-4188
▁fights	-4189
▁filled	-4190
▁finger	-4191
▁flavor	-4192
▁forese	-4193
▁forget	-4194
▁fossil	-4195
▁fourth	-4196
▁framed	-4197
▁frilly	-4198
▁future	-4199
up	-4200
bly	-4201
dec	-4202
hop	-4203
ify	-4204
ames	-4205
imic	-4206
▁San	-4207
▁Sin	-4208
akers	-4209
ereal	-4210
▁Over	-4211
▁biol	-4212
▁bits	-4213
▁dual	-4214
▁gain	-4215
▁hair	-4216
▁harn	-4217
▁king	-4218
▁onst	-4219
▁solo	-4220
▁tour	-4221
▁wall	-4222
ecting	-4223
▁Child	-4224
▁Since	-4225
▁mimic	-4226
▁names	-4227
▁slate	-4228
▁speed	-4229
ication	-4230
oterror	-4231
stitial	-4232
ualized	-4233
viously	-4234
▁Behind	-4235
▁Matrix	-4236
▁Presum	-4237
▁biolab	-4238
▁cereal	-4239
▁cheats	-4240
▁detect	-4241
▁discos	-4242
▁dozens	-4243
▁gamers	-4244
▁gather	-4245
▁genres	-4246
▁giving	-4247
▁glides	-4248
▁hamlet	-4249
▁helped	-4250
▁hiding	-4251
▁hockey	-4252
▁holler	-4253
▁houses	-4254
▁humane	-4255
▁humans	-4256
▁iconic	-4257
▁ignore	-4258
▁images	-4259
▁impart	-4260
▁inclin	-4261
▁indeed	-4262
▁injury	-4263
▁insens	-4264
▁intact	-4265
▁invoke	-4266
▁ironic	-4267
▁issued	-4268
▁joined	-4269
▁kicker	-4270
▁killed	-4271
▁larger	-4272
▁latest	-4273
▁latter	-4274
▁leaves	-4275
▁liking	-4276
▁liquid	-4277
▁listen	-4278
▁louder	-4279
▁maiden	-4280
▁makers	-4281
▁manner	-4282
▁mental	-4283
▁meters	-4284
▁method	-4285
▁millis	-4286
▁miscon	-4287
▁mouths	-4288
▁museum	-4289
▁nanobi	-4290
▁nearly	-4291
▁negoti	-4292
▁nobody	-4293
▁nothin	-4294
▁notice	-4295
▁number	-4296
▁online	-4297
▁operas	-4298
▁oscill	-4299
rum	-4300
▁BA	-4301
▁Hi	-4302
▁MC	-4303
▁Bas	-4304
▁Ben	-4305
▁Its	-4306
▁Sir	-4307
▁dad	-4308
▁exp	-4309
▁lie	-4310
▁ori	-4311
▁sea	-4312
▁tag	-4313
▁vac	-4314
ables	-4315
arter	-4316
icing	-4317
night	-4318
packs	-4319
storm	-4320
▁Kane	-4321
▁More	-4322
▁Same	-4323
▁Soon	-4324
▁acqu	-4325
▁acts	-4326
▁coax	-4327
▁land	-4328
▁myop	-4329
▁pour	-4330
▁quit	-4331
▁read	-4332
▁shot	-4333
▁user	-4334
▁west	-4335
▁word	-4336
blower	-4337
entist	-4338
▁Agree	-4339
▁First	-4340
▁cover	-4341
▁eight	-4342
▁force	-4343
▁moves	-4344
▁notes	-4345
▁tones	-4346
ibility	-4347
reasing	-4348
▁anyway	-4349
▁blocks	-4350
▁builds	-4351
▁divide	-4352
▁hushed	-4353
▁paddle	-4354
▁parent	-4355
▁paying	-4356
▁pencil	-4357
▁picked	-4358
▁pilots	-4359
▁plates	-4360
▁plenty	-4361
▁pocket	-4362
▁points	-4363
▁porous	-4364
▁potent	-4365
▁poured	-4366
▁primed	-4367
▁public	-4368
▁pushed	-4369
▁putter	-4370
▁railed	-4371
▁recogn	-4372
▁region	-4373
▁remove	-4374
▁result	-4375
▁richer	-4376
▁sacred	-4377
▁saliva	-4378
▁sample	-4379
▁satell	-4380
▁scenes	-4381
▁season	-4382
▁sector	-4383
▁seemed	-4384
▁shaped	-4385
▁shares	-4386
▁sharks	-4387
▁sheets	-4388
▁shocks	-4389
▁showed	-4390
▁signed	-4391
▁simply	-4392
▁sister	-4393
▁slides	-4394
▁slowly	-4395
▁smooth	-4396
▁speaks	-4397
▁spirit	-4398
▁spread	-4399
▁beats	-4400
▁street	-4401
▁suited	-4402
▁survey	-4403
▁taboos	-4404
▁tackle	-4405
▁tattoo	-4406
▁taught	-4407
▁tempos	-4408
▁tennis	-4409
▁theirs	-4410
▁tinker	-4411
▁tokens	-4412
▁travel	-4413
▁trials	-4414
▁truths	-4415
▁turned	-4416
▁unable	-4417
▁uneven	-4418
▁unlike	-4419
▁unmedi	-4420
▁update	-4421
▁vessel	-4422
▁vision	-4423
▁volume	-4424
▁vulner	-4425
▁weaker	-4426
▁weekly	-4427
▁windsh	-4428
▁wished	-4429
▁writer	-4430
▁writes	-4431
▁yellow	-4432
absorbed	-4433
ambridge	-4434
ashville	-4435
avannahs	-4436
ccessful	-4437
cleaning	-4438
ctioning	-4439
declared	-4440
dwellers	-4441
emically	-4442
erspaces	-4443
essional	-4444
fortable	-4445
idelines	-4446
ightened	-4447
ironment	-4448
itnessed	-4449
ivatives	-4450
lifetime	-4451
oscience	-4452
osophies	-4453
ressions	-4454
security	-4455
uestions	-4456
veterate	-4457
ximately	-4458
▁African	-4459
▁Austria	-4460
▁Awesome	-4461
▁Biotech	-4462
▁British	-4463
▁Britons	-4464
▁Chamber	-4465
▁Chronic	-4466
▁Citizen	-4467
▁Climate	-4468
▁EUPHORE	-4469
▁Germany	-4470
▁Harring	-4471
▁Harvard	-4472
▁Holland	-4473
▁Honhoff	-4474
▁Instead	-4475
▁Iranian	-4476
▁Microph	-4477
▁Mildred	-4478
▁Million	-4479
▁Nations	-4480
▁Perfect	-4481
▁Poitier	-4482
▁Popular	-4483
▁Project	-4484
▁Purists	-4485
▁Putting	-4486
▁Reading	-4487
▁Rudolph	-4488
▁Shortly	-4489
▁Sinatra	-4490
▁Slumdog	-4491
▁Stewart	-4492
▁Triumph	-4493
▁Western	-4494
▁Without	-4495
▁absorbs	-4496
▁actions	-4497
▁adapted	-4498
▁affects	-4499
▁allowed	-4500
▁amateur	-4501
▁anatomy	-4502
▁annoyed	-4503
▁anymore	-4504
▁applied	-4505
▁aspects	-4506
▁astonis	-4507
▁awesome	-4508
▁awkward	-4509
▁ballads	-4510
▁bandage	-4511
▁basking	-4512
▁becomes	-4513
▁bedtime	-4514
▁biofuel	-4515
▁biology	-4516
▁blasted	-4517
▁bombast	-4518
▁bounces	-4519
▁boundar	-4520
▁brother	-4521
▁buzzing	-4522
▁calling	-4523
▁careful	-4524
▁changes	-4525
▁cheaper	-4526
▁chicken	-4527
▁citizen	-4528
▁classes	-4529
▁clearly	-4530
▁collect	-4531
▁comment	-4532
▁compels	-4533
▁complex	-4534
▁concise	-4535
▁confuse	-4536
▁consent	-4537
▁contest	-4538
▁convent	-4539
▁craggly	-4540
▁curated	-4541
▁cutting	-4542
▁dancing	-4543
▁debated	-4544
▁declare	-4545
▁delight	-4546
▁deliver	-4547
▁depends	-4548
▁despite	-4549
▁deviant	-4550
▁devoted	-4551
▁display	-4552
▁dispose	-4553
▁distant	-4554
▁diverse	-4555
▁doubled	-4556
▁drowned	-4557
▁dynamic	-4558
▁easiest	-4559
▁economy	-4560
▁elegant	-4561
▁element	-4562
▁emitted	-4563
▁enabled	-4564
▁endemic	-4565
▁ethical	-4566
▁evolved	-4567
▁examine	-4568
▁falling	-4569
▁fantasy	-4570
▁fastest	-4571
▁favelas	-4572
▁fiction	-4573
▁foliage	-4574
▁forests	-4575
▁forever	-4576
▁founded	-4577
▁freshly	-4578
▁funding	-4579
▁furious	-4580
▁further	-4581
▁gallery	-4582
▁genomic	-4583
▁hallway	-4584
▁hardest	-4585
▁healthy	-4586
▁helpful	-4587
▁helping	-4588
▁himself	-4589
▁holding	-4590
▁hormone	-4591
▁hurtful	-4592
▁hurting	-4593
▁husband	-4594
▁iceberg	-4595
▁ignited	-4596
▁illness	-4597
▁imaging	-4598
▁incline	-4599
▁insides	-4600
▁inspire	-4601
▁invokes	-4602
▁judokas	-4603
▁justify	-4604
▁keeping	-4605
▁ladybug	-4606
▁largest	-4607
▁leading	-4608
▁leaving	-4609
▁lengths	-4610
▁lessons	-4611
▁letting	-4612
▁machine	-4613
▁managed	-4614
▁mankind	-4615
▁markets	-4616
▁methane	-4617
▁miracle	-4618
▁morning	-4619
▁muscles	-4620
▁neither	-4621
▁network	-4622
▁noticed	-4623
▁numbers	-4624
▁onstage	-4625
▁opiates	-4626
▁organic	-4627
▁outcome	-4628
▁outdoor	-4629
▁outside	-4630
▁parable	-4631
▁passage	-4632
▁pathway	-4633
▁pattern	-4634
▁picture	-4635
▁pitched	-4636
▁portion	-4637
▁poverty	-4638
▁prepaid	-4639
▁primary	-4640
▁product	-4641
▁propose	-4642
▁provide	-4643
▁purpose	-4644
▁pursuit	-4645
▁quality	-4646
▁quarter	-4647
▁reality	-4648
▁reasons	-4649
▁refined	-4650
▁replace	-4651
▁replica	-4652
▁rethink	-4653
▁richest	-4654
▁risking	-4655
▁robbers	-4656
▁robotic	-4657
▁rounder	-4658
▁running	-4659
▁sadness	-4660
▁sailors	-4661
▁scanner	-4662
▁scratch	-4663
▁section	-4664
▁secular	-4665
▁sending	-4666
▁shadows	-4667
▁shatter	-4668
▁showing	-4669
▁sincere	-4670
▁singing	-4671
▁sisters	-4672
▁skyward	-4673
▁smiling	-4674
▁solving	-4675
▁somehow	-4676
▁sounded	-4677
▁sparrow	-4678
▁spawned	-4679
▁survive	-4680
▁tanager	-4681
▁teacher	-4682
▁teenage	-4683
▁tempted	-4684
▁theater	-4685
▁torture	-4686
▁towards	-4687
▁tsunami	-4688
▁typical	-4689
▁unarmed	-4690
▁uninter	-4691
▁univers	-4692
▁vibrant	-4693
▁viewing	-4694
▁wearing	-4695
▁wetware	-4696
▁worried	-4697
▁yelling	-4698
bacterial	-4699
chisement	-4700
ciousness	-4701
computers	-4702
corrosion	-4703
ependence	-4704
formative	-4705
ification	-4706
iguration	-4707
iotherapy	-4708
narrative	-4709
reluctant	-4710
repellent	-4711
▁Actually	-4712
▁Attenbor	-4713
▁Carolina	-4714
▁Champion	-4715
▁Consider	-4716
▁Creating	-4717
▁Eleonora	-4718
▁Everyone	-4719
▁Evidence	-4720
▁Honestly	-4721
▁Internet	-4722
▁Japanese	-4723
▁Kingsley	-4724
▁Malaysia	-4725
▁Mountain	-4726
▁Neurosci	-4727
▁Personal	-4728
▁Recently	-4729
▁Reindeer	-4730
▁Savannah	-4731
▁Tennyson	-4732
▁abstract	-4733
▁activity	-4734
▁adaptive	-4735
▁amateurs	-4736
▁ambition	-4737
▁analyzed	-4738
▁ancestry	-4739
▁annoying	-4740
▁appetite	-4741
▁arguably	-4742
▁arteries	-4743
▁artistic	-4744
▁atheists	-4745
▁attacked	-4746
▁attitude	-4747
▁backpack	-4748
▁backyard	-4749
▁balloons	-4750
▁barefoot	-4751
▁battling	-4752
▁benefits	-4753
▁billions	-4754
▁biofuels	-4755
▁birthday	-4756
▁bothered	-4757
▁branches	-4758
▁breaking	-4759
▁business	-4760
▁champion	-4761
▁channels	-4762
▁chapters	-4763
▁checking	-4764
▁choosing	-4765
▁circuits	-4766
▁clinical	-4767
▁combined	-4768
▁comedian	-4769
▁comments	-4770
▁compared	-4771
▁competed	-4772
▁concerns	-4773
▁configur	-4774
▁conflict	-4775
▁contexts	-4776
▁contrast	-4777
▁creative	-4778
▁critical	-4779
▁cultures	-4780
▁decision	-4781
▁decrease	-4782
▁demanded	-4783
▁diamonds	-4784
▁director	-4785
▁distance	-4786
▁diverged	-4787
▁download	-4788
▁drumming	-4789
▁dynamics	-4790
▁electric	-4791
▁enduring	-4792
▁engaging	-4793
▁enormous	-4794
▁envelope	-4795
▁envision	-4796
▁evidence	-4797
▁examples	-4798
▁existing	-4799
▁exploded	-4800
▁explored	-4801
▁explores	-4802
▁familiar	-4803
▁feasible	-4804
▁feelings	-4805
▁flatters	-4806
▁followed	-4807
▁foreseen	-4808
▁friendly	-4809
▁genocide	-4810
▁grappled	-4811
▁grateful	-4812
▁hammered	-4813
▁headline	-4814
▁ignoring	-4815
▁improves	-4816
▁incisive	-4817
▁increase	-4818
▁infinite	-4819
▁informed	-4820
▁injected	-4821
▁instinct	-4822
▁invasive	-4823
▁invented	-4824
▁inventor	-4825
▁investig	-4826
▁judgment	-4827
▁language	-4828
▁laughing	-4829
▁literacy	-4830
▁managing	-4831
▁matching	-4832
▁measured	-4833
▁medicine	-4834
▁memories	-4835
▁messages	-4836
▁microbes	-4837
▁military	-4838
▁mistakes	-4839
▁morality	-4840
▁mortgage	-4841
▁movement	-4842
▁mutinied	-4843
▁mutually	-4844
▁national	-4845
▁negative	-4846
▁occasion	-4847
▁occurred	-4848
▁official	-4849
▁opposite	-4850
▁outcomes	-4851
▁palpable	-4852
▁palpably	-4853
▁passions	-4854
▁pathogen	-4855
▁pathways	-4856
▁performs	-4857
▁pleasure	-4858
▁poignant	-4859
▁policies	-4860
▁preacher	-4861
▁prepared	-4862
▁presents	-4863
▁previous	-4864
▁probable	-4865
▁produces	-4866
▁profound	-4867
▁projects	-4868
▁properly	-4869
▁provides	-4870
▁rarified	-4871
▁rational	-4872
▁received	-4873
▁rehearse	-4874
▁releases	-4875
▁remarked	-4876
▁reviewed	-4877
▁rhythmic	-4878
▁ridicule	-4879
▁roommate	-4880
▁scanners	-4881
▁scariest	-4882
▁schedule	-4883
▁screened	-4884
▁selected	-4885
▁sickness	-4886
▁sinister	-4887
▁slightly	-4888
▁solution	-4889
▁speaking	-4890
▁specific	-4891
▁spectrum	-4892
▁stadiums	-4893
▁starting	-4894
▁stealing	-4895
▁stratosp	-4896
▁strength	-4897
▁studying	-4898
▁suggests	-4899
▁superbug	-4900
▁survived	-4901
▁survives	-4902
▁swearing	-4903
▁symphony	-4904
▁tackling	-4905
▁taxation	-4906
▁teenager	-4907
▁terribly	-4908
▁textural	-4909
▁touching	-4910
▁traveled	-4911
▁tutelage	-4912
▁uncoated	-4913
▁vacation	-4914
▁valuable	-4915
▁versions	-4916
▁villages	-4917
▁violence	-4918
▁weakness	-4919
▁whistler	-4920
▁wondered	-4921
▁wondrous	-4922
definition	-4923
invasively	-4924
olutionary	-4925
oterrorist	-4926
scientific	-4927
subsection	-4928
▁Basically	-4929
▁Cambridge	-4930
▁Christian	-4931
▁Excellent	-4932
▁Francisco	-4933
▁Headlines	-4934
▁Hollywood	-4935
▁Initially	-4936
▁Louisburg	-4937
▁Massively	-4938
▁Musicians	-4939
▁Nashville	-4940
▁Obviously	-4941
▁Rotterdam	-4942
▁Schindler	-4943
▁Wagnerian	-4944
▁Westerman	-4945
▁accepting	-4946
▁advocates	-4947
▁ambitious	-4948
▁artifacts	-4949
▁astronaut	-4950
▁attention	-4951
▁audiences	-4952
▁authentic	-4953
▁authority	-4954
▁available	-4955
▁awareness	-4956
▁barcoding	-4957
▁beautiful	-4958
▁behaviors	-4959
▁billionth	-4960
▁biocensor	-4961
▁biohazard	-4962
▁breakfast	-4963
▁carpenter	-4964
▁celebrate	-4965
▁certainly	-4966
▁chemistry	-4967
▁classroom	-4968
▁clearance	-4969
▁clientele	-4970
▁collapsed	-4971
▁colleague	-4972
▁composers	-4973
▁concluded	-4974
▁confident	-4975
▁correctly	-4976
▁corrosion	-4977
▁democracy	-4978
▁described	-4979
▁discussed	-4980
▁disenfran	-4981
▁dominated	-4982
▁economics	-4983
▁economist	-4984
▁efficient	-4985
▁eliminate	-4986
▁embracing	-4987
▁emissions	-4988
▁exchanged	-4989
▁exclusive	-4990
▁filmmaker	-4991
▁frequency	-4992
▁gathering	-4993
▁generally	-4994
▁harnessed	-4995
▁histories	-4996
▁immediate	-4997
▁immigrant	-4998
▁imparting	-4999
▁increased	-5000
▁increases	-5001
▁infrastru	-5002
▁intensely	-5003
▁interests	-5004
▁interface	-5005
▁interfere	-5006
▁interlude	-5007
▁irritated	-5008
▁jukeboxes	-5009
▁knowledge	-5010
▁landscape	-5011
▁languages	-5012
▁memorable	-5013
▁mentioned	-5014
▁molecular	-5015
▁mutations	-5016
▁nonporous	-5017
▁operating	-5018
▁orchestra	-5019
▁organisms	-5020
▁otherwise	-5021
▁outweighs	-5022
▁overboard	-5023
▁paintings	-5024
▁performed	-5025
▁political	-5026
▁potential	-5027
▁primarily	-5028
▁principle	-5029
▁propriety	-5030
▁radiation	-5031
▁reassured	-5032
▁resources	-5033
▁reviewers	-5034
▁satellite	-5035
▁savannahs	-5036
▁screening	-5037
▁sensation	-5038
▁sensitive	-5039
▁shredding	-5040
▁sincerity	-5041
▁snowstorm	-5042
▁southeast	-5043
▁spaceship	-5044
▁sportsmen	-5045
▁stimulate	-5046
▁structure	-5047
▁struggles	-5048
▁subtitled	-5049
▁surprised	-5050
▁survivors	-5051
▁synthetic	-5052
▁technical	-5053
▁teenagers	-5054
▁therapist	-5055
▁typically	-5056
▁variables	-5057
▁whimsical	-5058
▁witnessed	-5059
▁Automobile	-5060
▁Behavioral	-5061
▁Biohackers	-5062
▁Biohacking	-5063
▁Creativity	-5064
▁Depression	-5065
▁Harrington	-5066
▁Intergover	-5067
▁Persepolis	-5068
▁Pickpocket	-5069
▁Presumably	-5070
▁Technology	-5071
▁Washington	-5072
▁accelerate	-5073
▁acceptance	-5074
▁accessible	-5075
▁activating	-5076
▁adaptation	-5077
▁articulate	-5078
▁aspiration	-5079
▁assessment	-5080
▁associated	-5081
▁behavioral	-5082
▁boundaries	-5083
▁celebrated	-5084
▁challenges	-5085
▁colleagues	-5086
▁combustion	-5087
▁confidence	-5088
▁confronted	-5089
▁congregant	-5090
▁connection	-5091
▁continents	-5092
▁controlled	-5093
▁decreasing	-5094
▁depressing	-5095
▁difficulty	-5096
▁dissipates	-5097
▁documented	-5098
▁ecological	-5099
▁electrical	-5100
▁electrodes	-5101
▁endogenous	-5102
▁engagement	-5103
▁especially	-5104
▁explosions	-5105
▁expression	-5106
▁facilities	-5107
▁filmmakers	-5108
▁girlfriend	-5109
▁guidelines	-5110
▁heightened	-5111
▁heroically	-5112
▁identified	-5113
▁importance	-5114
▁incentives	-5115
▁increasing	-5116
▁incredible	-5117
▁influenced	-5118
▁inherently	-5119
▁intentions	-5120
▁inveterate	-5121
▁journalist	-5122
▁laboratory	-5123
▁literature	-5124
▁mainstream	-5125
▁meaningful	-5126
▁measurable	-5127
▁myopically	-5128
▁nanometers	-5129
▁narratives	-5130
▁occasional	-5131
▁originally	-5132
▁outpouring	-5133
▁perception	-5134
▁performing	-5135
▁playground	-5136
▁pollutants	-5137
▁procedures	-5138
▁propaganda	-5139
▁protecting	-5140
▁punishment	-5141
▁recuperate	-5142
▁remarkable	-5143
▁remarkably	-5144
▁remembered	-5145
▁repeatedly	-5146
▁repetitive	-5147
▁riverboats	-5148
▁screenings	-5149
▁securities	-5150
▁subsection	-5151
▁successful	-5152
▁surprising	-5153
▁synthesize	-5154
▁systematic	-5155
▁thoughtful	-5156
▁timescales	-5157
▁translated	-5158
▁undergrads	-5159
▁unmediated	-5160
▁volunteers	-5161
▁watchtower	-5162
▁waterproof	-5163
▁windshield	-5164
▁worldviews	-5165
▁worthwhile	-5166
▁Atmospheric	-5167
▁Confessions	-5168
▁Elizabethan	-5169
▁Microphones	-5170
▁Millionaire	-5171
▁Riefenstahl	-5172
▁Shakespeare	-5173
▁achievement	-5174
▁acquisition	-5175
▁adversities	-5176
▁alternative	-5177
▁appropriate	-5178
▁aspirations	-5179
▁assessments	-5180
▁assimilated	-5181
▁blockbuster	-5182
▁bloodstream	-5183
▁calculating	-5184
▁comfortable	-5185
▁commodities	-5186
▁consumerism	-5187
▁contributed	-5188
▁controlling	-5189
▁criminality	-5190
▁derivatives	-5191
▁description	-5192
▁differently	-5193
▁disappeared	-5194
▁discotheque	-5195
▁discussions	-5196
▁dissonances	-5197
▁distributed	-5198
▁documentary	-5199
▁environment	-5200
▁experiences	-5201
▁explanation	-5202
▁fascinating	-5203
▁functioning	-5204
▁generations	-5205
▁genetically	-5206
▁grandfather	-5207
▁hydrophobic	-5208
▁importantly	-5209
▁impressions	-5210
▁improvement	-5211
▁inclination	-5212
▁incredulity	-5213
▁influential	-5214
▁insensitive	-5215
▁integration	-5216
▁intuitively	-5217
▁journalists	-5218
▁maneuvering	-5219
▁nanoscience	-5220
▁negotiating	-5221
▁opinionated	-5222
▁oscillation	-5223
▁performance	-5224
▁personality	-5225
▁possibility	-5226
▁potentially	-5227
▁predictable	-5228
▁questioning	-5229
▁recognizing	-5230
▁seriousness	-5231
▁spectacular	-5232
▁subsections	-5233
▁suggestions	-5234
▁technically	-5235
▁understands	-5236
▁Attenborough	-5237
▁Championship	-5238
▁accidentally	-5239
▁acoustically	-5240
▁architecture	-5241
▁assimilation	-5242
▁bioterrorist	-5243
▁capabilities	-5244
▁championship	-5245
▁conventional	-5246
▁demonstrates	-5247
▁disabilities	-5248
▁disapproving	-5249
▁evolutionary	-5250
▁experimental	-5251
▁explanations	-5252
▁filibustered	-5253
▁hackerspaces	-5254
▁illuminating	-5255
▁improvements	-5256
▁independence	-5257
▁innovatively	-5258
▁interstitial	-5259
▁milliseconds	-5260
▁nanoparticle	-5261
▁nevertheless	-5262
▁organization	-5263
▁overestimate	-5264
▁perspectives	-5265
▁philosophies	-5266
▁professional	-5267
▁storytellers	-5268
▁stratosphere	-5269
▁superimposed	-5270
▁surprisingly	-5271
▁universities	-5272
▁Configuration	-5273
▁amplification	-5274
▁approximately	-5275
▁astonishingly	-5276
▁biochemically	-5277
▁communication	-5278
▁consciousness	-5279
▁consideration	-5280
▁embarrassment	-5281
▁instinctively	-5282
▁irrationality	-5283
▁misconception	-5284
▁participating	-5285
▁physiotherapy	-5286
▁procrastinate	-5287
▁projectionist	-5288
▁underestimate	-5289
▁uninterrupted	-5290
▁vulnerability	-5291
▁whistleblower	-5292
▁Neuroscientist	-5293
▁configurations	-5294
▁contextualized	-5295
▁infrastructure	-5296
▁supercomputers	-5297
▁transformative	-5298
▁experimentation	-5299
▁investigational	-5300
▁procrastination	-5301
#91	-5302
#93	-5303
009	-5304
IYb	-5305
Rob	-5306
ahs	-5307
box	-5308
cks	-5309
duc	-5310
hav	-5311
lav	-5312
liz	-5313
mpt	-5314
nah	-5315
noy	-5316
nts	-5317
ppe	-5318
raz	-5319
saf	-5320
sra	-5321
sue	-5322
tra	-5323
uck	-5324
uff	-5325
ugg	-5326
uys	-5327
xts	-5328
ype	-5329
ysi	-5330
yze	-5331
▁Ja	-5332
,500	-5333
5,00	-5334
adyb	-5335
aise	-5336
ampa	-5337
anob	-5338
ansf	-5339
ansm	-5340
appe	-5341
aren	-5342
ares	-5343
atra	-5344
atto	-5345
cape	-5346
ccas	-5347
code	-5348
ctly	-5349
eale	-5350
eare	-5351
eber	-5352
edia	-5353
eese	-5354
eigh	-5355
ekly	-5356
emat	-5357
enef	-5358
erns	-5359
fety	-5360
fric	-5361
frie	-5362
fron	-5363
fuel	-5364
gelo	-5365
ggle	-5366
greg	-5367
have	-5368
havi	-5369
hful	-5370
hile	-5371
hood	-5372
ials	-5373
ickp	-5374
iety	-5375
ighb	-5376
ints	-5377
inue	-5378
irds	-5379
irlf	-5380
isky	-5381
kens	-5382
kirt	-5383
lebr	-5384
loat	-5385
loor	-5386
lved	-5387
mile	-5388
mous	-5389
nanc	-5390
ndem	-5391
neri	-5392
ngth	-5393
ntry	-5394
nual	-5395
oign	-5396
olly	-5397
ools	-5398
oots	-5399
div	-5400
pli	-5401
siz	-5402
viv	-5403
ardw	-5404
ativ	-5405
each	-5406
ears	-5407
flec	-5408
lace	-5409
lecu	-5410
limp	-5411
lled	-5412
oard	-5413
olec	-5414
ousn	-5415
ovat	-5416
oved	-5417
oves	-5418
ownl	-5419
pace	-5420
pare	-5421
pful	-5422
pics	-5423
pite	-5424
plan	-5425
plif	-5426
plod	-5427
ppet	-5428
pply	-5429
ppos	-5430
ppro	-5431
pris	-5432
ptan	-5433
ract	-5434
ranc	-5435
rank	-5436
raor	-5437
resh	-5438
ribe	-5439
rica	-5440
ript	-5441
rise	-5442
ruct	-5443
rupt	-5444
sens	-5445
shir	-5446
stem	-5447
tely	-5448
tful	-5449
ucky	-5450
uels	-5451
ules	-5452
ulty	-5453
uths	-5454
vail	-5455
vies	-5456
view	-5457
wear	-5458
wner	-5459
xtur	-5460
ysic	-5461
zard	-5462
zens	-5463
▁400	-5464
▁Att	-5465
▁	-5466
e	-5467
t	-5468
o	-5469
a	-5470
s	-5471
n	-5472
i	-5473
h	-5474
r	-5475
l	-5476
d	-5477
u	-5478
p	-5479
c	-5480
m	-5481
w	-5482
y	-5483
g	-5484
f	-5485
,	-5486
.	-5487
b	-5488
;	-5489
&	-5490
v	-5491
k	-5492
I	-5493
-	-5494
A	-5495
T	-5496
q	-5497
W	-5498
S	-5499
x	-5500
?	-5501
B	-5502
j	-5503
0	-5504
C	-5505
M	-5506
Y	-5507
H	-5508
1	-5509
N	-5510
P	-5511
D	-5512
z	-5513
O	-5514
E	-5515
F	-5516
G	-5517
:	-5518
L	-5519
R	-5520
9	-5521
3	-5522
2	-5523
5	-5524
U	-5525
J	-5526
#	-5527
4	-5528
K	-5529
!	-5530
