<unk>	0
<s>	0
</s>	0
▁t	-0
ng	-1
▁c	-2
▁đ	-3
▁n	-4
▁v	-5
▁th	-6
▁l	-7
▁m	-8
▁ch	-9
▁,	-10
▁b	-11
▁nh	-12
▁h	-13
▁.	-14
▁k	-15
nh	-16
▁s	-17
▁tr	-18
▁kh	-19
▁ng	-20
▁g	-21
▁là	-22
ôi	-23
▁và	-24
▁r	-25
ác	-26
ông	-27
ột	-28
▁p	-29
▁d	-30
▁ph	-31
▁tôi	-32
qu	-33
▁một	-34
▁có	-35
úng	-36
▁gi	-37
ên	-38
iệ	-39
ững	-40
ời	-41
ới	-42
▁những	-43
▁chúng	-44
▁củ	-45
▁của	-46
iế	-47
ất	-48
ạn	-49
▁T	-50
▁ta	-51
▁các	-52
▁nà	-53
▁qu	-54
iề	-55
▁không	-56
ượ	-57
▁nó	-58
ong	-59
▁V	-60
ười	-61
▁đó	-62
▁x	-63
▁C	-64
iều	-65
▁người	-66
▁bạn	-67
ại	-68
▁ngh	-69
▁N	-70
▁trong	-71
▁thể	-72
ược	-73
uy	-74
▁này	-75
▁đã	-76
▁được	-77
▁như	-78
▁&	-79
ây	-80
▁họ	-81
ình	-82
ot	-83
▁với	-84
ấy	-85
quot	-86
▁cho	-87
an	-88
▁Và	-89
ay	-90
▁ra	-91
▁sự	-92
ần	-93
▁mà	-94
ải	-95
▁làm	-96
ang	-97
▁ở	-98
iên	-99
ằng	-100
▁để	-101
ực	-102
▁về	-103
▁Đ	-104
▁sẽ	-105
▁cả	-106
ái	-107
uố	-108
ân	-109
iể	-110
ơn	-111
ật	-112
iết	-113
▁điều	-114
▁thế	-115
ầu	-116
▁ho	-117
on	-118
ướ	-119
ch	-120
ến	-121
▁Ch	-122
▁từ	-123
▁khi	-124
ành	-125
ống	-126
▁B	-127
anh	-128
▁Tôi	-129
inh	-130
▁nói	-131
ao	-132
ai	-133
ết	-134
ức	-135
iện	-136
▁1	-137
▁nă	-138
▁đến	-139
ính	-140
▁?	-141
▁phải	-142
▁M	-143
iệc	-144
ước	-145
ườ	-146
▁rằng	-147
▁Nh	-148
▁vào	-149
▁gì	-150
▁đang	-151
àn	-152
ường	-153
▁việc	-154
▁H	-155
au	-156
▁lại	-157
ản	-158
ận	-159
▁thấy	-160
▁nghĩ	-161
▁độ	-162
▁rất	-163
▁cách	-164
in	-165
▁hơn	-166
âu	-167
▁nhiều	-168
ùng	-169
ươ	-170
ài	-171
▁khác	-172
▁thực	-173
iến	-174
▁đầu	-175
ương	-176
ậy	-177
▁đây	-178
▁-	-179
▁học	-180
▁con	-181
ối	-182
ạo	-183
ổi	-184
ọi	-185
▁chỉ	-186
ếu	-187
▁công	-188
▁trên	-189
▁cái	-190
▁vì	-191
▁nào	-192
▁biết	-193
▁Chúng	-194
▁chuy	-195
▁đề	-196
át	-197
ung	-198
àng	-199
iệu	-200
▁năm	-201
ũng	-202
ơi	-203
▁đi	-204
uốn	-205
▁thứ	-206
▁dụ	-207
▁thành	-208
▁K	-209
ộc	-210
▁:	-211
ắt	-212
▁--	-213
▁số	-214
áng	-215
▁cũng	-216
ích	-217
▁nhà	-218
▁Như	-219
uộc	-220
▁bị	-221
▁to	-222
▁kho	-223
▁quan	-224
ập	-225
▁S	-226
ăn	-227
▁muốn	-228
ồi	-229
úc	-230
ởi	-231
eo	-232
▁Th	-233
em	-234
▁mình	-235
ữa	-236
▁nhưng	-237
▁nhất	-238
▁Nhưng	-239
▁tạo	-240
ưở	-241
ưởng	-242
▁động	-243
án	-244
▁giới	-245
▁chính	-246
▁A	-247
ặt	-248
▁lo	-249
▁nên	-250
ấn	-251
▁vậy	-252
ày	-253
ền	-254
òn	-255
▁lớ	-256
ắc	-257
êu	-258
▁hình	-259
ưa	-260
ỏi	-261
ện	-262
iểu	-263
▁giờ	-264
▁hiện	-265
▁sống	-266
▁tiế	-267
▁tại	-268
▁nếu	-269
▁nhận	-270
▁mọi	-271
▁L	-272
ượng	-273
âm	-274
er	-275
ứng	-276
ìn	-277
▁quy	-278
▁cuộc	-279
▁thu	-280
▁cần	-281
▁2	-282
▁hay	-283
am	-284
▁tố	-285
▁tự	-286
ặc	-287
▁thì	-288
▁Tr	-289
ội	-290
ánh	-291
▁đị	-292
ôn	-293
áo	-294
▁tất	-295
ọng	-296
▁ông	-297
òng	-298
▁ấy	-299
▁bởi	-300
en	-301
▁tới	-302
▁đồ	-303
▁theo	-304
▁bắt	-305
ẫn	-306
▁còn	-307
▁nhìn	-308
iểm	-309
▁Kh	-310
▁lớn	-311
▁cùng	-312
▁bằng	-313
▁ý	-314
▁cảm	-315
iển	-316
▁tế	-317
▁sau	-318
▁dụng	-319
▁thật	-320
▁cứ	-321
▁lên	-322
▁anh	-323
▁câu	-324
▁bản	-325
ảng	-326
▁tin	-327
▁qua	-328
▁sao	-329
▁thời	-330
▁chuyện	-331
▁trở	-332
iệm	-333
▁G	-334
▁ngày	-335
▁nhân	-336
▁cơ	-337
▁P	-338
▁bộ	-339
▁sinh	-340
ỗi	-341
ục	-342
ia	-343
ảnh	-344
ìm	-345
▁năng	-346
ạt	-347
▁sử	-348
▁trước	-349
▁phát	-350
▁nước	-351
▁đổi	-352
▁Nó	-353
iệt	-354
▁toàn	-355
▁phần	-356
ảo	-357
áy	-358
▁nơi	-359
▁gia	-360
▁do	-361
▁thông	-362
▁dự	-363
▁tìm	-364
▁nhau	-365
ar	-366
▁mới	-367
▁thay	-368
▁lu	-369
▁y	-370
▁vấn	-371
▁định	-372
▁hệ	-373
▁trường	-374
▁D	-375
▁nhiên	-376
▁tính	-377
▁Đây	-378
iễ	-379
ách	-380
▁trình	-381
▁mạ	-382
▁tốt	-383
▁tưởng	-384
▁kết	-385
ấu	-386
ăng	-387
ấp	-388
▁vật	-389
ãy	-390
ảy	-391
▁hàng	-392
▁lý	-393
00	-394
▁tu	-395
▁hỏi	-396
▁Bạn	-397
ợp	-398
▁máy	-399
▁ảnh	-400
ạc	-401
út	-402
im	-403
▁hợp	-404
áp	-405
▁Đó	-406
▁mặt	-407
ắn	-408
▁tiếp	-409
▁hành	-410
▁nữa	-411
▁kinh	-412
▁gian	-413
▁thức	-414
▁hội	-415
▁vị	-416
▁tuy	-417
▁thiết	-418
▁chiế	-419
▁rồi	-420
ào	-421
▁xem	-422
▁liệu	-423
▁trọng	-424
▁hoá	-425
▁thích	-426
▁cô	-427
▁R	-428
ồn	-429
ệnh	-430
▁đồng	-431
iễn	-432
▁giải	-433
iêu	-434
▁trẻ	-435
▁lượng	-436
ắng	-437
▁hai	-438
▁đo	-439
▁ai	-440
▁thường	-441
▁bất	-442
▁vài	-443
▁đều	-444
▁Ng	-445
▁tiên	-446
▁Một	-447
▁đối	-448
▁sáng	-449
ộng	-450
ển	-451
▁hiểu	-452
▁quá	-453
▁tâm	-454
▁nay	-455
ốc	-456
▁3	-457
▁loại	-458
▁giống	-459
▁lần	-460
▁Vì	-461
▁cứu	-462
▁bao	-463
▁bệnh	-464
▁thống	-465
ịch	-466
ảm	-467
ám	-468
▁viên	-469
êm	-470
ệt	-471
▁nghệ	-472
iền	-473
▁điểm	-474
▁nghĩa	-475
▁ngo	-476
▁gọi	-477
▁Có	-478
▁nhỏ	-479
▁Vậy	-480
▁Họ	-481
▁đưa	-482
▁xu	-483
▁tương	-484
▁hoàn	-485
▁nghiệm	-486
▁quả	-487
▁tác	-488
▁đường	-489
or	-490
▁vẫn	-491
▁xảy	-492
ăm	-493
▁chiếc	-494
▁nguy	-495
▁thuật	-496
▁biệt	-497
▁dùng	-498
ẳng	-499
▁đại	-500
▁hoặc	-501
al	-502
▁bên	-503
▁từng	-504
▁dân	-505
uyền	-506
▁triển	-507
▁lúc	-508
▁chuyển	-509
iệp	-510
ọn	-511
ão	-512
▁diễn	-513
ẩn	-514
▁Điều	-515
▁trị	-516
▁quyết	-517
▁Những	-518
ừng	-519
▁cố	-520
▁cao	-521
▁nghe	-522
úp	-523
▁ăn	-524
▁Ph	-525
▁dạ	-526
▁tuyệt	-527
uốc	-528
▁mỗi	-529
▁tổ	-530
▁cầu	-531
▁khoảng	-532
uối	-533
▁vi	-534
▁Nếu	-535
▁lực	-536
▁kế	-537
▁khu	-538
▁chất	-539
▁phụ	-540
▁lời	-541
▁giáo	-542
ép	-543
ợi	-544
ầm	-545
▁giúp	-546
▁đất	-547
es	-548
óng	-549
▁em	-550
ắp	-551
▁ơn	-552
ứa	-553
▁trung	-554
▁chủ	-555
ẩm	-556
▁bảo	-557
▁nữ	-558
▁giá	-559
▁tiến	-560
os	-561
▁hết	-562
▁phòng	-563
ưới	-564
▁chưa	-565
el	-566
▁tình	-567
▁nghiên	-568
▁Q	-569
▁xuất	-570
ướng	-571
▁xe	-572
▁phí	-573
▁mang	-574
▁liên	-575
▁phân	-576
óc	-577
▁Anh	-578
▁tranh	-579
▁bài	-580
▁đơn	-581
▁não	-582
▁tập	-583
▁truyền	-584
▁tuổi	-585
▁đúng	-586
▁phương	-587
▁điện	-588
▁bình	-589
ậu	-590
▁đặt	-591
▁tượng	-592
▁tay	-593
uống	-594
▁biến	-595
▁Khi	-596
▁tiền	-597
▁giữa	-598
▁J	-599
▁yêu	-600
▁sản	-601
ét	-602
▁tiếng	-603
▁hãy	-604
ạnh	-605
▁ngay	-606
▁tho	-607
▁khả	-608
ặp	-609
▁trả	-610
ít	-611
▁bé	-612
▁khoa	-613
▁Không	-614
▁thú	-615
▁I	-616
▁bỏ	-617
▁lấy	-618
▁khó	-619
ửa	-620
et	-621
▁gần	-622
▁xã	-623
▁hoạt	-624
▁cá	-625
▁chu	-626
▁chiến	-627
▁thị	-628
▁đáng	-629
▁sách	-630
▁Trong	-631
▁5	-632
▁chí	-633
▁phẩm	-634
▁thân	-635
▁pháp	-636
ấm	-637
▁hiệu	-638
▁cuối	-639
▁đời	-640
▁chơi	-641
▁Các	-642
▁mất	-643
▁sức	-644
▁minh	-645
ọc	-646
▁Gi	-647
▁kể	-648
▁so	-649
ẫu	-650
▁Mỹ	-651
is	-652
▁mạnh	-653
▁gh	-654
▁nghiệp	-655
at	-656
▁ngoài	-657
▁4	-658
uồn	-659
ic	-660
óm	-661
▁ít	-662
▁dẫn	-663
▁khí	-664
▁đấy	-665
▁lập	-666
▁tài	-667
▁mô	-668
▁loài	-669
ừa	-670
▁kỳ	-671
▁bức	-672
▁E	-673
ậm	-674
▁tinh	-675
▁luôn	-676
▁dựng	-677
▁xây	-678
▁trí	-679
▁tiêu	-680
▁phố	-681
▁tên	-682
▁vô	-683
uyết	-684
▁văn	-685
▁cộng	-686
▁âm	-687
▁chứng	-688
▁cụ	-689
▁tử	-690
ầy	-691
▁hướng	-692
il	-693
▁nhạc	-694
▁thử	-695
ôm	-696
▁Hãy	-697
▁viết	-698
▁đâu	-699
▁chức	-700
ap	-701
▁nguyên	-702
▁kiến	-703
▁quốc	-704
▁giả	-705
ạm	-706
▁ứng	-707
▁vời	-708
▁chọn	-709
▁giản	-710
▁quyền	-711
▁chế	-712
▁ba	-713
▁đặc	-714
▁tư	-715
▁bố	-716
▁suy	-717
▁chết	-718
▁bào	-719
ạch	-720
iếm	-721
▁mạng	-722
▁W	-723
▁cấp	-724
▁bà	-725
▁vụ	-726
▁triệu	-727
ạp	-728
▁tăng	-729
ẹp	-730
▁thần	-731
▁nền	-732
▁đạo	-733
▁lẽ	-734
▁đứa	-735
▁F	-736
▁phá	-737
it	-738
▁sĩ	-739
▁khỏi	-740
▁di	-741
▁màu	-742
▁X	-743
as	-744
▁đánh	-745
ua	-746
▁mẹ	-747
▁gặp	-748
ắm	-749
▁tháng	-750
▁Thế	-751
▁dưới	-752
▁..	-753
ol	-754
▁chút	-755
▁xuống	-756
ồng	-757
▁gắng	-758
âng	-759
▁phép	-760
▁khá	-761
▁nhóm	-762
▁quanh	-763
▁mở	-764
▁dịch	-765
▁khiến	-766
▁vực	-767
▁xác	-768
▁dữ	-769
▁10	-770
▁Bây	-771
▁%	-772
▁án	-773
ãi	-774
▁chia	-775
▁bay	-776
000	-777
▁duy	-778
▁thêm	-779
▁tham	-780
▁trò	-781
▁Ô	-782
▁thuyết	-783
▁mức	-784
▁nhanh	-785
▁quay	-786
▁dạng	-787
▁Ho	-788
▁gây	-789
▁rõ	-790
▁cực	-791
▁đàn	-792
▁vọng	-793
▁nguồn	-794
▁bu	-795
▁vùng	-796
▁cảnh	-797
▁bây	-798
▁dù	-799
▁đẹp	-800
▁báo	-801
▁tục	-802
iê	-803
▁giác	-804
▁chắc	-805
▁...	-806
▁sát	-807
▁xa	-808
▁càng	-809
▁dễ	-810
▁đủ	-811
▁ví	-812
▁cây	-813
▁trang	-814
▁20	-815
▁19	-816
iêng	-817
▁nhớ	-818
▁phía	-819
▁O	-820
▁phim	-821
▁chú	-822
áu	-823
▁biểu	-824
▁hôm	-825
▁hưởng	-826
ưu	-827
▁đoạn	-828
▁chị	-829
▁chẳng	-830
▁vũ	-831
▁kì	-832
▁kiểm	-833
▁trái	-834
▁thương	-835
▁Quốc	-836
ter	-837
ủng	-838
▁dài	-839
▁Ông	-840
▁vòng	-841
▁luận	-842
le	-843
▁ngữ	-844
▁phản	-845
▁đôi	-846
▁Trung	-847
ạy	-848
▁đầy	-849
▁dục	-850
▁lợi	-851
▁kia	-852
ựa	-853
▁giảm	-854
▁thậm	-855
ằm	-856
▁thuốc	-857
▁kiếm	-858
▁ty	-859
▁vu	-860
▁vừa	-861
▁chân	-862
▁tích	-863
▁thư	-864
▁trăm	-865
▁thôi	-866
apos	-867
om	-868
and	-869
▁6	-870
ac	-871
ưỡ	-872
▁hộ	-873
▁;	-874
▁đình	-875
iếu	-876
us	-877
▁hạn	-878
▁bước	-879
▁giao	-880
àu	-881
▁lệ	-882
▁lai	-883
▁Người	-884
▁đô	-885
▁chi	-886
▁sâu	-887
▁Tại	-888
▁tỉ	-889
▁môi	-890
▁toán	-891
▁trải	-892
▁trời	-893
iềm	-894
ụp	-895
▁tồn	-896
▁diện	-897
▁rộng	-898
▁phục	-899
▁Y	-900
▁giữ	-901
▁Bởi	-902
▁thanh	-903
▁dành	-904
▁nối	-905
▁địa	-906
▁đoán	-907
▁lòng	-908
ED	-909
uốt	-910
▁thuộc	-911
ad	-912
▁riêng	-913
▁tạp	-914
▁sợ	-915
▁mắt	-916
▁mục	-917
▁đứng	-918
▁!	-919
▁nổi	-920
▁phủ	-921
▁dạy	-922
▁lã	-923
▁vệ	-924
▁thí	-925
▁vẻ	-926
▁sai	-927
▁đạt	-928
▁nghi	-929
▁căn	-930
▁thúc	-931
▁kỹ	-932
▁luật	-933
▁sẻ	-934
▁tối	-935
▁mẫu	-936
▁xung	-937
▁lịch	-938
ob	-939
▁ánh	-940
▁bàn	-941
▁đọc	-942
ặng	-943
▁lớp	-944
ur	-945
ạng	-946
▁Cảm	-947
▁kỷ	-948
▁trụ	-949
▁yếu	-950
▁khắp	-951
▁TED	-952
#9	-953
▁&#9	-954
▁vui	-955
▁trông	-956
▁khoẻ	-957
▁tiết	-958
▁chương	-959
▁ngồi	-960
▁chạy	-961
▁gái	-962
àm	-963
▁phút	-964
▁sư	-965
▁cậu	-966
▁trợ	-967
▁cuốn	-968
▁7	-969
▁mối	-970
▁sắc	-971
▁buổi	-972
ượt	-973
▁chắn	-974
▁hầu	-975
▁suốt	-976
▁9	-977
id	-978
▁kiện	-979
ew	-980
ra	-981
▁biển	-982
▁trúc	-983
▁8	-984
▁mù	-985
▁chung	-986
▁ké	-987
▁ngôn	-988
▁mua	-989
▁doanh	-990
▁kiểu	-991
--	-992
▁Phi	-993
▁Tất	-994
▁Vâng	-995
èo	-996
▁cửa	-997
oo	-998
▁vận	-999
eb	-1000
▁cánh	-1001
▁khám	-1002
▁sở	-1003
▁ngạc	-1004
▁xét	-1005
▁xúc	-1006
ốt	-1007
▁ràng	-1008
▁lâu	-1009
▁tuần	-1010
▁thoại	-1011
▁bán	-1012
▁Sau	-1013
▁hiểm	-1014
▁hồi	-1015
▁cấu	-1016
▁nhiệm	-1017
▁200	-1018
ưỡng	-1019
▁phức	-1020
▁thiên	-1021
▁kích	-1022
oi	-1023
▁cung	-1024
ĩnh	-1025
▁nằm	-1026
▁chụp	-1027
▁chuyên	-1028
▁nhập	-1029
▁la	-1030
▁Ở	-1031
ing	-1032
▁bóng	-1033
▁ngôi	-1034
▁kẻ	-1035
▁thái	-1036
▁cạnh	-1037
uyện	-1038
ữu	-1039
▁độc	-1040
uyên	-1041
▁viện	-1042
▁băng	-1043
▁hạnh	-1044
▁hữu	-1045
▁chứ	-1046
ếp	-1047
▁hoà	-1048
▁chỗ	-1049
▁ngành	-1050
▁trưởng	-1051
▁vẽ	-1052
▁khủng	-1053
▁thập	-1054
▁ích	-1055
ẵn	-1056
▁đa	-1057
ỏng	-1058
▁chuẩn	-1059
▁Xin	-1060
▁bác	-1061
▁quý	-1062
▁tra	-1063
ẩy	-1064
▁ghi	-1065
▁phúc	-1066
▁thiếu	-1067
▁Cô	-1068
▁chịu	-1069
ửi	-1070
▁Thật	-1071
▁hề	-1072
▁hoạ	-1073
▁lắng	-1074
▁xanh	-1075
▁tấm	-1076
▁hu	-1077
▁tệ	-1078
▁sẵn	-1079
▁niệm	-1080
ộn	-1081
▁Nên	-1082
▁tức	-1083
▁phạm	-1084
▁nhiêu	-1085
▁Qu	-1086
▁Sự	-1087
▁khăn	-1088
▁trai	-1089
ro	-1090
▁tái	-1091
▁đau	-1092
▁an	-1093
▁sắp	-1094
úi	-1095
▁áp	-1096
▁hơi	-1097
▁Cái	-1098
▁lạ	-1099
▁Giờ	-1100
▁dung	-1101
ón	-1102
▁Thực	-1103
▁mặc	-1104
ốn	-1105
uôi	-1106
▁chống	-1107
▁lạc	-1108
▁thất	-1109
un	-1110
▁cải	-1111
▁dựa	-1112
▁mã	-1113
▁châu	-1114
▁mong	-1115
▁đóng	-1116
▁xử	-1117
▁lựa	-1118
▁trực	-1119
▁đội	-1120
▁St	-1121
▁ban	-1122
▁bánh	-1123
▁hậu	-1124
▁cổ	-1125
▁xin	-1126
▁tổng	-1127
▁khổ	-1128
▁nội	-1129
▁30	-1130
▁New	-1131
úa	-1132
▁khắc	-1133
ưng	-1134
▁mật	-1135
▁vượt	-1136
▁da	-1137
▁nhu	-1138
▁tỷ	-1139
▁xấu	-1140
▁tầm	-1141
▁chăm	-1142
▁Do	-1143
▁ẩn	-1144
▁dần	-1145
▁gửi	-1146
▁toà	-1147
▁Làm	-1148
▁hứng	-1149
▁thiện	-1150
▁hạt	-1151
ah	-1152
ig	-1153
▁tim	-1154
▁Để	-1155
re	-1156
▁hy	-1157
▁In	-1158
▁lưu	-1159
▁danh	-1160
ín	-1161
▁chiều	-1162
▁nhiệt	-1163
▁trạng	-1164
▁lãnh	-1165
▁đột	-1166
▁w	-1167
▁100	-1168
▁dầu	-1169
▁niềm	-1170
▁tội	-1171
▁nghèo	-1172
▁nhiễ	-1173
net	-1174
▁nạn	-1175
▁ngoại	-1176
▁cận	-1177
▁sang	-1178
ồm	-1179
▁50	-1180
th	-1181
▁cha	-1182
▁chữa	-1183
▁kính	-1184
▁15	-1185
▁in	-1186
▁xo	-1187
▁ung	-1188
▁đấu	-1189
▁Châu	-1190
▁dấu	-1191
▁Độ	-1192
▁Con	-1193
▁đẩy	-1194
▁ổ	-1195
▁nỗi	-1196
▁may	-1197
▁kéo	-1198
▁hát	-1199
op	-1200
▁thách	-1201
▁ngủ	-1202
▁thủ	-1203
▁đen	-1204
▁khách	-1205
▁tắc	-1206
▁ô	-1207
▁giấy	-1208
▁ngược	-1209
▁phi	-1210
▁nuôi	-1211
▁ước	-1212
▁bại	-1213
li	-1214
ỉnh	-1215
iếp	-1216
▁Tây	-1217
▁chữ	-1218
▁quản	-1219
▁soát	-1220
▁lỗi	-1221
▁cử	-1222
▁nửa	-1223
▁lĩnh	-1224
▁tiện	-1225
ist	-1226
▁mắc	-1227
▁hoạch	-1228
▁lí	-1229
▁mơ	-1230
ẩu	-1231
ran	-1232
▁gồm	-1233
▁nhiễm	-1234
▁tốc	-1235
▁dương	-1236
▁khiển	-1237
▁tả	-1238
▁sóc	-1239
õi	-1240
▁gó	-1241
▁cắt	-1242
ternet	-1243
▁Mọi	-1244
▁hại	-1245
▁Al	-1246
▁giết	-1247
▁Tuy	-1248
▁thẳng	-1249
▁khối	-1250
▁quen	-1251
ed	-1252
▁bày	-1253
▁dây	-1254
▁quân	-1255
ri	-1256
▁ca	-1257
▁tàu	-1258
▁đông	-1259
▁đích	-1260
▁chiếu	-1261
▁đức	-1262
▁lưới	-1263
▁nhờ	-1264
▁đá	-1265
▁gen	-1266
▁thấp	-1267
ard	-1268
▁dòng	-1269
▁mê	-1270
ag	-1271
▁Chỉ	-1272
▁cư	-1273
▁bầu	-1274
▁lái	-1275
▁ngờ	-1276
▁thi	-1277
▁cười	-1278
▁Ngh	-1279
▁đêm	-1280
▁niên	-1281
▁đổ	-1282
▁dàng	-1283
▁phóng	-1284
lo	-1285
▁khai	-1286
▁hỗ	-1287
▁sàng	-1288
ặn	-1289
▁rối	-1290
▁xếp	-1291
▁chấp	-1292
▁ngắn	-1293
▁gốc	-1294
▁tận	-1295
▁su	-1296
▁gấp	-1297
▁phong	-1298
▁đem	-1299
▁nông	-1300
▁đỡ	-1301
▁Với	-1302
▁bạo	-1303
▁giây	-1304
▁kỉ	-1305
▁lắm	-1306
▁sân	-1307
▁trách	-1308
▁gắn	-1309
▁bốn	-1310
▁cáo	-1311
▁vai	-1312
▁12	-1313
▁hồ	-1314
▁cân	-1315
▁trừ	-1316
▁bí	-1317
▁Rồi	-1318
ton	-1319
▁đợi	-1320
èn	-1321
▁ngàn	-1322
▁tôn	-1323
▁phẫu	-1324
ey	-1325
ầng	-1326
▁hài	-1327
▁thụ	-1328
▁xuyên	-1329
ab	-1330
▁thơ	-1331
▁nhảy	-1332
▁chuyến	-1333
▁hoa	-1334
▁dừng	-1335
▁siêu	-1336
1;	-1337
▁&#91;	-1338
▁kĩ	-1339
3;	-1340
▁màn	-1341
▁nghị	-1342
▁&#93;	-1343
ak	-1344
▁ký	-1345
▁lao	-1346
▁web	-1347
▁giai	-1348
▁tầng	-1349
▁đảm	-1350
▁chim	-1351
oc	-1352
▁ảo	-1353
▁tải	-1354
▁hấp	-1355
deo	-1356
▁video	-1357
▁Mar	-1358
▁phổ	-1359
▁o	-1360
av	-1361
ine	-1362
ork	-1363
▁khởi	-1364
,000	-1365
▁ngăn	-1366
▁Jo	-1367
▁tù	-1368
▁nhắc	-1369
▁rừng	-1370
▁Nam	-1371
▁chỉnh	-1372
ót	-1373
▁góc	-1374
ẳn	-1375
▁khái	-1376
▁thải	-1377
▁Internet	-1378
▁hút	-1379
▁Ai	-1380
▁hộp	-1381
▁nghiêm	-1382
▁món	-1383
▁Được	-1384
▁luyện	-1385
▁kê	-1386
▁ổn	-1387
▁nam	-1388
▁khuôn	-1389
▁tín	-1390
▁York	-1391
▁giàu	-1392
son	-1393
▁lá	-1394
▁cập	-1395
▁chuột	-1396
obot	-1397
▁Ví	-1398
▁Còn	-1399
▁già	-1400
ềm	-1401
▁coi	-1402
▁liệt	-1403
▁ngân	-1404
ow	-1405
▁đỏ	-1406
▁đám	-1407
ou	-1408
ill	-1409
▁tấn	-1410
▁phận	-1411
▁tuyến	-1412
▁thắng	-1413
han	-1414
▁trao	-1415
▁18	-1416
▁Hoa	-1417
▁Chúa	-1418
▁Cho	-1419
▁huỷ	-1420
▁tai	-1421
▁đảo	-1422
▁môn	-1423
▁nặng	-1424
▁hẳn	-1425
▁Trái	-1426
▁chứa	-1427
òi	-1428
▁dậy	-1429
▁mềm	-1430
▁Câu	-1431
▁vân	-1432
▁Ta	-1433
▁nóng	-1434
▁mấy	-1435
ọt	-1436
▁phù	-1437
▁Bắc	-1438
.000	-1439
▁Công	-1440
▁cháu	-1441
▁mạch	-1442
▁chóng	-1443
ịp	-1444
▁40	-1445
▁mẽ	-1446
iếng	-1447
▁mùa	-1448
▁ống	-1449
▁quyển	-1450
▁buộc	-1451
▁điển	-1452
▁ti	-1453
▁máu	-1454
▁Hiện	-1455
▁sóng	-1456
▁dưỡng	-1457
▁thiệu	-1458
▁trùng	-1459
ie	-1460
▁hạ	-1461
▁hãi	-1462
ấc	-1463
ein	-1464
▁khán	-1465
▁linh	-1466
▁cũ	-1467
▁rời	-1468
▁thảo	-1469
▁sơ	-1470
▁chủng	-1471
▁dõi	-1472
▁uống	-1473
▁điên	-1474
▁Kỳ	-1475
▁chờ	-1476
▁tồi	-1477
▁tảng	-1478
▁robot	-1479
ik	-1480
▁Từ	-1481
▁lộ	-1482
▁Nhà	-1483
▁loạn	-1484
▁lầm	-1485
▁đáp	-1486
▁buồn	-1487
▁vững	-1488
ev	-1489
um	-1490
▁mắn	-1491
▁sửa	-1492
▁Liệu	-1493
▁góp	-1494
▁thưởng	-1495
▁lồ	-1496
▁lan	-1497
▁Rất	-1498
▁khổng	-1499
▁tránh	-1500
▁tường	-1501
▁25	-1502
▁Vào	-1503
▁miễn	-1504
▁khoản	-1505
▁Thứ	-1506
▁đói	-1507
ich	-1508
▁du	-1509
▁Mỗi	-1510
▁đèn	-1511
▁lạnh	-1512
▁chàng	-1513
▁f	-1514
▁mái	-1515
▁tổn	-1516
▁ủng	-1517
▁Sh	-1518
▁bảng	-1519
▁cơn	-1520
▁trắng	-1521
ord	-1522
▁lẫn	-1523
▁tộc	-1524
▁mảnh	-1525
▁đỉnh	-1526
▁diệu	-1527
▁tờ	-1528
▁núi	-1529
ớm	-1530
▁Đông	-1531
▁Đúng	-1532
▁Hai	-1533
▁Ngày	-1534
▁phỏng	-1535
▁tiểu	-1536
uổi	-1537
▁đào	-1538
▁bề	-1539
▁trì	-1540
▁tốn	-1541
▁giọng	-1542
ùa	-1543
▁Bà	-1544
▁ấn	-1545
▁áo	-1546
▁trận	-1547
ul	-1548
▁hảo	-1549
▁quên	-1550
▁trồng	-1551
▁An	-1552
▁giỏi	-1553
▁rơi	-1554
▁quảng	-1555
▁Hồi	-1556
▁mãi	-1557
▁chạm	-1558
st	-1559
▁cỡ	-1560
▁cầm	-1561
▁kim	-1562
▁khuẩn	-1563
ph	-1564
▁bật	-1565
▁chó	-1566
▁bang	-1567
▁bền	-1568
▁vốn	-1569
ent	-1570
▁phấn	-1571
▁Chính	-1572
▁nghìn	-1573
▁đương	-1574
▁sánh	-1575
▁hôn	-1576
istan	-1577
▁tiềm	-1578
▁lương	-1579
ub	-1580
▁chấm	-1581
▁nghỉ	-1582
▁Năm	-1583
▁Đại	-1584
▁khoá	-1585
▁vàng	-1586
▁chiếm	-1587
▁mời	-1588
▁hoảng	-1589
▁nắm	-1590
▁khích	-1591
▁vợ	-1592
▁cam	-1593
▁hiển	-1594
▁11	-1595
▁Em	-1596
▁bữa	-1597
▁phối	-1598
▁ngừng	-1599
▁hi	-1600
▁hào	-1601
▁lửa	-1602
▁vỡ	-1603
▁làng	-1604
▁điệu	-1605
▁thịt	-1606
▁xương	-1607
▁hổ	-1608
▁vĩ	-1609
▁ghế	-1610
▁tách	-1611
▁đừng	-1612
▁quần	-1613
ly	-1614
ặm	-1615
io	-1616
▁nổ	-1617
▁ong	-1618
▁chuỗi	-1619
▁dường	-1620
▁rút	-1621
ib	-1622
▁chảy	-1623
▁khẩu	-1624
▁kịch	-1625
oog	-1626
▁sót	-1627
▁biên	-1628
▁đằng	-1629
▁Trên	-1630
hn	-1631
▁gió	-1632
▁sớm	-1633
▁loạt	-1634
▁thoát	-1635
la	-1636
▁mu	-1637
▁khứ	-1638
▁chậm	-1639
▁khuy	-1640
▁chồng	-1641
▁dĩ	-1642
ãn	-1643
ẹn	-1644
▁sạch	-1645
▁Trước	-1646
ian	-1647
▁tàn	-1648
▁tắt	-1649
▁80	-1650
▁giấc	-1651
▁Br	-1652
oogle	-1653
▁Vấn	-1654
ứt	-1655
▁bè	-1656
▁lặp	-1657
▁nghề	-1658
▁gợi	-1659
▁suất	-1660
▁mũ	-1661
if	-1662
ựng	-1663
▁quỹ	-1664
ex	-1665
ir	-1666
ươi	-1667
ut	-1668
ói	-1669
▁Cách	-1670
ry	-1671
ack	-1672
ick	-1673
▁lỗ	-1674
▁lối	-1675
▁trưng	-1676
az	-1677
man	-1678
▁phê	-1679
▁ngại	-1680
▁nhé	-1681
▁tán	-1682
▁túi	-1683
▁sông	-1684
▁trại	-1685
▁Ar	-1686
▁trữ	-1687
▁Google	-1688
▁Cám	-1689
▁nguyện	-1690
ud	-1691
▁Hay	-1692
▁dặm	-1693
▁kiệm	-1694
▁thước	-1695
▁To	-1696
▁viễn	-1697
▁Nói	-1698
▁đăng	-1699
▁cờ	-1700
▁cu	-1701
▁né	-1702
▁sỹ	-1703
▁Đầu	-1704
▁quang	-1705
▁u	-1706
▁Việc	-1707
▁đuổi	-1708
▁kháng	-1709
▁bụ	-1710
▁cà	-1711
▁Kho	-1712
▁bơi	-1713
▁nâng	-1714
est	-1715
▁60	-1716
ìa	-1717
▁vỏ	-1718
▁kém	-1719
▁nhắn	-1720
ip	-1721
▁ghép	-1722
ưỡi	-1723
▁thăm	-1724
▁sốt	-1725
▁phiên	-1726
▁cú	-1727
▁rẻ	-1728
▁thở	-1729
▁thảm	-1730
▁khoảnh	-1731
ĩa	-1732
ãng	-1733
▁nhật	-1734
▁tàng	-1735
▁nỗ	-1736
▁tụ	-1737
▁vết	-1738
▁Đất	-1739
▁lặng	-1740
▁thoả	-1741
▁bọn	-1742
one	-1743
▁nhẹ	-1744
▁sáu	-1745
▁hoang	-1746
▁Là	-1747
▁lọc	-1748
▁Nhật	-1749
▁xoay	-1750
ans	-1751
▁can	-1752
▁tròn	-1753
▁bờ	-1754
▁Thu	-1755
▁hùng	-1756
▁trống	-1757
ell	-1758
▁199	-1759
▁John	-1760
▁điệp	-1761
ec	-1762
▁ưu	-1763
▁Bản	-1764
bon	-1765
▁Car	-1766
▁mùi	-1767
▁đẳng	-1768
ook	-1769
▁đế	-1770
▁Lúc	-1771
▁voi	-1772
▁ngẫu	-1773
▁doạ	-1774
▁lục	-1775
▁đam	-1776
▁HI	-1777
▁bò	-1778
▁Theo	-1779
▁lành	-1780
aw	-1781
amp	-1782
▁Bộ	-1783
▁lính	-1784
ủi	-1785
▁tô	-1786
▁đựng	-1787
ert	-1788
▁thừa	-1789
▁thuận	-1790
▁thác	-1791
▁rác	-1792
▁Ngay	-1793
▁thuỷ	-1794
▁Ba	-1795
▁đoàn	-1796
eg	-1797
▁HIV	-1798
▁cấy	-1799
ớt	-1800
art	-1801
▁ma	-1802
▁pr	-1803
▁Cuối	-1804
▁trích	-1805
ion	-1806
▁Lo	-1807
▁chặt	-1808
▁nhuận	-1809
▁thang	-1810
era	-1811
▁16	-1812
▁đe	-1813
▁huy	-1814
▁họp	-1815
▁đạp	-1816
▁giảng	-1817
▁tan	-1818
▁Đức	-1819
▁Af	-1820
▁Nào	-1821
▁lãng	-1822
▁lược	-1823
▁miếng	-1824
ore	-1825
ườn	-1826
▁Cậu	-1827
▁cãi	-1828
▁nhựa	-1829
▁lắp	-1830
▁tật	-1831
▁khấu	-1832
▁Đừng	-1833
▁Cuộc	-1834
▁chặn	-1835
ee	-1836
▁90	-1837
▁Mà	-1838
▁giám	-1839
▁chào	-1840
▁thai	-1841
▁ngoái	-1842
▁Lu	-1843
▁lễ	-1844
▁Hoặc	-1845
▁mừng	-1846
éo	-1847
ess	-1848
▁yên	-1849
▁đòi	-1850
▁ngang	-1851
▁Is	-1852
▁diệt	-1853
▁thận	-1854
▁huống	-1855
all	-1856
▁14	-1857
▁cản	-1858
▁mây	-1859
▁mại	-1860
▁Cũng	-1861
▁thao	-1862
▁Afg	-1863
▁Chẳng	-1864
▁hương	-1865
▁AD	-1866
▁dị	-1867
▁sổ	-1868
▁Dav	-1869
▁70	-1870
▁ko	-1871
▁tri	-1872
▁chép	-1873
▁đống	-1874
orn	-1875
▁Am	-1876
▁201	-1877
▁cát	-1878
▁sợi	-1879
▁đùa	-1880
▁Thay	-1881
▁thấu	-1882
▁vong	-1883
▁vú	-1884
▁thù	-1885
▁tràn	-1886
ớn	-1887
rus	-1888
▁cặp	-1889
▁cứng	-1890
ge	-1891
od	-1892
ash	-1893
▁tỏ	-1894
▁ám	-1895
▁cám	-1896
▁Ken	-1897
▁mập	-1898
▁nhằm	-1899
▁tuyên	-1900
ff	-1901
les	-1902
▁bom	-1903
▁mực	-1904
▁Đối	-1905
▁Nhiều	-1906
▁phiếu	-1907
▁13	-1908
▁ADN	-1909
▁khía	-1910
▁nhịp	-1911
▁súng	-1912
▁Dù	-1913
▁bi	-1914
▁bắn	-1915
▁bối	-1916
▁sụp	-1917
▁chán	-1918
▁hiếm	-1919
▁trào	-1920
▁tiêm	-1921
tr	-1922
èm	-1923
▁hà	-1924
▁tá	-1925
▁kêu	-1926
▁ngu	-1927
▁Mẹ	-1928
▁Cal	-1929
▁Chr	-1930
▁móc	-1931
▁Fran	-1932
▁ngọn	-1933
▁Afghan	-1934
ậc	-1935
▁lừa	-1936
▁prot	-1937
▁khung	-1938
iv	-1939
▁óc	-1940
▁dối	-1941
▁Bằng	-1942
▁Pháp	-1943
▁liền	-1944
▁hoàng	-1945
▁triết	-1946
▁gỗ	-1947
▁hè	-1948
▁béo	-1949
ượu	-1950
▁côn	-1951
▁cục	-1952
▁gam	-1953
▁đua	-1954
ớp	-1955
▁0	-1956
att	-1957
▁mưa	-1958
▁thờ	-1959
▁Về	-1960
▁kí	-1961
▁Phải	-1962
▁bổ	-1963
▁tí	-1964
▁Liên	-1965
▁căng	-1966
▁khảo	-1967
▁thầy	-1968
50	-1969
ide	-1970
▁bậc	-1971
▁hối	-1972
▁mạc	-1973
▁đập	-1974
▁Thái	-1975
▁thoải	-1976
▁lũ	-1977
▁nấm	-1978
▁Phần	-1979
▁ngưỡng	-1980
▁17	-1981
▁mỏ	-1982
▁chốt	-1983
ail	-1984
eet	-1985
▁ác	-1986
▁chối	-1987
▁táo	-1988
▁huấn	-1989
▁rượu	-1990
▁thuyền	-1991
yl	-1992
▁mét	-1993
▁hỗn	-1994
▁trầm	-1995
▁nhũng	-1996
▁Sẽ	-1997
▁ghét	-1998
▁vâng	-1999
NA	-2000
ers	-2001
▁mì	-2002
▁ức	-2003
▁Har	-2004
▁bảy	-2005
▁Iran	-2006
▁biện	-2007
▁khuyến	-2008
▁che	-2009
▁song	-2010
ov	-2011
▁nút	-2012
▁đắt	-2013
▁cháy	-2014
▁truy	-2015
▁tỉnh	-2016
▁cỏ	-2017
▁Hôm	-2018
▁ngón	-2019
▁ạ	-2020
▁hắn	-2021
▁hồn	-2022
▁phán	-2023
▁Afghanistan	-2024
ock	-2025
▁thọ	-2026
▁xứng	-2027
ond	-2028
▁21	-2029
▁mạo	-2030
▁David	-2031
ya	-2032
▁Lan	-2033
▁túc	-2034
▁Nhìn	-2035
▁thiểu	-2036
ợt	-2037
log	-2038
▁ru	-2039
▁gọn	-2040
▁mũi	-2041
▁săn	-2042
▁thả	-2043
▁protein	-2044
▁cụt	-2045
▁xoá	-2046
▁giận	-2047
▁khát	-2048
▁trứng	-2049
uc	-2050
xy	-2051
▁cỗ	-2052
land	-2053
▁bông	-2054
▁dinh	-2055
▁thạch	-2056
▁Can	-2057
▁Hầu	-2058
▁Mặt	-2059
▁mai	-2060
▁khiếp	-2061
▁à	-2062
▁dày	-2063
▁rủi	-2064
▁tia	-2065
▁thuê	-2066
▁thiệp	-2067
eria	-2068
▁198	-2069
▁Par	-2070
▁Sao	-2071
▁nấu	-2072
▁đắn	-2073
▁xong	-2074
sh	-2075
▁Ok	-2076
▁mò	-2077
▁mộ	-2078
▁Đã	-2079
▁cột	-2080
▁lộn	-2081
▁binh	-2082
▁hước	-2083
▁thánh	-2084
ùi	-2085
▁TV	-2086
▁kẹ	-2087
▁bãi	-2088
▁bột	-2089
▁giành	-2090
ướt	-2091
▁ngũ	-2092
▁tóc	-2093
▁đốc	-2094
▁đốt	-2095
▁Char	-2096
▁truyện	-2097
▁i	-2098
ỗng	-2099
▁phó	-2100
▁xưa	-2101
▁đài	-2102
▁chẩn	-2103
▁răng	-2104
iệng	-2105
▁Geo	-2106
▁dọc	-2107
▁mát	-2108
▁thuần	-2109
ico	-2110
▁bạc	-2111
▁rưỡi	-2112
▁huyết	-2113
ti	-2114
▁nơ	-2115
rael	-2116
▁miền	-2117
▁chừng	-2118
ýt	-2119
ara	-2120
▁Lý	-2121
▁Sc	-2122
▁đĩa	-2123
▁tặng	-2124
▁gương	-2125
lin	-2126
▁bó	-2127
▁ro	-2128
▁ấm	-2129
▁ném	-2130
▁rắc	-2131
▁xâm	-2132
▁hiến	-2133
▁nhấn	-2134
ain	-2135
ama	-2136
enn	-2137
▁500	-2138
▁cốt	-2139
▁nhỉ	-2140
▁Đôi	-2141
▁ngài	-2142
▁vườn	-2143
▁Ad	-2144
▁xạ	-2145
▁Ban	-2146
▁khóc	-2147
▁trộn	-2148
▁24	-2149
▁Hy	-2150
▁Tổ	-2151
▁lẻ	-2152
▁quê	-2153
▁than	-2154
▁Israel	-2155
aceb	-2156
▁cẩn	-2157
▁tuỳ	-2158
iếc	-2159
▁Bra	-2160
▁dính	-2161
acebook	-2162
ada	-2163
ina	-2164
▁Cơ	-2165
▁Rob	-2166
▁rào	-2167
▁đớn	-2168
▁miệng	-2169
▁San	-2170
▁bắc	-2171
▁tuệ	-2172
▁tạm	-2173
▁thẩm	-2174
ce	-2175
▁hẹn	-2176
▁đón	-2177
▁chai	-2178
▁miêu	-2179
▁sa	-2180
▁cốc	-2181
▁mẩu	-2182
▁Giáo	-2183
▁lỏng	-2184
▁ngầm	-2185
▁phổi	-2186
ID	-2187
▁gà	-2188
▁tò	-2189
▁Dan	-2190
▁đáy	-2191
▁nhạy	-2192
▁Facebook	-2193
ug	-2194
▁đậu	-2195
▁blog	-2196
▁hiệp	-2197
▁vuông	-2198
co	-2199
ta	-2200
ốm	-2201
ite	-2202
▁ơi	-2203
▁lão	-2204
▁Chắc	-2205
▁Mich	-2206
▁bạch	-2207
▁game	-2208
▁hạng	-2209
▁thoảng	-2210
ith	-2211
ley	-2212
▁Cả	-2213
▁Thời	-2214
▁trôi	-2215
▁Calif	-2216
▁cường	-2217
ek	-2218
ep	-2219
▁ly	-2220
▁Cực	-2221
▁tây	-2222
ornia	-2223
▁kiên	-2224
▁quái	-2225
▁Chuyện	-2226
ach	-2227
▁Mĩ	-2228
▁rồ	-2229
▁dàn	-2230
▁thợ	-2231
▁hoại	-2232
▁Giống	-2233
▁California	-2234
▁DNA	-2235
▁pin	-2236
▁Bill	-2237
▁Thậm	-2238
▁hằng	-2239
▁quán	-2240
▁trắc	-2241
te	-2242
ẻo	-2243
amb	-2244
▁hứa	-2245
▁leo	-2246
▁tóm	-2247
▁chấn	-2248
▁trạm	-2249
▁nướng	-2250
ron	-2251
▁lây	-2252
▁ngã	-2253
▁giày	-2254
▁quét	-2255
▁đảng	-2256
▁giường	-2257
▁Tw	-2258
▁nét	-2259
▁ngựa	-2260
und	-2261
▁rô	-2262
▁khô	-2263
▁nho	-2264
▁đeo	-2265
▁Kinh	-2266
▁chăng	-2267
alk	-2268
▁Mc	-2269
▁Mo	-2270
▁OK	-2271
▁197	-2272
▁lưng	-2273
ẫm	-2274
▁mẻ	-2275
▁Lần	-2276
▁mãn	-2277
▁vắc	-2278
▁Cùng	-2279
▁tuyết	-2280
og	-2281
▁Col	-2282
▁Kết	-2283
▁Đến	-2284
▁đếm	-2285
▁tiếc	-2286
▁tĩnh	-2287
ass	-2288
▁kèm	-2289
▁mèo	-2290
exico	-2291
▁Nhân	-2292
▁Chris	-2293
igh	-2294
▁The	-2295
▁dán	-2296
▁Khán	-2297
▁bụng	-2298
▁ninh	-2299
▁trăng	-2300
ẫy	-2301
ụt	-2302
▁dò	-2303
▁hô	-2304
anda	-2305
▁300	-2306
▁Ira	-2307
▁gói	-2308
▁tám	-2309
▁cong	-2310
ate	-2311
▁dã	-2312
▁Bất	-2313
▁Pau	-2314
▁lăn	-2315
▁hỏng	-2316
ber	-2317
▁quà	-2318
▁Mexico	-2319
▁khuyên	-2320
▁gỡ	-2321
▁hư	-2322
▁iP	-2323
▁ép	-2324
▁giấu	-2325
▁tiệc	-2326
▁trần	-2327
▁vinh	-2328
▁email	-2329
hi	-2330
IDS	-2331
▁mờ	-2332
▁lôi	-2333
▁2000	-2334
▁Nghệ	-2335
▁thói	-2336
ùm	-2337
ath	-2338
tin	-2339
▁cự	-2340
▁lề	-2341
▁Hoá	-2342
▁cụm	-2343
▁dứt	-2344
stein	-2345
▁lệnh	-2346
▁Canada	-2347
urg	-2348
zil	-2349
▁gã	-2350
▁tị	-2351
▁Hội	-2352
▁heo	-2353
▁lâm	-2354
▁chìm	-2355
▁kênh	-2356
▁ngon	-2357
▁trốn	-2358
▁phiền	-2359
▁dư	-2360
▁Nga	-2361
▁bão	-2362
▁lãm	-2363
▁lặn	-2364
▁tung	-2365
ington	-2366
▁Brazil	-2367
▁ư	-2368
ler	-2369
▁Cứ	-2370
▁gõ	-2371
▁im	-2372
▁and	-2373
▁đực	-2374
▁Geor	-2375
▁buôn	-2376
▁khao	-2377
▁ngọt	-2378
ky	-2379
▁1.	-2380
▁Mặc	-2381
▁giơ	-2382
▁AIDS	-2383
▁Dĩ	-2384
▁va	-2385
ford	-2386
▁Vài	-2387
▁cất	-2388
▁dao	-2389
▁gián	-2390
▁mệnh	-2391
▁Điển	-2392
▁khoan	-2393
▁thăng	-2394
▁virus	-2395
ợn	-2396
ham	-2397
ind	-2398
ram	-2399
▁hố	-2400
▁cúm	-2401
▁quí	-2402
▁sàn	-2403
▁thuế	-2404
▁Trường	-2405
▁And	-2406
▁Bar	-2407
▁Ber	-2408
▁Mon	-2409
▁Tim	-2410
▁hàm	-2411
ondon	-2412
quang	-2413
▁hang	-2414
▁thổi	-2415
▁trưa	-2416
▁Sp	-2417
▁xí	-2418
▁Pal	-2419
▁bận	-2420
▁bếp	-2421
▁car	-2422
▁sữa	-2423
▁dáng	-2424
▁lang	-2425
▁xinh	-2426
▁London	-2427
ric	-2428
▁Ap	-2429
▁Rập	-2430
▁lõi	-2431
▁bùng	-2432
▁tươi	-2433
▁Kenya	-2434
ượn	-2435
▁Ed	-2436
▁Le	-2437
▁Gần	-2438
▁Học	-2439
▁Jam	-2440
▁bụi	-2441
▁làn	-2442
▁tân	-2443
▁dược	-2444
▁cấm	-2445
▁khỉ	-2446
▁nảy	-2447
▁rét	-2448
▁san	-2449
▁Tiếp	-2450
▁ngắm	-2451
▁quát	-2452
ma	-2453
ộm	-2454
ann	-2455
▁Ben	-2456
▁hải	-2457
▁phì	-2458
▁sưu	-2459
▁thẻ	-2460
▁tuý	-2461
▁tắm	-2462
▁camera	-2463
ếch	-2464
▁tủ	-2465
▁196	-2466
▁Ros	-2467
▁oxy	-2468
▁liều	-2469
▁lường	-2470
▁CO	-2471
▁ưa	-2472
itter	-2473
▁cưới	-2474
▁muỗi	-2475
▁thịnh	-2476
▁Khoảng	-2477
iz	-2478
▁Bl	-2479
▁400	-2480
▁Bao	-2481
▁Bài	-2482
▁Bức	-2483
▁rãi	-2484
▁say	-2485
▁sơn	-2486
▁Iraq	-2487
▁chúa	-2488
▁khôn	-2489
▁lướt	-2490
▁tháp	-2491
ins	-2492
▁nở	-2493
▁Trời	-2494
▁nhẫn	-2495
▁thùng	-2496
▁trượt	-2497
▁150	-2498
▁kín	-2499
▁nan	-2500
▁Cộng	-2501
▁Paul	-2502
▁ngập	-2503
▁ngốc	-2504
▁nhắm	-2505
▁thua	-2506
▁thám	-2507
▁trục	-2508
▁Thiên	-2509
▁thỉnh	-2510
DP	-2511
▁Be	-2512
▁May	-2513
▁bốt	-2514
▁nốt	-2515
▁pha	-2516
▁phú	-2517
▁châm	-2518
▁feet	-2519
▁giam	-2520
▁nàng	-2521
▁thính	-2522
▁tướng	-2523
▁GDP	-2524
▁dám	-2525
▁xóm	-2526
▁quãng	-2527
▁Bố	-2528
▁cừ	-2529
▁dắt	-2530
▁Viện	-2531
▁khớp	-2532
▁Twitter	-2533
▁sl	-2534
▁Gre	-2535
▁cậy	-2536
▁cuộn	-2537
▁nắng	-2538
▁phái	-2539
▁sung	-2540
▁thiệt	-2541
SA	-2542
by	-2543
ướp	-2544
▁bơ	-2545
▁Hơn	-2546
▁rau	-2547
▁toả	-2548
▁lông	-2549
▁phạt	-2550
▁tháo	-2551
▁gấu	-2552
▁hầm	-2553
▁mạn	-2554
▁trà	-2555
▁Wash	-2556
▁bong	-2557
▁nhãn	-2558
ony	-2559
ood	-2560
▁Ab	-2561
▁Oh	-2562
▁nọ	-2563
▁vở	-2564
▁Ôi	-2565
▁Ang	-2566
▁Bos	-2567
▁Tin	-2568
▁dãy	-2569
▁khơi	-2570
▁đuôi	-2571
▁Thông	-2572
▁cưỡng	-2573
▁tuyển	-2574
olf	-2575
ver	-2576
▁Hệ	-2577
▁Ein	-2578
▁Ngo	-2579
▁Bang	-2580
▁Bình	-2581
▁Thành	-2582
▁Tương	-2583
▁chước	-2584
▁e	-2585
ana	-2586
▁lò	-2587
▁Chủ	-2588
▁Nig	-2589
▁Này	-2590
▁You	-2591
▁bớt	-2592
▁lát	-2593
▁nhở	-2594
▁thô	-2595
▁đâm	-2596
▁thuẫn	-2597
▁Einstein	-2598
ren	-2599
▁Sm	-2600
▁Tự	-2601
▁Thử	-2602
▁chở	-2603
▁hệt	-2604
▁chìa	-2605
▁muộn	-2606
▁ranh	-2607
▁thưa	-2608
▁Dương	-2609
he	-2610
▁log	-2611
▁lùi	-2612
▁mệt	-2613
▁chục	-2614
▁điêu	-2615
▁Tiếng	-2616
ne	-2617
oy	-2618
ael	-2619
ênh	-2620
▁Số	-2621
▁mỹ	-2622
▁hoả	-2623
▁hòn	-2624
▁lạm	-2625
▁Ngài	-2626
▁Chiến	-2627
▁slide	-2628
end	-2629
▁Hà	-2630
▁nợ	-2631
▁ồn	-2632
▁Hoả	-2633
▁Mục	-2634
▁Nha	-2635
▁Wil	-2636
▁bút	-2637
▁cac	-2638
▁vua	-2639
▁đồi	-2640
▁Stev	-2641
▁ngực	-2642
▁thôn	-2643
▁phẳng	-2644
xi	-2645
ort	-2646
ươn	-2647
▁bọ	-2648
▁sứ	-2649
▁Cập	-2650
▁Pet	-2651
▁cởi	-2652
▁múa	-2653
▁đới	-2654
▁gánh	-2655
▁khúc	-2656
▁trấn	-2657
▁Franc	-2658
▁Washington	-2659
za	-2660
ộp	-2661
▁MI	-2662
▁Bảo	-2663
▁kịp	-2664
▁mấu	-2665
▁sốc	-2666
▁Quan	-2667
▁George	-2668
▁carbon	-2669
ka	-2670
een	-2671
ier	-2672
▁rễ	-2673
▁mỏi	-2674
▁vải	-2675
▁Khoa	-2676
▁TEDx	-2677
▁rung	-2678
ald	-2679
ett	-2680
ike	-2681
ola	-2682
▁Cr	-2683
site	-2684
▁Jon	-2685
ander	-2686
▁Rich	-2687
▁Thom	-2688
▁hãng	-2689
▁khôi	-2690
▁Chiếc	-2691
▁duyệt	-2692
▁nghiện	-2693
▁Charles	-2694
up	-2695
are	-2696
▁Dự	-2697
▁Pr	-2698
▁Wik	-2699
▁cối	-2700
▁hưu	-2701
▁ráp	-2702
▁Hàng	-2703
▁Phil	-2704
▁thâm	-2705
▁ngoan	-2706
▁nghịch	-2707
▁Nigeria	-2708
▁website	-2709
▁internet	-2710
.5	-2711
30	-2712
▁1,	-2713
▁Hình	-2714
▁Loại	-2715
▁hồng	-2716
▁nhặt	-2717
▁khiếm	-2718
▁khẳng	-2719
▁lưỡng	-2720
▁a	-2721
inc	-2722
lex	-2723
▁Dar	-2724
▁Thổ	-2725
▁Tốt	-2726
▁lật	-2727
▁mâu	-2728
▁tha	-2729
▁vây	-2730
▁địch	-2731
▁cuồng	-2732
▁nhiếp	-2733
én	-2734
osh	-2735
▁El	-2736
▁La	-2737
▁Ma	-2738
▁đố	-2739
▁Bro	-2740
▁MIT	-2741
▁gan	-2742
▁hẹp	-2743
▁sắt	-2744
▁2008	-2745
▁Bệnh	-2746
▁Nghe	-2747
▁Toàn	-2748
▁khói	-2749
▁phím	-2750
▁Thượng	-2751
▁cacbon	-2752
ast	-2753
ube	-2754
▁35	-2755
▁Na	-2756
▁Ne	-2757
▁Rõ	-2758
▁Pak	-2759
▁Quá	-2760
▁rắn	-2761
▁1000	-2762
▁Adam	-2763
▁Hiệp	-2764
▁vươn	-2765
▁Michael	-2766
iel	-2767
▁45	-2768
▁Di	-2769
▁Los	-2770
▁Sch	-2771
▁đàm	-2772
▁đáo	-2773
▁Tình	-2774
▁mảng	-2775
▁khuyết	-2776
▁Francis	-2777
PS	-2778
ok	-2779
pe	-2780
yn	-2781
ela	-2782
▁đẻ	-2783
▁cừu	-2784
▁gối	-2785
▁non	-2786
▁rửa	-2787
▁str	-2788
▁long	-2789
▁đoan	-2790
▁khoái	-2791
òm	-2792
ằn	-2793
▁He	-2794
▁Re	-2795
edia	-2796
ight	-2797
▁Tên	-2798
▁cạn	-2799
▁tần	-2800
▁Thomas	-2801
▁stress	-2802
▁Pakistan	-2803
ica	-2804
olly	-2805
ward	-2806
▁Bắt	-2807
▁dâm	-2808
▁dạo	-2809
▁dải	-2810
▁dẻo	-2811
▁mồi	-2812
▁sạn	-2813
▁chín	-2814
▁cướp	-2815
▁manh	-2816
▁màng	-2817
▁Ju	-2818
ling	-2819
▁Bên	-2820
▁Cha	-2821
▁Máy	-2822
▁lận	-2823
▁vẹn	-2824
▁đạn	-2825
▁Ngân	-2826
▁hack	-2827
▁lệch	-2828
▁treo	-2829
▁trân	-2830
▁Thiết	-2831
20	-2832
ve	-2833
eph	-2834
ụng	-2835
▁75	-2836
▁PM	-2837
▁Der	-2838
▁Dân	-2839
▁Fre	-2840
▁bơm	-2841
▁cắm	-2842
▁lợn	-2843
▁đạc	-2844
▁Tiến	-2845
▁Richard	-2846
apt	-2847
▁Ob	-2848
▁Wh	-2849
▁lờ	-2850
▁cắp	-2851
▁đền	-2852
▁Mark	-2853
▁tông	-2854
▁vĩnh	-2855
▁Haiti	-2856
▁quyên	-2857
ami	-2858
ice	-2859
lan	-2860
▁Je	-2861
▁de	-2862
ound	-2863
▁GPS	-2864
▁Hàn	-2865
▁bắp	-2866
▁bọc	-2867
▁ham	-2868
▁kẹo	-2869
▁kẹt	-2870
▁2010	-2871
▁buýt	-2872
▁gene	-2873
▁kiệt	-2874
▁tuân	-2875
▁Frank	-2876
▁khiêu	-2877
▁nhàng	-2878
▁khuynh	-2879
ld	-2880
ox	-2881
com	-2882
lie	-2883
lip	-2884
lor	-2885
▁At	-2886
▁Gr	-2887
▁Kể	-2888
▁NA	-2889
▁co	-2890
▁sh	-2891
▁Nơi	-2892
▁Tom	-2893
▁bia	-2894
▁dọn	-2895
▁lấp	-2896
▁mòn	-2897
▁chúc	-2898
▁nhầm	-2899
▁huyền	-2900
ark	-2901
ile	-2902
▁23	-2903
▁nề	-2904
▁đỗ	-2905
▁Cam	-2906
▁Phụ	-2907
▁mic	-2908
▁tựa	-2909
▁đai	-2910
ation	-2911
ester	-2912
▁giãn	-2913
▁thắc	-2914
▁Robert	-2915
acc	-2916
▁ga	-2917
▁hã	-2918
▁mồ	-2919
▁vé	-2920
▁Chà	-2921
▁rập	-2922
▁trú	-2923
▁vay	-2924
▁xám	-2925
▁lũng	-2926
▁mười	-2927
ft	-2928
org	-2929
rid	-2930
rút	-2931
win	-2932
ịnh	-2933
▁dở	-2934
▁vỗ	-2935
▁amp	-2936
▁cựu	-2937
▁mọc	-2938
▁thổ	-2939
▁Mình	-2940
▁chăn	-2941
▁mỏng	-2942
▁thép	-2943
▁Angel	-2944
▁cương	-2945
▁thằng	-2946
RI	-2947
▁Đa	-2948
▁Lạp	-2949
▁Mal	-2950
▁dốc	-2951
▁nêu	-2952
▁đợt	-2953
▁Nước	-2954
▁Tổng	-2955
▁khéo	-2956
▁ngừa	-2957
▁James	-2958
▁Tuyệt	-2959
▁vượng	-2960
vi	-2961
▁bá	-2962
▁Hải	-2963
▁hôi	-2964
▁nát	-2965
▁sôi	-2966
▁Harv	-2967
▁dũng	-2968
▁lượt	-2969
▁Nghiên	-2970
ity	-2971
old	-2972
▁Cl	-2973
▁bù	-2974
▁mỉ	-2975
▁rẽ	-2976
▁st	-2977
amin	-2978
▁chợ	-2979
▁qui	-2980
▁xôi	-2981
▁Điểm	-2982
▁Đồng	-2983
▁thoái	-2984
ũi	-2985
▁ồ	-2986
ney	-2987
ờng	-2988
hone	-2989
▁194	-2990
▁mày	-2991
▁nản	-2992
▁Scot	-2993
▁bỗng	-2994
▁hoài	-2995
▁hung	-2996
▁hạch	-2997
▁phác	-2998
ago	-2999
ner	-3000
ates	-3001
▁Gia	-3002
▁Quý	-3003
▁chả	-3004
▁dội	-3005
▁nén	-3006
▁rad	-3007
▁2007	-3008
▁Sinh	-3009
▁Talk	-3010
▁bách	-3011
▁thầm	-3012
▁trật	-3013
▁vang	-3014
pt	-3015
ẳm	-3016
ple	-3017
▁99	-3018
▁võ	-3019
▁đẽ	-3020
▁Bác	-3021
▁Sam	-3022
▁bấy	-3023
▁gác	-3024
▁men	-3025
▁van	-3026
▁xíu	-3027
▁chua	-3028
▁tiễn	-3029
▁trừu	-3030
▁xăng	-3031
▁Carol	-3032
▁Phương	-3033
▁nghiệt	-3034
uck	-3035
▁Or	-3036
▁Se	-3037
▁nụ	-3038
▁Gab	-3039
▁Ind	-3040
▁bìa	-3041
▁hụt	-3042
▁pho	-3043
▁Alex	-3044
▁cổng	-3045
▁muối	-3046
▁Obama	-3047
▁iPhone	-3048
me	-3049
low	-3050
▁lơ	-3051
▁đà	-3052
berg	-3053
▁lắc	-3054
▁ruồi	-3055
▁thẳm	-3056
▁xích	-3057
ipedia	-3058
▁Smith	-3059
▁Steve	-3060
▁Thánh	-3061
ủa	-3062
ush	-3063
van	-3064
▁ốc	-3065
burg	-3066
imer	-3067
▁Nob	-3068
▁Qua	-3069
▁Trẻ	-3070
▁hóc	-3071
▁lúa	-3072
▁súc	-3073
▁vụn	-3074
▁NASA	-3075
▁giặt	-3076
▁mộng	-3077
▁soạn	-3078
▁trộm	-3079
▁Trans	-3080
cel	-3081
ern	-3082
ish	-3083
iss	-3084
umb	-3085
▁of	-3086
▁rũ	-3087
▁Đi	-3088
▁ốm	-3089
atch	-3090
▁Rom	-3091
▁bướ	-3092
▁gũi	-3093
▁the	-3094
▁tím	-3095
▁Chào	-3096
▁chợt	-3097
▁mươi	-3098
▁xướng	-3099
▁xưởng	-3100
▁Wikipedia	-3101
ez	-3102
eth	-3103
per	-3104
toc	-3105
▁22	-3106
▁Co	-3107
▁al	-3108
bert	-3109
thal	-3110
▁---	-3111
▁Big	-3112
▁Hoà	-3113
▁Man	-3114
▁Sah	-3115
▁chẽ	-3116
▁hét	-3117
▁độn	-3118
▁ếch	-3119
▁mượn	-3120
▁ngẫm	-3121
▁Tưởng	-3122
▁tráng	-3123
▁Martin	-3124
▁khoáng	-3125
▁Harvard	-3126
ny	-3127
ros	-3128
▁dỗ	-3129
▁đệ	-3130
▁Chị	-3131
▁Lấy	-3132
▁bẩn	-3133
▁lân	-3134
▁ván	-3135
▁cược	-3136
▁cống	-3137
▁nhào	-3138
▁quặc	-3139
▁trán	-3140
▁Derek	-3141
▁Nghĩa	-3142
▁Paris	-3143
▁quyến	-3144
▁Darwin	-3145
▁nhường	-3146
eh	-3147
ary	-3148
oth	-3149
▁hò	-3150
▁li	-3151
icon	-3152
▁Giá	-3153
▁bám	-3154
▁bấm	-3155
▁gìn	-3156
▁lều	-3157
▁mến	-3158
▁2009	-3159
▁lánh	-3160
▁nhạt	-3161
▁nồng	-3162
▁Điện	-3163
▁Giọng	-3164
▁Nobel	-3165
▁hacker	-3166
▁Angeles	-3167
▁Francisco	-3168
mp	-3169
ali	-3170
eah	-3171
ota	-3172
▁36	-3173
▁sô	-3174
▁xỉ	-3175
▁ôm	-3176
oran	-3177
▁Mad	-3178
▁Tor	-3179
▁sáo	-3180
▁sắm	-3181
attan	-3182
tocin	-3183
▁hiếp	-3184
▁mãnh	-3185
▁ruột	-3186
▁rỗng	-3187
,5	-3188
PA	-3189
ck	-3190
ix	-3191
dro	-3192
ink	-3193
▁mổ	-3194
▁nô	-3195
▁oh	-3196
azon	-3197
ones	-3198
▁Cop	-3199
▁Cần	-3200
▁Web	-3201
▁cài	-3202
▁luỹ	-3203
▁Đấy	-3204
▁Loài	-3205
▁chôn	-3206
▁lùng	-3207
▁nhện	-3208
▁phun	-3209
▁thấm	-3210
▁Green	-3211
▁logic	-3212
▁radio	-3213
▁Nguyên	-3214
ca	-3215
igg	-3216
udio	-3217
▁Jer	-3218
▁Quỹ	-3219
aptop	-3220
▁2005	-3221
▁Cháu	-3222
▁giọt	-3223
▁lồng	-3224
▁vạch	-3225
▁xuân	-3226
▁thung	-3227
▁Sahara	-3228
ace	-3229
cri	-3230
rop	-3231
tor	-3232
▁Gu	-3233
▁cọ	-3234
▁lỡ	-3235
▁rã	-3236
▁vờ	-3237
▁Leg	-3238
▁Nhĩ	-3239
▁Tal	-3240
▁Wor	-3241
▁hãm	-3242
▁sét	-3243
▁xăm	-3244
▁Manh	-3245
▁chọc	-3246
▁inch	-3247
▁Ngoài	-3248
▁Peter	-3249
▁huynh	-3250
▁triệt	-3251
▁Amazon	-3252
▁Christ	-3253
▁thượng	-3254
ef	-3255
tô	-3256
ue	-3257
yr	-3258
age	-3259
azz	-3260
oph	-3261
▁27	-3262
▁Sĩ	-3263
▁Lib	-3264
▁bóc	-3265
▁léo	-3266
▁run	-3267
▁vòi	-3268
cript	-3269
raham	-3270
▁Giải	-3271
▁Stan	-3272
▁lăng	-3273
▁móng	-3274
▁tivi	-3275
heimer	-3276
▁Manhattan	-3277
▁Rw	-3278
▁tê	-3279
▁uy	-3280
▁đc	-3281
▁ẩm	-3282
wood	-3283
▁Alz	-3284
▁Sức	-3285
▁quạ	-3286
▁tựu	-3287
▁Eric	-3288
▁vịnh	-3289
ilicon	-3290
▁oxytocin	-3291
▁Alzheimer	-3292
ss	-3293
ts	-3294
uk	-3295
ala	-3296
ens	-3297
imb	-3298
▁Ah	-3299
▁En	-3300
▁Tư	-3301
▁bê	-3302
▁mỳ	-3303
▁ái	-3304
▁Đo	-3305
line	-3306
▁Haw	-3307
▁Tác	-3308
▁Ven	-3309
▁Wal	-3310
▁kìa	-3311
▁tuỷ	-3312
▁vứt	-3313
icago	-3314
▁Jack	-3315
▁chằm	-3316
▁chớp	-3317
▁Đảng	-3318
▁khiêm	-3319
▁chuông	-3320
▁Chicago	-3321
SD	-3322
to	-3323
mer	-3324
oca	-3325
uss	-3326
▁26	-3327
▁Cá	-3328
▁II	-3329
▁km	-3330
▁xà	-3331
▁250	-3332
▁600	-3333
▁Sub	-3334
▁bốc	-3335
▁nếp	-3336
▁đóm	-3337
oster	-3338
▁1990	-3339
▁Bước	-3340
▁Thưa	-3341
▁lưỡi	-3342
▁ngẩn	-3343
▁võng	-3344
▁luồng	-3345
▁nhiễu	-3346
▁Đường	-3347
▁Boston	-3348
▁Rwanda	-3349
▁Thường	-3350
▁laptop	-3351
air	-3352
iễu	-3353
tit	-3354
xin	-3355
▁Ac	-3356
▁MT	-3357
rian	-3358
▁000	-3359
▁Joe	-3360
▁Văn	-3361
▁bồi	-3362
▁dịp	-3363
▁lui	-3364
▁ron	-3365
▁Chưa	-3366
▁Luật	-3367
▁gạch	-3368
▁thắt	-3369
▁đoạt	-3370
▁hoành	-3371
▁kiêng	-3372
▁ngưng	-3373
▁sọ	-3374
▁ấu	-3375
▁Gal	-3376
▁Lat	-3377
▁Sim	-3378
▁Thì	-3379
▁Van	-3380
▁Xem	-3381
▁gậy	-3382
▁ngớ	-3383
▁Đơn	-3384
▁đúc	-3385
▁Coca	-3386
▁Giai	-3387
▁Higg	-3388
▁Mont	-3389
▁Thêm	-3390
▁cent	-3391
▁nano	-3392
▁nhóc	-3393
▁vacc	-3394
▁đuối	-3395
▁đôla	-3396
▁khoăn	-3397
our	-3398
rew	-3399
ure	-3400
ust	-3401
ửng	-3402
▁2.	-3403
▁bể	-3404
▁mỡ	-3405
▁rỉ	-3406
▁xé	-3407
liam	-3408
▁Del	-3409
▁Jim	-3410
▁MRI	-3411
▁Per	-3412
▁Trở	-3413
▁hít	-3414
▁hận	-3415
▁Đứa	-3416
▁đậm	-3417
athan	-3418
ridge	-3419
▁Hans	-3420
▁Phát	-3421
▁golf	-3422
▁hoãn	-3423
▁Apple	-3424
▁Gabby	-3425
▁hydro	-3426
▁William	-3427
ât	-3428
ẽn	-3429
ida	-3430
▁95	-3431
▁CE	-3432
▁Me	-3433
▁Tu	-3434
▁vả	-3435
▁Hen	-3436
▁Hợp	-3437
▁Jan	-3438
▁Vật	-3439
▁ghê	-3440
▁nhủ	-3441
▁nàn	-3442
▁Hành	-3443
▁Quay	-3444
▁hổng	-3445
▁ngột	-3446
▁tiệm	-3447
▁Động	-3448
titles	-3449
▁Gates	-3450
▁Subtitles	-3451
▁Transcript	-3452
ire	-3453
len	-3454
▁Ox	-3455
▁Sw	-3456
▁on	-3457
emen	-3458
iano	-3459
lick	-3460
uyến	-3461
▁Bab	-3462
▁Chú	-3463
▁Khá	-3464
▁Mic	-3465
▁War	-3466
▁băn	-3467
▁bầy	-3468
▁gom	-3469
▁gãy	-3470
▁lam	-3471
▁quỷ	-3472
▁vội	-3473
igami	-3474
▁Brow	-3475
▁Park	-3476
▁Việt	-3477
▁canh	-3478
▁giật	-3479
▁điền	-3480
▁Phòng	-3481
▁Times	-3482
▁nghẽn	-3483
▁nhánh	-3484
▁chuyền	-3485
esh	-3486
▁32	-3487
▁195	-3488
▁Bon	-3489
▁Mah	-3490
▁Màu	-3491
▁Nhờ	-3492
▁bẩm	-3493
▁vất	-3494
▁2004	-3495
▁2006	-3496
▁Okay	-3497
▁gien	-3498
▁giáp	-3499
▁hoan	-3500
▁ương	-3501
▁Koran	-3502
▁micro	-3503
ini	-3504
▁65	-3505
▁Sử	-3506
▁bẻ	-3507
▁bồ	-3508
▁or	-3509
lian	-3510
ster	-3511
▁Bur	-3512
▁Giả	-3513
▁Hắn	-3514
▁Nan	-3515
▁Nor	-3516
▁Pat	-3517
▁Tas	-3518
▁Tes	-3519
▁Wat	-3520
▁dại	-3521
▁dệt	-3522
▁mầm	-3523
▁phô	-3524
▁súp	-3525
▁đốm	-3526
▁Flor	-3527
▁chày	-3528
▁trúng	-3529
▁Palest	-3530
▁thiêng	-3531
di	-3532
car	-3533
enz	-3534
lar	-3535
oft	-3536
▁28	-3537
▁xứ	-3538
▁ào	-3539
▁Rio	-3540
▁lột	-3541
▁ngư	-3542
▁nhị	-3543
▁nón	-3544
▁rạp	-3545
▁vòm	-3546
▁vặt	-3547
▁Đặc	-3548
inson	-3549
▁1960	-3550
▁1970	-3551
▁Hoàn	-3552
▁Star	-3553
▁Tony	-3554
▁hông	-3555
▁phốt	-3556
▁tùng	-3557
▁xoắn	-3558
▁xách	-3559
▁đụng	-3560
▁phiêu	-3561
▁sướng	-3562
ale	-3563
ger	-3564
uel	-3565
▁My	-3566
▁Su	-3567
alia	-3568
ongo	-3569
ther	-3570
▁Kim	-3571
▁Mac	-3572
▁Nền	-3573
▁Vẫn	-3574
▁ghé	-3575
▁que	-3576
▁rìa	-3577
▁rộn	-3578
▁uốn	-3579
▁Đạo	-3580
▁2003	-3581
▁2011	-3582
▁Gand	-3583
▁King	-3584
▁Quân	-3585
▁Tính	-3586
▁tịch	-3587
▁vương	-3588
▁Howard	-3589
der	-3590
eal	-3591
omb	-3592
▁De	-3593
▁kề	-3594
▁lọ	-3595
izza	-3596
▁120	-3597
▁Don	-3598
▁Não	-3599
▁cáp	-3600
▁dập	-3601
▁mốc	-3602
▁ngụ	-3603
▁tôm	-3604
erson	-3605
▁Camb	-3606
▁biếm	-3607
▁clip	-3608
▁cảng	-3609
▁khan	-3610
▁khen	-3611
▁nhấp	-3612
▁thắn	-3613
▁thốt	-3614
▁Henry	-3615
▁Yemen	-3616
▁khùng	-3617
▁origami	-3618
▁vaccine	-3619
we	-3620
int	-3621
ium	-3622
▁Nữ	-3623
▁ax	-3624
▁el	-3625
▁kẽ	-3626
▁kệ	-3627
▁ủi	-3628
Tube	-3629
outh	-3630
▁Lad	-3631
▁Tan	-3632
▁búa	-3633
▁bực	-3634
▁kem	-3635
▁kẹp	-3636
▁lau	-3637
▁đệm	-3638
▁Phật	-3639
▁Sing	-3640
▁chíp	-3641
▁chóc	-3642
▁củng	-3643
▁nhàm	-3644
▁sửng	-3645
▁Congo	-3646
▁World	-3647
▁khoai	-3648
▁piano	-3649
▁Tasman	-3650
▁thoáng	-3651
▁YouTube	-3652
dy	-3653
▁CA	-3654
▁Cy	-3655
▁mớ	-3656
▁rỡ	-3657
hana	-3658
mpic	-3659
▁Jos	-3660
▁Kar	-3661
▁Mat	-3662
▁Mùa	-3663
▁Sáu	-3664
▁dồn	-3665
▁gạt	-3666
▁hái	-3667
▁mép	-3668
▁phe	-3669
▁tam	-3670
▁tăm	-3671
▁vịt	-3672
▁xộn	-3673
ganda	-3674
▁....	-3675
▁3000	-3676
▁Bush	-3677
▁Ford	-3678
▁huýt	-3679
▁phơi	-3680
▁sườn	-3681
▁thơm	-3682
▁trùm	-3683
▁đinh	-3684
▁Arist	-3685
▁Brian	-3686
▁Ghana	-3687
▁Micros	-3688
▁choáng	-3689
▁chướng	-3690
▁studio	-3691
af	-3692
go	-3693
lu	-3694
na	-3695
ild	-3696
itz	-3697
lob	-3698
lyn	-3699
ris	-3700
▁FG	-3701
▁Kì	-3702
▁Pl	-3703
▁Vô	-3704
▁Đỏ	-3705
Cola	-3706
arah	-3707
iban	-3708
ille	-3709
yria	-3710
▁Gen	-3711
▁Her	-3712
▁LED	-3713
▁Toà	-3714
▁Tạo	-3715
▁dai	-3716
▁dịu	-3717
▁gai	-3718
▁môt	-3719
▁rỗi	-3720
▁đom	-3721
▁Ngôi	-3722
▁Rằng	-3723
▁bướm	-3724
▁ngục	-3725
▁nhét	-3726
▁trèo	-3727
▁tạng	-3728
▁tống	-3729
▁Higgs	-3730
▁Syria	-3731
▁Tháng	-3732
▁thiền	-3733
▁triều	-3734
▁10,000	-3735
▁Oxford	-3736
▁Aristot	-3737
cô	-3738
mm	-3739
ía	-3740
ẹo	-3741
ịt	-3742
ect	-3743
eda	-3744
lad	-3745
unt	-3746
▁33	-3747
▁85	-3748
▁Bu	-3749
▁Mu	-3750
▁NL	-3751
▁am	-3752
▁sc	-3753
▁âu	-3754
▁Khu	-3755
▁Quy	-3756
▁Tài	-3757
▁hàn	-3758
▁mưu	-3759
▁ngừ	-3760
▁râu	-3761
▁rèn	-3762
▁1950	-3763
▁Lego	-3764
▁Wall	-3765
▁gieo	-3766
▁khẩn	-3767
▁tang	-3768
▁trọn	-3769
▁túng	-3770
▁phiến	-3771
▁Aristotle	-3772
▁Cambridge	-3773
▁Microsoft	-3774
kg	-3775
ớc	-3776
ati	-3777
nes	-3778
ten	-3779
▁Vũ	-3780
▁dê	-3781
etro	-3782
itch	-3783
ower	-3784
ropy	-3785
▁Amy	-3786
▁bón	-3787
▁dol	-3788
▁hâm	-3789
▁trễ	-3790
▁tẩy	-3791
▁vần	-3792
▁đục	-3793
▁Giới	-3794
▁Josh	-3795
▁Mand	-3796
▁hưng	-3797
▁Brook	-3798
ba	-3799
oh	-3800
ze	-3801
úm	-3802
ếm	-3803
ịa	-3804
ốp	-3805
ụi	-3806
ant	-3807
ari	-3808
ấng	-3809
▁Go	-3810
▁Os	-3811
▁SW	-3812
▁Tế	-3813
▁ac	-3814
▁hé	-3815
ania	-3816
▁Bob	-3817
▁Lak	-3818
▁Mel	-3819
▁Oly	-3820
▁Sal	-3821
▁Ser	-3822
▁Vir	-3823
▁bộc	-3824
▁cóc	-3825
▁cồn	-3826
▁dơi	-3827
▁dẹp	-3828
▁nhi	-3829
▁vạn	-3830
▁vọt	-3831
▁xay	-3832
▁Địa	-3833
▁Đột	-3834
▁đòn	-3835
▁2001	-3836
▁Rock	-3837
▁banh	-3838
▁show	-3839
▁Hoàng	-3840
▁Ngược	-3841
▁buồng	-3842
▁chiêm	-3843
▁phồng	-3844
▁pizza	-3845
▁trừng	-3846
▁10.000	-3847
▁Lester	-3848
▁Neander	-3849
▁Taliban	-3850
▁Stanford	-3851
▁Neanderthal	-3852
-1	-3853
oot	-3854
▁0.	-3855
▁55	-3856
▁Xô	-3857
▁lô	-3858
▁vớ	-3859
▁đè	-3860
ardo	-3861
aser	-3862
exas	-3863
thur	-3864
ulin	-3865
▁Bay	-3866
▁Pan	-3867
▁bồn	-3868
▁ent	-3869
▁nha	-3870
▁rốt	-3871
▁ser	-3872
▁vẩn	-3873
▁ôtô	-3874
▁ướt	-3875
right	-3876
▁Jenn	-3877
▁Shak	-3878
▁Sáng	-3879
▁Yeah	-3880
▁chay	-3881
▁ngợi	-3882
▁ngửi	-3883
▁pháo	-3884
▁quad	-3885
▁vắng	-3886
▁Texas	-3887
▁pound	-3888
▁Abraham	-3889
▁Charlie	-3890
▁Florida	-3891
▁nghiêng	-3892
ora	-3893
own	-3894
ượm	-3895
▁CP	-3896
▁Vi	-3897
▁ấp	-3898
agen	-3899
▁Bol	-3900
▁Bốn	-3901
▁Eli	-3902
▁Lar	-3903
▁Lại	-3904
▁Nel	-3905
▁Quả	-3906
▁Ray	-3907
▁Tur	-3908
▁bát	-3909
▁bưu	-3910
▁bẫy	-3911
▁chì	-3912
▁dưa	-3913
▁kìm	-3914
▁nâu	-3915
▁tao	-3916
▁xảo	-3917
▁1980	-3918
▁Bron	-3919
▁Jeff	-3920
▁bỏng	-3921
▁ngây	-3922
▁nuốt	-3923
▁thèm	-3924
▁thạo	-3925
▁Holly	-3926
▁Chương	-3927
▁Daniel	-3928
▁online	-3929
▁entropy	-3930
AR	-3931
de	-3932
fe	-3933
mo	-3934
ìu	-3935
ole	-3936
ory	-3937
pam	-3938
▁Da	-3939
▁xế	-3940
kins	-3941
▁Ari	-3942
▁bẩy	-3943
▁bến	-3944
▁cay	-3945
▁ins	-3946
▁nạp	-3947
▁phế	-3948
▁rực	-3949
▁tảo	-3950
▁đắm	-3951
orden	-3952
▁Mạch	-3953
▁Vịnh	-3954
▁Wolf	-3955
▁Yout	-3956
▁chùm	-3957
▁dâng	-3958
▁quận	-3959
▁then	-3960
▁xoáy	-3961
▁Giáng	-3962
▁Trông	-3963
▁chiên	-3964
▁ngươi	-3965
▁virút	-3966
▁Đương	-3967
▁Philip	-3968
▁Olympic	-3969
ha	-3970
se	-3971
agh	-3972
ero	-3973
mon	-3974
rap	-3975
red	-3976
rog	-3977
yan	-3978
▁37	-3979
▁Ky	-3980
▁cộ	-3981
▁uỷ	-3982
▁Đế	-3983
▁700	-3984
▁Kev	-3985
▁Lau	-3986
▁Lớn	-3987
▁Lời	-3988
▁Mil	-3989
▁Mor	-3990
▁Tam	-3991
▁Tay	-3992
▁Tit	-3993
▁Tối	-3994
▁gay	-3995
▁lay	-3996
▁nhã	-3997
▁nín	-3998
▁soi	-3999
▁2050	-4000
▁Lịch	-4001
▁Nghĩ	-4002
▁Ngôn	-4003
▁Nhóm	-4004
▁Stew	-4005
▁Thôi	-4006
▁diều	-4007
▁luân	-4008
▁nhồi	-4009
▁nhộn	-4010
▁thuỳ	-4011
▁viêm	-4012
▁Đoạn	-4013
▁Brown	-4014
▁Cyrus	-4015
▁Quyền	-4016
▁South	-4017
▁Vương	-4018
▁khiếu	-4019
▁nhuộm	-4020
▁thiếp	-4021
▁dollar	-4022
▁Rosling	-4023
▁Youtube	-4024
-2	-4025
BM	-4026
ih	-4027
ata	-4028
enh	-4029
eop	-4030
ere	-4031
gar	-4032
ino	-4033
iêm	-4034
▁29	-4035
▁31	-4036
▁Cụ	-4037
▁DV	-4038
▁Si	-4039
▁xá	-4040
▁xô	-4041
▁xả	-4042
chia	-4043
ever	-4044
ison	-4045
▁191	-4046
▁Cap	-4047
▁For	-4048
▁Jac	-4049
▁Mos	-4050
▁Ron	-4051
▁Tìm	-4052
▁Wow	-4053
▁gộp	-4054
▁hân	-4055
▁lậu	-4056
▁lội	-4057
▁xen	-4058
▁Kiến	-4059
▁Long	-4060
▁Mill	-4061
▁Toán	-4062
▁bổng	-4063
▁sùng	-4064
▁thắp	-4065
▁trội	-4066
▁Đáng	-4067
▁Latin	-4068
▁khuất	-4069
▁khăng	-4070
▁trinh	-4071
▁Andrew	-4072
▁Norden	-4073
▁Watson	-4074
▁nghiền	-4075
TC	-4076
ke	-4077
den	-4078
oll	-4079
ona	-4080
rut	-4081
▁Av	-4082
▁Hu	-4083
▁Ro	-4084
▁bế	-4085
▁dỡ	-4086
▁lê	-4087
▁tw	-4088
▁ân	-4089
eton	-4090
reet	-4091
tron	-4092
▁800	-4093
▁Air	-4094
▁CEO	-4095
▁Cầu	-4096
▁Dis	-4097
▁Ear	-4098
▁Eur	-4099
▁Khả	-4100
▁Mur	-4101
▁Ted	-4102
▁cai	-4103
▁cuả	-4104
▁gập	-4105
▁keo	-4106
▁mar	-4107
▁mọt	-4108
▁ngô	-4109
▁ngộ	-4110
▁ray	-4111
▁ria	-4112
▁sói	-4113
▁sếp	-4114
▁Đan	-4115
ephen	-4116
eting	-4117
lobal	-4118
▁Chất	-4119
▁Gore	-4120
▁Hill	-4121
▁Kính	-4122
▁Mike	-4123
▁Tiền	-4124
▁chip	-4125
▁lượm	-4126
▁nhăn	-4127
▁trêu	-4128
etroit	-4129
▁Thống	-4130
▁khoán	-4131
▁Arthur	-4132
▁Singap	-4133
▁Detroit	-4134
▁Mandela	-4135
▁Stephen	-4136
▁insulin	-4137
▁Scotland	-4138
▁Palestine	-4139
EC	-4140
yd	-4141
gin	-4142
idi	-4143
mad	-4144
oop	-4145
▁As	-4146
▁CD	-4147
▁Ki	-4148
▁No	-4149
▁hả	-4150
▁ne	-4151
▁rổ	-4152
ence	-4153
espe	-4154
iana	-4155
▁Bal	-4156
▁Bọn	-4157
▁Mới	-4158
▁Som	-4159
▁Vic	-4160
▁bóp	-4161
▁bới	-4162
▁cẩu	-4163
▁giế	-4164
▁hán	-4165
▁hẻo	-4166
▁khe	-4167
▁nit	-4168
▁rải	-4169
▁vẫy	-4170
▁Đưa	-4171
ansas	-4172
burgh	-4173
▁Gold	-4174
▁Kiểu	-4175
▁Matt	-4176
▁dang	-4177
▁khâu	-4178
▁khép	-4179
▁khốn	-4180
▁mark	-4181
▁sảnh	-4182
onesia	-4183
▁Black	-4184
▁Bronx	-4185
▁Ngoại	-4186
▁laser	-4187
▁Street	-4188
▁trương	-4189
▁Shakespe	-4190
▁Hollywood	-4191
▁Indonesia	-4192
▁Singapore	-4193
BC	-4194
gh	-4195
eep	-4196
ies	-4197
nia	-4198
oto	-4199
via	-4200
▁Cố	-4201
▁Ec	-4202
▁Gh	-4203
▁Ir	-4204
▁Xã	-4205
▁Yo	-4206
▁tơ	-4207
evil	-4208
▁DVD	-4209
▁Fer	-4210
▁Lee	-4211
▁Lew	-4212
▁bùn	-4213
▁mil	-4214
▁nhí	-4215
▁nãy	-4216
▁sỏi	-4217
▁thề	-4218
▁tua	-4219
▁tụt	-4220
▁vàn	-4221
▁vặn	-4222
▁xài	-4223
▁Ever	-4224
▁Icel	-4225
▁chốn	-4226
▁khốc	-4227
▁lượn	-4228
▁ngơi	-4229
▁phôi	-4230
▁đàng	-4231
▁Laden	-4232
▁Nguồn	-4233
▁Robot	-4234
▁chặng	-4235
▁giếng	-4236
▁Joseph	-4237
▁Nelson	-4238
▁khoang	-4239
▁Iceland	-4240
BI	-4241
MA	-4242
NC	-4243
bốt	-4244
dam	-4245
eck	-4246
olm	-4247
pha	-4248
que	-4249
▁46	-4250
▁Es	-4251
▁Kn	-4252
▁mi	-4253
▁rò	-4254
▁xi	-4255
▁xơ	-4256
▁Đô	-4257
atar	-4258
ilet	-4259
▁Bảy	-4260
▁Den	-4261
▁Mag	-4262
▁Pop	-4263
▁Pro	-4264
▁Riv	-4265
▁Thí	-4266
▁Thú	-4267
▁Tâm	-4268
▁bội	-4269
▁hàu	-4270
▁loa	-4271
▁lứa	-4272
▁mẹo	-4273
▁nắp	-4274
▁nếm	-4275
▁đãi	-4276
▁đồn	-4277
▁2002	-4278
▁Berk	-4279
▁Cảnh	-4280
▁Dưới	-4281
▁Nhạc	-4282
▁Sand	-4283
▁bênh	-4284
▁hăng	-4285
▁logo	-4286
▁lách	-4287
▁lửng	-4288
▁muôn	-4289
▁ngào	-4290
▁ngắt	-4291
▁nuối	-4292
▁quạt	-4293
▁rặng	-4294
▁vách	-4295
▁Định	-4296
▁đọng	-4297
ealand	-4298
▁Dường	-4299
▁khiết	-4300
▁liêng	-4301
▁nhược	-4302
▁tweet	-4303
▁Albert	-4304
▁Truyền	-4305
▁Victor	-4306
▁Montana	-4307
▁Carolina	-4308
▁marketing	-4309
▁Shakespeare	-4310
ỉa	-4311
ear	-4312
mar	-4313
▁48	-4314
▁ED	-4315
▁Mô	-4316
▁nạ	-4317
aron	-4318
eron	-4319
ollo	-4320
oton	-4321
raph	-4322
▁Eth	-4323
▁Ham	-4324
▁Han	-4325
▁IBM	-4326
▁Jay	-4327
▁McC	-4328
▁Mấy	-4329
▁Mối	-4330
▁Mộc	-4331
▁Suy	-4332
▁Ter	-4333
▁bon	-4334
▁dâu	-4335
▁dời	-4336
▁kil	-4337
▁len	-4338
▁lấn	-4339
▁rệt	-4340
▁toa	-4341
▁tát	-4342
▁váy	-4343
▁Đàn	-4344
▁đan	-4345
▁đun	-4346
ville	-4347
▁Băng	-4348
▁chui	-4349
▁elec	-4350
▁hiếu	-4351
▁scan	-4352
▁suối	-4353
▁Kevin	-4354
▁Quảng	-4355
▁click	-4356
▁devil	-4357
▁ngoạn	-4358
▁quăng	-4359
▁Joshua	-4360
▁Newton	-4361
▁Virgin	-4362
▁chuộng	-4363
▁toilet	-4364
▁Silicon	-4365
si	-4366
ye	-4367
ụa	-4368
▁ơ	-4369
ani	-4370
har	-4371
nie	-4372
▁Bi	-4373
▁Gô	-4374
▁Kế	-4375
▁Sk	-4376
▁op	-4377
▁sp	-4378
▁êm	-4379
▁ôi	-4380
▁Đồ	-4381
▁ỏi	-4382
agos	-4383
oint	-4384
ylon	-4385
▁Chu	-4386
▁Chữ	-4387
▁Jul	-4388
▁Lou	-4389
▁Môi	-4390
▁Tem	-4391
▁Xây	-4392
▁cal	-4393
▁cua	-4394
▁cán	-4395
▁cắn	-4396
▁khử	-4397
▁nứt	-4398
▁tạc	-4399
▁đứt	-4400
▁1900	-4401
▁1930	-4402
▁1999	-4403
▁Chân	-4404
▁Leon	-4405
▁Nick	-4406
▁Sher	-4407
▁nhát	-4408
▁nhạo	-4409
▁tước	-4410
▁Chile	-4411
▁Delhi	-4412
▁chuối	-4413
▁Gandhi	-4414
▁100,000	-4415
▁electron	-4416
bo	-4417
ni	-4418
ễn	-4419
▁ủ	-4420
din	-4421
oly	-4422
omp	-4423
ves	-4424
▁38	-4425
▁44	-4426
▁AR	-4427
▁BJ	-4428
▁We	-4429
▁hở	-4430
▁tớ	-4431
▁Bud	-4432
▁Gil	-4433
▁Lin	-4434
▁Mas	-4435
▁Mer	-4436
▁Ram	-4437
▁Red	-4438
▁Sai	-4439
▁bar	-4440
▁cọc	-4441
▁dồi	-4442
▁lót	-4443
▁ngả	-4444
▁sứa	-4445
▁tru	-4446
▁đạm	-4447
eland	-4448
▁2012	-4449
▁Buổi	-4450
▁Carl	-4451
▁Clin	-4452
▁Càng	-4453
▁High	-4454
▁Jane	-4455
▁Miss	-4456
▁Phía	-4457
▁Thần	-4458
▁cafe	-4459
▁chạp	-4460
▁kiềm	-4461
▁thốn	-4462
▁trói	-4463
▁Alpha	-4464
▁Atlan	-4465
▁Lewis	-4466
▁Sarah	-4467
▁Scott	-4468
▁Simon	-4469
▁khinh	-4470
▁Chuyến	-4471
▁Thương	-4472
▁Wright	-4473
▁Wolfram	-4474
▁Alexander	-4475
HA	-4476
cy	-4477
do	-4478
so	-4479
ux	-4480
ùn	-4481
ake	-4482
ato	-4483
hai	-4484
las	-4485
row	-4486
ươc	-4487
▁Ev	-4488
▁GG	-4489
▁Kr	-4490
▁Op	-4491
▁SO	-4492
▁WK	-4493
▁ha	-4494
▁ok	-4495
▁sờ	-4496
▁tẻ	-4497
aeda	-4498
ings	-4499
opia	-4500
▁Arg	-4501
▁Kal	-4502
▁bin	-4503
▁cạo	-4504
▁dào	-4505
▁hoi	-4506
▁lọt	-4507
▁nặc	-4508
▁nến	-4509
▁nộp	-4510
▁rớt	-4511
▁thỏ	-4512
▁tre	-4513
▁xốp	-4514
▁Đâu	-4515
▁đốn	-4516
▁Cuốn	-4517
▁Hiệu	-4518
▁Mạng	-4519
▁Năng	-4520
▁Rand	-4521
▁Tanz	-4522
▁Viết	-4523
▁chật	-4524
▁chọi	-4525
▁cưỡi	-4526
▁giàn	-4527
▁găng	-4528
▁ngủi	-4529
▁nhấc	-4530
▁phàn	-4531
▁quẩn	-4532
▁rong	-4533
▁sưởi	-4534
▁đính	-4535
amburg	-4536
▁Thuật	-4537
▁nguội	-4538
▁phích	-4539
▁thừng	-4540
▁vướng	-4541
ational	-4542
▁Columb	-4543
▁Disney	-4544
▁Stewart	-4545
km	-4546
ech	-4547
hov	-4548
nik	-4549
ode	-4550
ooh	-4551
ors	-4552
urt	-4553
ệch	-4554
▁Ag	-4555
▁Dr	-4556
▁Hi	-4557
▁JH	-4558
▁Ku	-4559
▁Mi	-4560
▁Ra	-4561
▁So	-4562
▁Vỗ	-4563
▁Xu	-4564
▁bì	-4565
▁cớ	-4566
▁vã	-4567
▁ôn	-4568
▁ắc	-4569
inda	-4570
ters	-4571
▁Bot	-4572
▁Căn	-4573
▁Cứu	-4574
▁Fri	-4575
▁Kel	-4576
▁Nỗi	-4577
▁Sus	-4578
▁Thị	-4579
▁Thủ	-4580
▁Trí	-4581
▁bọt	-4582
▁bời	-4583
▁cằn	-4584
▁enz	-4585
▁gắt	-4586
▁hao	-4587
▁tít	-4588
▁xấp	-4589
▁1984	-4590
▁2030	-4591
▁Jill	-4592
▁Jord	-4593
▁Mười	-4594
▁Tuổi	-4595
▁chốc	-4596
▁ngạo	-4597
▁phớt	-4598
▁tiệt	-4599
Global	-4600
entina	-4601
pamine	-4602
▁Phong	-4603
▁Thỉnh	-4604
▁khoác	-4605
▁thiêu	-4606
▁Johnny	-4607
▁Nathan	-4608
▁Brooklyn	-4609
BA	-4610
ún	-4611
▁ừ	-4612
bum	-4613
iff	-4614
ops	-4615
ost	-4616
rab	-4617
rey	-4618
uit	-4619
use	-4620
way	-4621
zab	-4622
▁Bh	-4623
▁Du	-4624
▁Ig	-4625
▁Kỹ	-4626
▁Vị	-4627
▁Xe	-4628
▁bỉ	-4629
▁go	-4630
▁mị	-4631
ardy	-4632
etti	-4633
ican	-4634
ider	-4635
well	-4636
▁1.5	-4637
▁Aus	-4638
▁Báo	-4639
▁Cas	-4640
▁Của	-4641
▁Kat	-4642
▁Moz	-4643
▁Rog	-4644
▁Tah	-4645
▁Trò	-4646
▁cưa	-4647
▁gạo	-4648
▁gớm	-4649
▁háo	-4650
▁lụa	-4651
▁mìn	-4652
▁pop	-4653
▁rìu	-4654
▁trá	-4655
▁trệ	-4656
▁vùi	-4657
ering	-4658
ierra	-4659
▁Bell	-4660
▁Biết	-4661
▁Chúc	-4662
▁Dịch	-4663
▁Lang	-4664
▁Nghị	-4665
▁axit	-4666
▁dưng	-4667
▁dẳng	-4668
▁ghen	-4669
▁iPod	-4670
▁ngọc	-4671
▁nhục	-4672
▁thảy	-4673
▁tuộc	-4674
▁vành	-4675
▁vựng	-4676
▁điếu	-4677
zabeth	-4678
▁Hawai	-4679
▁Julia	-4680
▁Moore	-4681
▁Tranh	-4682
▁giáng	-4683
▁nhúng	-4684
▁phanh	-4685
▁tràng	-4686
enhagen	-4687
▁Bosnia	-4688
▁Venice	-4689
▁khuếch	-4690
▁poster	-4691
▁Tanzania	-4692
▁Virginia	-4693
▁Elizabeth	-4694
▁Parkinson	-4695
▁TEDGlobal	-4696
▁Copenhagen	-4697
MS	-4698
RA	-4699
fa	-4700
my	-4701
và	-4702
ũa	-4703
ẹt	-4704
ợm	-4705
ame	-4706
eas	-4707
eat	-4708
ics	-4709
ily	-4710
ima	-4711
ive	-4712
off	-4713
ose	-4714
ott	-4715
rin	-4716
▁72	-4717
▁Ca	-4718
▁Ko	-4719
▁ah	-4720
▁gl	-4721
▁kg	-4722
▁nộ	-4723
▁tở	-4724
aine	-4725
alem	-4726
ucks	-4727
zler	-4728
▁193	-4729
▁2.5	-4730
▁Bir	-4731
▁Cây	-4732
▁Cục	-4733
▁EDI	-4734
▁Far	-4735
▁Hav	-4736
▁Hir	-4737
▁Mau	-4738
▁Sky	-4739
▁Sun	-4740
▁Syl	-4741
▁Tel	-4742
▁Tóm	-4743
▁Tập	-4744
▁củi	-4745
▁hip	-4746
▁hon	-4747
▁lụt	-4748
▁met	-4749
▁mác	-4750
▁méo	-4751
▁nới	-4752
▁ven	-4753
▁vit	-4754
▁vắt	-4755
▁đặn	-4756
▁Bert	-4757
▁Brit	-4758
▁Ethi	-4759
▁Maya	-4760
▁Phục	-4761
▁buồm	-4762
▁cành	-4763
▁kiều	-4764
▁láng	-4765
▁nhại	-4766
▁nhọn	-4767
▁nhức	-4768
▁tụng	-4769
usalem	-4770
▁Georg	-4771
▁Power	-4772
▁Trang	-4773
▁album	-4774
▁chinh	-4775
▁chích	-4776
▁opera	-4777
▁Colomb	-4778
▁Edward	-4779
▁choàng	-4780
▁Clinton	-4781
▁Teszler	-4782
▁vitamin	-4783
▁dopamine	-4784
▁Argentina	-4785
▁Jerusalem	-4786
IA	-4787
sy	-4788
õm	-4789
PTC	-4790
edy	-4791
isa	-4792
iti	-4793
oln	-4794
ula	-4795
ỳnh	-4796
▁42	-4797
▁96	-4798
▁Bỏ	-4799
▁Im	-4800
▁Vụ	-4801
▁bự	-4802
eley	-4803
erom	-4804
igan	-4805
▁130	-4806
▁192	-4807
▁Ash	-4808
▁Bas	-4809
▁Hel	-4810
▁Min	-4811
▁Mov	-4812
▁Nội	-4813
▁Tạp	-4814
▁cào	-4815
▁kép	-4816
▁man	-4817
▁nấc	-4818
▁nực	-4819
▁phả	-4820
▁toạ	-4821
▁vỉa	-4822
ellow	-4823
▁Amer	-4824
▁Arch	-4825
▁Carn	-4826
▁Chết	-4827
▁Diễn	-4828
▁Doug	-4829
▁Hung	-4830
▁Linc	-4831
▁Line	-4832
▁Luân	-4833
▁Marc	-4834
▁Nhất	-4835
▁Phân	-4836
▁Port	-4837
▁Quần	-4838
▁Tuần	-4839
▁Từng	-4840
▁diễu	-4841
▁khoe	-4842
▁liêu	-4843
▁lười	-4844
▁mông	-4845
▁nhốt	-4846
▁quầy	-4847
▁thối	-4848
▁viol	-4849
▁đươc	-4850
hammad	-4851
▁Jones	-4852
▁Matth	-4853
▁sương	-4854
▁Sierra	-4855
▁Sylvia	-4856
▁Babylon	-4857
▁Lincoln	-4858
▁silicon	-4859
▁Columbia	-4860
▁Ethiopia	-4861
▁Muhammad	-4862
CA	-4863
tt	-4864
ụn	-4865
▁ả	-4866
ECD	-4867
acy	-4868
asc	-4869
ila	-4870
itt	-4871
kyo	-4872
men	-4873
▁86	-4874
▁Ha	-4875
▁Ti	-4876
▁ao	-4877
▁tạ	-4878
▁xẻ	-4879
▁ớt	-4880
ifer	-4881
phia	-4882
utan	-4883
wich	-4884
▁2.0	-4885
▁350	-4886
▁Dựa	-4887
▁God	-4888
▁Jes	-4889
▁Law	-4890
▁Nic	-4891
▁Roy	-4892
▁Sib	-4893
▁Thư	-4894
▁Tấm	-4895
▁Tới	-4896
▁Val	-4897
▁Yêu	-4898
▁báu	-4899
▁chà	-4900
▁chổ	-4901
▁cúi	-4902
▁dạn	-4903
▁gán	-4904
▁gót	-4905
▁gầy	-4906
▁gốm	-4907
▁gục	-4908
▁lén	-4909
▁mài	-4910
▁mỉa	-4911
▁nóc	-4912
▁rùa	-4913
▁Đào	-4914
▁Đặt	-4915
▁đầm	-4916
PTCHA	-4917
ather	-4918
imbab	-4919
▁Bern	-4920
▁Fort	-4921
▁Giao	-4922
▁Lòng	-4923
▁Minh	-4924
▁Nhận	-4925
▁Niềm	-4926
▁OECD	-4927
▁Thấy	-4928
▁Tinh	-4929
▁Walk	-4930
▁West	-4931
▁acid	-4932
▁iPad	-4933
▁kiếp	-4934
▁lung	-4935
▁lúng	-4936
▁nháy	-4937
▁rảnh	-4938
▁suýt	-4939
▁taxi	-4940
▁xuôi	-4941
▁đắng	-4942
▁Broad	-4943
▁Leone	-4944
▁Lượng	-4945
▁Nhiệm	-4946
▁North	-4947
▁Qatar	-4948
▁Trắng	-4949
▁chênh	-4950
▁huỳnh	-4951
▁phiện	-4952
▁Apollo	-4953
▁Hawaii	-4954
▁Julian	-4955
▁Philad	-4956
▁pherom	-4957
▁Cameron	-4958
▁Somalia	-4959
▁Anderson	-4960
▁Jonathan	-4961
▁Leonardo	-4962
▁Victoria	-4963
▁Greenland	-4964
,1	-4965
,7	-4966
LA	-4967
fi	-4968
kh	-4969
mi	-4970
pi	-4971
ui	-4972
▁z	-4973
aze	-4974
bur	-4975
ena	-4976
ita	-4977
lah	-4978
opa	-4979
rib	-4980
uba	-4981
ule	-4982
ulu	-4983
vít	-4984
ươm	-4985
▁64	-4986
▁98	-4987
▁AO	-4988
▁Bí	-4989
▁Bồ	-4990
▁Ex	-4991
▁It	-4992
▁Tỉ	-4993
▁bệ	-4994
▁sộ	-4995
▁xì	-4996
▁xổ	-4997
ield	-4998
lash	-4999
shah	-5000
uper	-5001
▁1,5	-5002
▁140	-5003
▁160	-5004
▁185	-5005
▁187	-5006
▁Ann	-5007
▁Dub	-5008
▁Hẳn	-5009
▁Kam	-5010
▁Ker	-5011
▁McD	-5012
▁Mức	-5013
▁Net	-5014
▁Rad	-5015
▁Sol	-5016
▁bén	-5017
▁côi	-5018
▁căm	-5019
▁cửu	-5020
▁eur	-5021
▁hen	-5022
▁hức	-5023
▁lãi	-5024
▁mỉm	-5025
▁oxi	-5026
▁sấu	-5027
▁thỉ	-5028
▁tỉa	-5029
▁tởm	-5030
▁xào	-5031
▁ươi	-5032
ennis	-5033
otter	-5034
phone	-5035
utnik	-5036
▁Bali	-5037
▁Biểu	-5038
▁City	-5039
▁Edin	-5040
▁Emma	-5041
▁Hiển	-5042
▁Khan	-5043
▁Khối	-5044
▁News	-5045
▁Siêu	-5046
▁Temp	-5047
▁Well	-5048
▁Xanh	-5049
▁chéo	-5050
▁chảo	-5051
▁giầy	-5052
▁ngâm	-5053
▁quấn	-5054
▁rock	-5055
▁thản	-5056
▁điểu	-5057
▁đười	-5058
azeera	-5059
ladesh	-5060
▁Alice	-5061
▁Earth	-5062
▁Kelly	-5063
▁Starb	-5064
▁Tokyo	-5065
▁ngoặt	-5066
▁virut	-5067
imbabwe	-5068
shahidi	-5069
▁Siberia	-5070
▁Sputnik	-5071
▁Berkeley	-5072
▁National	-5073
▁Edinburgh	-5074
▁Tasmanian	-5075
OX	-5076
ơc	-5077
200	-5078
ade	-5079
aig	-5080
ken	-5081
obi	-5082
une	-5083
▁BR	-5084
▁CN	-5085
▁Mở	-5086
▁tý	-5087
▁đự	-5088
aska	-5089
egie	-5090
nedy	-5091
tông	-5092
uron	-5093
▁180	-5094
▁Bel	-5095
▁Boy	-5096
▁Ele	-5097
▁Eve	-5098
▁FOX	-5099
▁Had	-5100
▁Khó	-5101
▁Mắt	-5102
▁Pol	-5103
▁Sud	-5104
▁bịt	-5105
▁cày	-5106
▁gas	-5107
▁hor	-5108
▁ion	-5109
▁mầu	-5110
▁mộc	-5111
▁ngự	-5112
▁rậm	-5113
▁sáp	-5114
▁tòi	-5115
▁vầy	-5116
▁xoa	-5117
▁xáo	-5118
▁xót	-5119
▁xịt	-5120
▁ăng	-5121
▁Đài	-5122
▁Đời	-5123
▁đỗi	-5124
graph	-5125
rence	-5126
▁1996	-5127
▁5000	-5128
▁Anas	-5129
▁Camp	-5130
▁Giám	-5131
▁Gran	-5132
▁Jeop	-5133
▁Khác	-5134
▁Nike	-5135
▁Penn	-5136
▁Shir	-5137
▁Sống	-5138
▁Thầy	-5139
▁Whit	-5140
▁bướu	-5141
▁chóp	-5142
▁cúng	-5143
▁cưng	-5144
▁giục	-5145
▁mánh	-5146
▁nham	-5147
▁poly	-5148
▁quấy	-5149
▁rãnh	-5150
▁rồng	-5151
▁điếc	-5152
elphia	-5153
▁Movem	-5154
▁Tesla	-5155
▁Triều	-5156
thalate	-5157
▁Copern	-5158
▁Luther	-5159
▁Steven	-5160
amburger	-5161
▁100.000	-5162
▁Atlanta	-5163
▁Jazeera	-5164
▁Kennedy	-5165
▁Carnegie	-5166
▁Colombia	-5167
▁Michigan	-5168
▁Christoph	-5169
▁Starbucks	-5170
▁Bangladesh	-5171
▁Philadelphia	-5172
-3	-5173
40	-5174
DA	-5175
EA	-5176
Sp	-5177
oa	-5178
zơ	-5179
ễu	-5180
ait	-5181
aly	-5182
ava	-5183
bie	-5184
ble	-5185
key	-5186
lem	-5187
med	-5188
oir	-5189
ome	-5190
rah	-5191
reg	-5192
the	-5193
ura	-5194
wen	-5195
▁3.	-5196
▁41	-5197
▁43	-5198
▁58	-5199
▁93	-5200
▁AK	-5201
▁AM	-5202
▁DJ	-5203
▁Dữ	-5204
▁Ke	-5205
▁cm	-5206
▁dì	-5207
▁na	-5208
▁rà	-5209
ello	-5210
ihad	-5211
mart	-5212
olas	-5213
omen	-5214
rick	-5215
▁2,5	-5216
▁Ach	-5217
▁Chi	-5218
▁Eng	-5219
▁Gar	-5220
▁Gửi	-5221
▁Hal	-5222
▁Map	-5223
▁Mất	-5224
▁Phố	-5225
▁Quí	-5226
▁bit	-5227
▁bôi	-5228
▁bầm	-5229
▁hốc	-5230
▁lầy	-5231
▁ooh	-5232
▁trớ	-5233
▁tụi	-5234
▁vác	-5235
▁vôi	-5236
▁xâu	-5237
▁xắn	-5238
▁Đôn	-5239
phere	-5240
▁1998	-5241
▁Biển	-5242
▁Bánh	-5243
▁Cher	-5244
▁Chia	-5245
▁Danh	-5246
▁Giữa	-5247
▁Hawk	-5248
▁Ivan	-5249
▁Joel	-5250
▁Mong	-5251
▁Nair	-5252
▁Phản	-5253
▁Rach	-5254
▁Rick	-5255
▁Suốt	-5256
▁Sách	-5257
▁Tạng	-5258
▁Yves	-5259
▁chén	-5260
▁chói	-5261
▁chải	-5262
▁chồn	-5263
▁ghim	-5264
▁giun	-5265
▁nhôm	-5266
▁sand	-5267
▁test	-5268
▁trỗi	-5269
▁viền	-5270
▁yeah	-5271
apagos	-5272
opatch	-5273
▁1.000	-5274
▁2,000	-5275
▁Emily	-5276
▁Marco	-5277
▁Mitch	-5278
▁Ngành	-5279
▁Roger	-5280
▁Super	-5281
▁Susan	-5282
▁chiết	-5283
▁duyên	-5284
▁khống	-5285
▁triễn	-5286
graphic	-5287
▁50.000	-5288
▁Lakota	-5289
▁Warren	-5290
▁Everest	-5291
▁Hungary	-5292
▁Jackson	-5293
▁Movember	-5294
▁Tasmania	-5295
▁Galapagos	-5296
▁Nanopatch	-5297
▁hamburger	-5298
12	-5299
Ch	-5300
nd	-5301
nô	-5302
pu	-5303
sc	-5304
eng	-5305
ial	-5306
inn	-5307
iva	-5308
ocr	-5309
tim	-5310
unk	-5311
ềng	-5312
▁52	-5313
▁74	-5314
▁ES	-5315
▁IM	-5316
▁Kẻ	-5317
▁Nô	-5318
▁Sở	-5319
▁Tử	-5320
▁et	-5321
▁ox	-5322
▁ve	-5323
▁vá	-5324
▁ập	-5325
airo	-5326
eman	-5327
epal	-5328
zona	-5329
▁190	-5330
▁Chờ	-5331
▁Cor	-5332
▁Dàn	-5333
▁FGM	-5334
▁Giê	-5335
▁Hạt	-5336
▁Khí	-5337
▁Leb	-5338
▁Lạt	-5339
▁Oak	-5340
▁Oli	-5341
▁Pep	-5342
▁Pri	-5343
▁Res	-5344
▁Sad	-5345
▁She	-5346
▁Trị	-5347
▁Trừ	-5348
▁Xét	-5349
▁dấn	-5350
▁gel	-5351
▁ghề	-5352
▁gật	-5353
▁hel	-5354
▁lẫy	-5355
▁sập	-5356
▁tột	-5357
▁Đám	-5358
▁Đêm	-5359
▁đắc	-5360
attle	-5361
ivers	-5362
onald	-5363
umbai	-5364
▁1994	-5365
▁1995	-5366
▁Beat	-5367
▁Beet	-5368
▁Dùng	-5369
▁Jess	-5370
▁bàng	-5371
▁bành	-5372
▁báng	-5373
▁ngặt	-5374
▁việt	-5375
▁vũng	-5376
▁Aaron	-5377
▁Chứng	-5378
▁Louis	-5379
▁Nepal	-5380
▁Princ	-5381
▁Sudan	-5382
▁chằng	-5383
▁giềng	-5384
▁khuấy	-5385
▁ngước	-5386
▁phông	-5387
▁quáng	-5388
▁thủng	-5389
▁Bhutan	-5390
▁Kansas	-5391
▁Mumbai	-5392
▁Samuel	-5393
▁nguyệt	-5394
▁nhượng	-5395
osterone	-5396
▁Arizona	-5397
▁CAPTCHA	-5398
▁Johnson	-5399
▁Tempest	-5400
▁Jeopardy	-5401
▁Princeton	-5402
▁Christopher	-5403
80	-5404
SC	-5405
rô	-5406
ym	-5407
ựu	-5408
▁á	-5409
ado	-5410
chi	-5411
emy	-5412
ias	-5413
môn	-5414
một	-5415
ons	-5416
ows	-5417
ray	-5418
str	-5419
tic	-5420
ump	-5421
vis	-5422
▁47	-5423
▁97	-5424
▁CS	-5425
▁Dễ	-5426
▁IP	-5427
▁PH	-5428
▁RW	-5429
▁Sa	-5430
▁Sn	-5431
▁bã	-5432
▁me	-5433
▁no	-5434
▁đu	-5435
ater	-5436
atur	-5437
cent	-5438
cher	-5439
ette	-5440
imet	-5441
onto	-5442
osau	-5443
ston	-5444
▁900	-5445
▁Aur	-5446
▁Die	-5447
▁Fox	-5448
▁Gro	-5449
▁Hol	-5450
▁Kur	-5451
▁Lai	-5452
▁Lực	-5453
▁Mus	-5454
▁Rod	-5455
▁Seb	-5456
▁Sen	-5457
▁Str	-5458
▁Tai	-5459
▁Tám	-5460
▁Tầm	-5461
▁Tức	-5462
▁Vik	-5463
▁còi	-5464
▁cẩm	-5465
▁fan	-5466
▁lít	-5467
▁mao	-5468
▁mặn	-5469
▁náo	-5470
▁nồi	-5471
▁prô	-5472
▁rap	-5473
▁reo	-5474
▁sẹo	-5475
▁trù	-5476
▁tản	-5477
▁tặc	-5478
▁đậy	-5479
▁đắp	-5480
eller	-5481
hoven	-5482
▁Alan	-5483
▁Chad	-5484
▁Clay	-5485
▁Giấc	-5486
▁Luôn	-5487
▁Mass	-5488
▁Romo	-5489
▁Time	-5490
▁Tiêu	-5491
▁amin	-5492
▁bịch	-5493
▁gram	-5494
▁hiên	-5495
▁nhai	-5496
▁nhọc	-5497
▁suôn	-5498
▁thẹn	-5499
▁thỉu	-5500
▁trơn	-5501
▁tưới	-5502
▁vuốt	-5503
ribati	-5504
▁Cairo	-5505
▁Grand	-5506
▁Inter	-5507
▁Jesus	-5508
▁Jonas	-5509
▁Larry	-5510
▁Ngươi	-5511
▁Skype	-5512
▁Thách	-5513
▁phình	-5514
▁viếng	-5515
▁20.000	-5516
▁Alaska	-5517
▁Berlin	-5518
▁Havard	-5519
▁Rachel	-5520
▁Taylor	-5521
▁violin	-5522
▁Jennifer	-5523
▁Kiribati	-5524
▁Beethoven	-5525
▁testosterone	-5526
NG	-5527
gi	-5528
hm	-5529
kr	-5530
yo	-5531
▁q	-5532
aus	-5533
ban	-5534
cou	-5535
ean	-5536
ene	-5537
iro	-5538
oli	-5539
ool	-5540
orm	-5541
oud	-5542
ral	-5543
ưởi	-5544
▁34	-5545
▁77	-5546
▁Bé	-5547
▁Cổ	-5548
▁Gl	-5549
▁IQ	-5550
▁Li	-5551
▁SA	-5552
▁SR	-5553
▁XL	-5554
▁gồ	-5555
▁it	-5556
▁kị	-5557
▁lố	-5558
▁má	-5559
▁vv	-5560
▁xở	-5561
▁ín	-5562
▁ầm	-5563
alay	-5564
alin	-5565
eyer	-5566
icus	-5567
ines	-5568
omet	-5569
stan	-5570
tech	-5571
word	-5572
▁125	-5573
▁450	-5574
▁Art	-5575
▁Bil	-5576
▁Bàn	-5577
▁CNN	-5578
▁Cru	-5579
▁Cur	-5580
▁Gan	-5581
▁Lên	-5582
▁Lập	-5583
▁McK	-5584
▁Mul	-5585
▁Nấm	-5586
▁Scr	-5587
▁Sản	-5588
▁Vol	-5589
▁Vua	-5590
▁Vận	-5591
▁câm	-5592
▁cỗi	-5593
▁dấy	-5594
▁gôn	-5595
▁gầm	-5596
▁hèn	-5597
▁hươ	-5598
▁hắc	-5599
▁lẽo	-5600
▁nai	-5601
▁nhẽ	-5602
▁sạc	-5603
▁sụt	-5604
▁trỏ	-5605
ersey	-5606
garet	-5607
ister	-5608
ustin	-5609
▁1975	-5610
▁Cuba	-5611
▁Dick	-5612
▁Dòng	-5613
▁Free	-5614
▁Hoạt	-5615
▁Hồng	-5616
▁Jean	-5617
▁Mama	-5618
▁Ryan	-5619
▁Stef	-5620
▁Will	-5621
▁bazơ	-5622
▁chổi	-5623
▁họng	-5624
▁kiêu	-5625
▁liễu	-5626
▁lộng	-5627
▁nang	-5628
▁ngần	-5629
▁ngợp	-5630
▁phao	-5631
▁rách	-5632
▁ròng	-5633
▁đựơc	-5634
▁Grace	-5635
▁Great	-5636
▁Plato	-5637
▁Thung	-5638
▁Titus	-5639
▁chanh	-5640
▁giang	-5641
▁quẳng	-5642
▁thình	-5643
▁50,000	-5644
▁Cheryl	-5645
▁Europa	-5646
▁Jersey	-5647
▁Jordan	-5648
▁Trưởng	-5649
▁Yorker	-5650
▁Seattle	-5651
▁Lawrence	-5652
▁Margaret	-5653
▁McDonald	-5654
▁sandwich	-5655
▁Jefferson	-5656
▁Lesterland	-5657
.9	-5658
ko	-5659
oz	-5660
RNA	-5661
Tôi	-5662
act	-5663
aza	-5664
cha	-5665
ead	-5666
ezu	-5667
fur	-5668
iêt	-5669
opy	-5670
ori	-5671
tan	-5672
tel	-5673
▁82	-5674
▁AV	-5675
▁BM	-5676
▁Bị	-5677
▁CC	-5678
▁Hạ	-5679
▁Kỷ	-5680
▁LH	-5681
▁Sl	-5682
▁TH	-5683
▁TS	-5684
▁bo	-5685
▁bú	-5686
▁dè	-5687
▁en	-5688
▁gu	-5689
▁ki	-5690
▁mĩ	-5691
▁tứ	-5692
able	-5693
illa	-5694
imee	-5695
inea	-5696
rina	-5697
uyển	-5698
▁All	-5699
▁Cao	-5700
▁DAR	-5701
▁Dam	-5702
▁FBI	-5703
▁Fib	-5704
▁Ful	-5705
▁Has	-5706
▁Hát	-5707
▁Jar	-5708
▁Kib	-5709
▁Lạy	-5710
▁Mai	-5711
▁McG	-5712
▁Nhớ	-5713
▁Sắp	-5714
▁Tho	-5715
▁Tob	-5716
▁Tun	-5717
▁Tạm	-5718
▁Ver	-5719
▁bus	-5720
▁bịp	-5721
▁gặm	-5722
▁khờ	-5723
▁kèn	-5724
▁loé	-5725
▁lạy	-5726
▁nhô	-5727
▁phu	-5728
▁rạc	-5729
▁rẩy	-5730
▁rọi	-5731
▁thà	-5732
▁xói	-5733
▁Đội	-5734
▁Đợi	-5735
▁đút	-5736
Women	-5737
allon	-5738
athon	-5739
regon	-5740
▁1997	-5741
▁4000	-5742
▁Arab	-5743
▁Beau	-5744
▁Biến	-5745
▁Blue	-5746
▁Conn	-5747
▁Cười	-5748
▁Dean	-5749
▁Doha	-5750
▁FOXO	-5751
▁Gary	-5752
▁Hann	-5753
▁Juli	-5754
▁Mary	-5755
▁Peru	-5756
▁Quản	-5757
▁Rome	-5758
▁Ross	-5759
▁Russ	-5760
▁Tham	-5761
▁Vinc	-5762
▁Vòng	-5763
▁Vùng	-5764
▁giễu	-5765
▁hươu	-5766
▁link	-5767
▁miên	-5768
▁nhấm	-5769
▁nòng	-5770
▁nấng	-5771
▁pass	-5772
▁phẫn	-5773
▁rạng	-5774
▁sừng	-5775
▁thuở	-5776
▁thêu	-5777
▁thạc	-5778
▁trút	-5779
couver	-5780
otonin	-5781
timore	-5782
▁Aimee	-5783
▁Beach	-5784
▁Craig	-5785
▁Denis	-5786
▁Diana	-5787
▁Diego	-5788
▁Fried	-5789
▁Jerry	-5790
▁Keith	-5791
▁Khủng	-5792
▁Kyoto	-5793
▁Thanh	-5794
▁Thuốc	-5795
▁buông	-5796
▁games	-5797
▁khuya	-5798
▁mường	-5799
▁spagh	-5800
▁Bertie	-5801
▁Graham	-5802
▁Guinea	-5803
▁Island	-5804
▁Murray	-5805
▁Oliver	-5806
▁Oregon	-5807
▁Phượng	-5808
▁Thuyết	-5809
▁Hawking	-5810
▁Katrina	-5811
▁Nairobi	-5812
▁Toronto	-5813
▁Mitchell	-5814
▁marathon	-5815
▁password	-5816
▁phthalate	-5817
▁spaghetti	-5818
▁Geographic	-5819
da	-5820
ii	-5821
rr	-5822
ều	-5823
app	-5824
atz	-5825
ays	-5826
bốn	-5827
ese	-5828
eta	-5829
ont	-5830
rie	-5831
tha	-5832
ugh	-5833
▁0,	-5834
▁2,	-5835
▁54	-5836
▁Bo	-5837
▁Bờ	-5838
▁CL	-5839
▁DP	-5840
▁Fr	-5841
▁MG	-5842
▁Mã	-5843
▁Mê	-5844
▁On	-5845
▁RG	-5846
▁sỡ	-5847
▁wh	-5848
▁đê	-5849
abad	-5850
acci	-5851
agan	-5852
ager	-5853
anic	-5854
anon	-5855
fred	-5856
iger	-5857
ites	-5858
rane	-5859
▁1,2	-5860
▁1.2	-5861
▁Bah	-5862
▁Blo	-5863
▁Cơn	-5864
▁Dor	-5865
▁Dây	-5866
▁Dấu	-5867
▁Dầu	-5868
▁FDA	-5869
▁Gay	-5870
▁Geh	-5871
▁Ger	-5872
▁Him	-5873
▁Hop	-5874
▁Jas	-5875
▁Jud	-5876
▁Lâm	-5877
▁Met	-5878
▁Mot	-5879
▁Mày	-5880
▁Nửa	-5881
▁Oxy	-5882
▁SMS	-5883
▁Sil	-5884
▁Tôn	-5885
▁bần	-5886
▁cáu	-5887
▁cõi	-5888
▁cơm	-5889
▁dẫu	-5890
▁gởi	-5891
▁lon	-5892
▁mịn	-5893
▁nhổ	-5894
▁nôi	-5895
▁nôn	-5896
▁nặn	-5897
▁sải	-5898
▁sảy	-5899
▁sấm	-5900
▁tem	-5901
▁top	-5902
▁tro	-5903
▁viê	-5904
▁vóc	-5905
▁xít	-5906
▁đẫm	-5907
▁ướp	-5908
alore	-5909
athem	-5910
eeney	-5911
etown	-5912
owitz	-5913
▁1945	-5914
▁1992	-5915
▁2020	-5916
▁6000	-5917
▁Bolt	-5918
▁Bóng	-5919
▁Chạy	-5920
▁Dave	-5921
▁Gord	-5922
▁Gwen	-5923
▁Hall	-5924
▁Kích	-5925
▁Luận	-5926
▁Miễn	-5927
▁Nich	-5928
▁Nông	-5929
▁Pier	-5930
▁Rose	-5931
▁Schw	-5932
▁Stir	-5933
▁Tiên	-5934
▁calo	-5935
▁file	-5936
▁hoạn	-5937
▁hãnh	-5938
▁kiêm	-5939
▁miệt	-5940
▁prog	-5941
▁rành	-5942
▁rạch	-5943
▁rụng	-5944
▁teen	-5945
▁thoa	-5946
▁trâu	-5947
▁trọt	-5948
▁xuẩn	-5949
▁Đứng	-5950
▁điềm	-5951
▁đấng	-5952
easure	-5953
ezuela	-5954
onacci	-5955
▁1,000	-5956
▁Brend	-5957
▁Chống	-5958
▁Dubai	-5959
▁Julie	-5960
▁Mario	-5961
▁Nhiên	-5962
▁Qaeda	-5963
▁State	-5964
▁Stock	-5965
▁Trăng	-5966
▁Tunis	-5967
▁canxi	-5968
▁chệch	-5969
▁metan	-5970
▁shock	-5971
▁Walker	-5972
▁neuron	-5973
▁nguyền	-5974
▁Himalay	-5975
▁Lebanon	-5976
▁Matthew	-5977
▁Oakland	-5978
▁Franklin	-5979
▁Treasure	-5980
▁microRNA	-5981
▁Baltimore	-5982
▁Bangalore	-5983
▁Fibonacci	-5984
▁Vancouver	-5985
▁Venezuela	-5986
▁serotonin	-5987
▁Copernicus	-5988
br	-5989
pr	-5990
sw	-5991
▁#	-5992
aks	-5993
ave	-5994
erb	-5995
ibo	-5996
ife	-5997
obs	-5998
ree	-5999
uce	-6000
usd	-6001
▁53	-6002
▁57	-6003
▁68	-6004
▁78	-6005
▁Az	-6006
▁Il	-6007
▁Ty	-6008
▁Tệ	-6009
▁Tỷ	-6010
▁gò	-6011
▁tú	-6012
▁tể	-6013
ange	-6014
ecca	-6015
echn	-6016
eech	-6017
ideo	-6018
itra	-6019
lins	-6020
mann	-6021
nett	-6022
obyl	-6023
ould	-6024
over	-6025
ream	-6026
▁1.3	-6027
▁110	-6028
▁404	-6029
▁Abu	-6030
▁Ali	-6031
▁Bán	-6032
▁CAD	-6033
▁Chế	-6034
▁Dol	-6035
▁Ess	-6036
▁Kle	-6037
▁Len	-6038
▁Leo	-6039
▁Lev	-6040
▁Mời	-6041
▁Pap	-6042
▁Sob	-6043
▁Teh	-6044
▁Xếp	-6045
▁bạt	-6046
▁bục	-6047
▁cat	-6048
▁dẫm	-6049
▁gào	-6050
▁gáy	-6051
▁hun	-6052
▁loà	-6053
▁lẩn	-6054
▁mút	-6055
▁mội	-6056
▁quỳ	-6057
▁sun	-6058
▁sút	-6059
▁you	-6060
▁Đạt	-6061
berry	-6062
field	-6063
ition	-6064
lider	-6065
oshop	-6066
▁Anth	-6067
▁Buồn	-6068
▁Cent	-6069
▁Gaza	-6070
▁Greg	-6071
▁Khái	-6072
▁Kiểm	-6073
▁Like	-6074
▁Lock	-6075
▁Palm	-6076
▁Pink	-6077
▁Rory	-6078
▁SOPA	-6079
▁Tenn	-6080
▁Thập	-6081
▁Thức	-6082
▁Tiểu	-6083
▁Yale	-6084
▁axít	-6085
▁chắt	-6086
▁duỗi	-6087
▁giòn	-6088
▁gluc	-6089
▁horm	-6090
▁nhún	-6091
▁phai	-6092
▁quật	-6093
▁rưởi	-6094
▁thoi	-6095
▁xông	-6096
enberg	-6097
▁Billy	-6098
▁Chern	-6099
▁Gando	-6100
▁Jamai	-6101
▁Khách	-6102
▁Pepsi	-6103
▁Saudi	-6104
▁ngách	-6105
osaurus	-6106
otoshop	-6107
▁Alfred	-6108
▁Fellow	-6109
▁Harlem	-6110
▁Mozart	-6111
▁Panthe	-6112
▁Potter	-6113
▁Sobule	-6114
▁Tehran	-6115
▁gallon	-6116
▁nghênh	-6117
▁nitric	-6118
▁Liberia	-6119
▁Melinda	-6120
▁Phillip	-6121
▁Sweeney	-6122
▁American	-6123
▁Stirling	-6124
▁Chernobyl	-6125
.&	-6126
SE	-6127
ct	-6128
hr	-6129
ợc	-6130
aga	-6131
aha	-6132
ars	-6133
awa	-6134
awi	-6135
bor	-6136
cia	-6137
esa	-6138
esk	-6139
ipp	-6140
ira	-6141
let	-6142
oko	-6143
oux	-6144
rir	-6145
rof	-6146
▁00	-6147
▁39	-6148
▁84	-6149
▁Ix	-6150
▁PC	-6151
▁PI	-6152
▁Rh	-6153
▁Ru	-6154
▁át	-6155
▁ảm	-6156
atem	-6157
idge	-6158
mail	-6159
oman	-6160
urch	-6161
▁186	-6162
▁189	-6163
▁360	-6164
▁Ail	-6165
▁Alb	-6166
▁Clo	-6167
▁Dai	-6168
▁Deb	-6169
▁Dow	-6170
▁Dur	-6171
▁Haz	-6172
▁Hun	-6173
▁Kay	-6174
▁Lim	-6175
▁Lợi	-6176
▁Mak	-6177
▁Med	-6178
▁Màn	-6179
▁Nov	-6180
▁Ooh	-6181
▁Ott	-6182
▁Reb	-6183
▁Sug	-6184
▁Thể	-6185
▁Vui	-6186
▁bíp	-6187
▁dốt	-6188
▁gra	-6189
▁gân	-6190
▁hời	-6191
▁kén	-6192
▁lẫm	-6193
▁mau	-6194
▁nhì	-6195
▁nọc	-6196
▁rán	-6197
▁son	-6198
▁ter	-6199
▁vãn	-6200
▁xén	-6201
▁đũa	-6202
ambia	-6203
extin	-6204
insky	-6205
olate	-6206
shire	-6207
▁1989	-6208
▁Chọn	-6209
▁Chức	-6210
▁East	-6211
▁Evan	-6212
▁Hiến	-6213
▁Hong	-6214
▁Irag	-6215
▁MoMA	-6216
▁Neil	-6217
▁Nguy	-6218
▁Nico	-6219
▁Sang	-6220
▁Sara	-6221
▁Shar	-6222
▁Soph	-6223
▁Tháp	-6224
▁Tora	-6225
▁Wiki	-6226
▁Wood	-6227
▁chen	-6228
▁foot	-6229
▁lanh	-6230
▁luẩn	-6231
▁ngửa	-6232
▁nhảm	-6233
▁sưng	-6234
▁thục	-6235
▁uyên	-6236
▁văng	-6237
▁vụng	-6238
▁Đánh	-6239
Speech	-6240
astian	-6241
nivers	-6242
▁2.000	-6243
▁Bruce	-6244
▁Doanh	-6245
▁Dolby	-6246
▁Essex	-6247
▁Gehry	-6248
▁Marsh	-6249
▁Meyer	-6250
▁Moses	-6251
▁Nhiếp	-6252
▁Oprah	-6253
▁Oscar	-6254
▁Santa	-6255
▁Stone	-6256
▁Trọng	-6257
▁White	-6258
▁biếng	-6259
▁chửng	-6260
atemala	-6261
sterdam	-6262
▁Barack	-6263
▁Bonnie	-6264
▁Justin	-6265
▁Latinh	-6266
▁Norman	-6267
▁Stefan	-6268
▁Tahrir	-6269
▁chuồng	-6270
▁Caltech	-6271
▁Langley	-6272
▁Tenness	-6273
▁Williams	-6274
▁progeria	-6275
▁Guatemala	-6276
▁pheromone	-6277
▁FreeSpeech	-6278
-4	-6279
IC	-6280
ax	-6281
ho	-6282
zz	-6283
ệp	-6284
ỏm	-6285
201	-6286
MED	-6287
aba	-6288
aki	-6289
asa	-6290
ats	-6291
cas	-6292
hen	-6293
its	-6294
lot	-6295
mud	-6296
obo	-6297
ois	-6298
oke	-6299
oma	-6300
ote	-6301
rig	-6302
syl	-6303
yon	-6304
ẵng	-6305
▁67	-6306
▁AG	-6307
▁Dạ	-6308
▁Eg	-6309
▁HS	-6310
▁MA	-6311
▁Ni	-6312
▁Py	-6313
▁SS	-6314
▁Vẻ	-6315
▁Vợ	-6316
▁aw	-6317
▁is	-6318
▁rơ	-6319
▁rộ	-6320
▁yo	-6321
▁út	-6322
Talk	-6323
artz	-6324
elle	-6325
etts	-6326
evel	-6327
ingo	-6328
itan	-6329
moud	-6330
rich	-6331
tion	-6332
untu	-6333
ynth	-6334
▁1-2	-6335
▁App	-6336
▁Ark	-6337
▁Aye	-6338
▁Coo	-6339
▁ESG	-6340
▁Fed	-6341
▁Fey	-6342
▁Giữ	-6343
▁Gri	-6344
▁Hỏi	-6345
▁INC	-6346
▁Kep	-6347
▁Kir	-6348
▁Kos	-6349
▁Lựa	-6350
▁Max	-6351
▁Men	-6352
▁Mik	-6353
▁Mir	-6354
▁NBA	-6355
▁Pic	-6356
▁Por	-6357
▁Sis	-6358
▁Sri	-6359
▁Tar	-6360
▁Tod	-6361
▁bịa	-6362
▁cật	-6363
▁cội	-6364
▁daf	-6365
▁doo	-6366
▁dặn	-6367
▁giở	-6368
▁gặt	-6369
▁hót	-6370
▁hằn	-6371
▁kẽm	-6372
▁lầu	-6373
▁ngó	-6374
▁ngơ	-6375
▁noi	-6376
▁náu	-6377
▁pen	-6378
▁rụi	-6379
▁sên	-6380
▁sảo	-6381
▁sục	-6382
▁sụn	-6383
▁thê	-6384
▁túp	-6385
▁tấu	-6386
▁Độc	-6387
▁đấm	-6388
achus	-6389
awatt	-6390
eline	-6391
inder	-6392
leans	-6393
ookie	-6394
umara	-6395
vania	-6396
▁1986	-6397
▁2013	-6398
▁Band	-6399
▁Bono	-6400
▁Carr	-6401
▁Chen	-6402
▁Chụp	-6403
▁Coch	-6404
▁Cánh	-6405
▁Dừng	-6406
▁Econ	-6407
▁Hạnh	-6408
▁Irắc	-6409
▁Jake	-6410
▁Joey	-6411
▁Karl	-6412
▁Kate	-6413
▁Kent	-6414
▁Khám	-6415
▁Loan	-6416
▁PIPA	-6417
▁Post	-6418
▁Serg	-6419
▁Viễn	-6420
▁comp	-6421
▁copy	-6422
▁hoán	-6423
▁hoóc	-6424
▁khoả	-6425
▁ngấm	-6426
▁ngất	-6427
▁nhoi	-6428
▁nhút	-6429
▁nung	-6430
▁phồn	-6431
▁tuôn	-6432
▁viêc	-6433
▁váng	-6434
▁watt	-6435
▁10000	-6436
▁3,000	-6437
▁5,000	-6438
▁Ailen	-6439
▁Ariel	-6440
▁Austr	-6441
▁Bloom	-6442
▁Brand	-6443
▁Chồng	-6444
▁Harry	-6445
▁Intel	-6446
▁Jacqu	-6447
▁Maria	-6448
▁Moham	-6449
▁Phiên	-6450
▁Quyển	-6451
▁Solly	-6452
▁Stand	-6453
▁Stein	-6454
▁Tarah	-6455
▁Thula	-6456
▁Triển	-6457
▁Weibo	-6458
▁cello	-6459
▁chiêu	-6460
▁chững	-6461
▁khoát	-6462
▁loang	-6463
▁loãng	-6464
▁ngừơi	-6465
▁thiển	-6466
▁Archie	-6467
▁Carter	-6468
▁Chuyển	-6469
▁Cooper	-6470
▁Dennis	-6471
▁Kepler	-6472
▁Kibera	-6473
▁Miller	-6474
▁TEDMED	-6475
▁khoanh	-6476
▁nhoáng	-6477
sylvania	-6478
▁Anthony	-6479
▁Gilbert	-6480
▁Goering	-6481
▁Ireland	-6482
▁Mahmoud	-6483
▁Orleans	-6484
▁TEDTalk	-6485
▁blogger	-6486
▁Arkansas	-6487
▁Nicholas	-6488
▁Palextin	-6489
▁Pantheon	-6490
▁TEDWomen	-6491
▁Tennessee	-6492
▁Tarahumara	-6493
▁Pennsylvania	-6494
,8	-6495
-6	-6496
EF	-6497
EG	-6498
Hz	-6499
OL	-6500
OS	-6501
cm	-6502
ki	-6503
yc	-6504
ém	-6505
êt	-6506
ôc	-6507
đi	-6508
▁ĩ	-6509
▁ờ	-6510
CLA	-6511
agu	-6512
bao	-6513
bin	-6514
box	-6515
cam	-6516
eek	-6517
ega	-6518
egg	-6519
els	-6520
ets	-6521
eus	-6522
evo	-6523
fli	-6524
gen	-6525
kar	-6526
oga	-6527
ogy	-6528
ria	-6529
shh	-6530
ẩng	-6531
▁76	-6532
▁94	-6533
▁BP	-6534
▁CH	-6535
▁DD	-6536
▁Ge	-6537
▁Gì	-6538
▁Hồ	-6539
▁IK	-6540
▁Nổ	-6541
▁Ol	-6542
▁Sỹ	-6543
▁Xa	-6544
▁ar	-6545
▁eB	-6546
▁pa	-6547
▁rợ	-6548
▁Đề	-6549
▁Đủ	-6550
▁đả	-6551
amas	-6552
ambi	-6553
colm	-6554
dyss	-6555
eber	-6556
elli	-6557
erat	-6558
flix	-6559
holm	-6560
icut	-6561
iley	-6562
ilot	-6563
itha	-6564
moor	-6565
owan	-6566
pson	-6567
tail	-6568
tein	-6569
trol	-6570
zero	-6571
▁1.6	-6572
▁Bow	-6573
▁CIA	-6574
▁Chứ	-6575
▁Com	-6576
▁Dem	-6577
▁Dun	-6578
▁Dần	-6579
▁Fai	-6580
▁Git	-6581
▁Gol	-6582
▁Gul	-6583
▁Hit	-6584
▁Hmm	-6585
▁Hot	-6586
▁Lab	-6587
▁Les	-6588
▁Lyn	-6589
▁Mao	-6590
▁Nar	-6591
▁Nat	-6592
▁Nik	-6593
▁Sci	-6594
▁Sẵn	-6595
▁Tso	-6596
▁Tàu	-6597
▁Tái	-6598
▁Tốc	-6599
▁Tội	-6600
▁Tụi	-6601
▁Vây	-6602
▁Win	-6603
▁Woo	-6604
▁Yếu	-6605
▁cợt	-6606
▁dép	-6607
▁est	-6608
▁hop	-6609
▁lốc	-6610
▁mem	-6611
▁neo	-6612
▁núm	-6613
▁nại	-6614
▁nạt	-6615
▁nấp	-6616
▁râm	-6617
▁rẫy	-6618
▁rắm	-6619
▁rệp	-6620
▁sủa	-6621
▁vấp	-6622
▁vệt	-6623
▁vịn	-6624
▁xao	-6625
▁Đấu	-6626
▁đùi	-6627
Point	-6628
adore	-6629
aster	-6630
astle	-6631
atica	-6632
leton	-6633
lotte	-6634
những	-6635
yland	-6636
▁1500	-6637
▁1800	-6638
▁1985	-6639
▁1988	-6640
▁Andy	-6641
▁Barb	-6642
▁Brad	-6643
▁Bảng	-6644
▁Chìa	-6645
▁Chín	-6646
▁Fred	-6647
▁Hamp	-6648
▁Inst	-6649
▁Kiva	-6650
▁Kông	-6651
▁Mang	-6652
▁Nauy	-6653
▁Noah	-6654
▁Noel	-6655
▁Part	-6656
▁Phim	-6657
▁Shah	-6658
▁Viên	-6659
▁Vàng	-6660
▁Vượt	-6661
▁Wang	-6662
▁Wind	-6663
▁choc	-6664
▁chậu	-6665
▁chộp	-6666
▁hỉnh	-6667
▁khoé	-6668
▁luồn	-6669
▁lình	-6670
▁lóng	-6671
▁măng	-6672
▁ngời	-6673
▁nách	-6674
▁sành	-6675
▁thét	-6676
▁thầu	-6677
▁tour	-6678
▁Đang	-6679
▁đong	-6680
oyager	-6681
▁Agnes	-6682
▁Ahmed	-6683
▁Bayes	-6684
▁Child	-6685
▁Found	-6686
▁Freud	-6687
▁Helen	-6688
▁Jason	-6689
▁Jimmy	-6690
▁Johan	-6691
▁Johns	-6692
▁Lanka	-6693
▁Libya	-6694
▁Linux	-6695
▁Nhanh	-6696
▁Nhiệt	-6697
▁Odyss	-6698
▁Phóng	-6699
▁Sioux	-6700
▁Tuyên	-6701
▁Video	-6702
▁Young	-6703
▁gamma	-6704
▁nghiã	-6705
▁water	-6706
ecticut	-6707
▁20,000	-6708
▁Aurora	-6709
▁Browne	-6710
▁Donald	-6711
▁Mathem	-6712
▁Rezero	-6713
▁thuyên	-6714
▁200,000	-6715
▁Hopkins	-6716
▁Jamaica	-6717
▁Malcolm	-6718
▁Scratch	-6719
▁Stanley	-6720
▁glucose	-6721
▁milimet	-6722
achusetts	-6723
▁Cochrane	-6724
▁Maryland	-6725
▁Palestin	-6726
▁Amsterdam	-6727
▁Broadmoor	-6728
▁Charlotte	-6729
▁Sebastian	-6730
▁chocolate	-6731
▁PowerPoint	-6732
▁Connecticut	-6733
▁Mathematica	-6734
.2	-6735
.7	-6736
ET	-6737
Le	-6738
Sh	-6739
lô	-6740
ps	-6741
rk	-6742
su	-6743
uh	-6744
wa	-6745
ỡi	-6746
SDA	-6747
aby	-6748
adi	-6749
ady	-6750
ano	-6751
ape	-6752
apm	-6753
bes	-6754
che	-6755
cop	-6756
dit	-6757
fel	-6758
iag	-6759
lav	-6760
lev	-6761
lov	-6762
mét	-6763
och	-6764
oni	-6765
oro	-6766
ovo	-6767
rit	-6768
vin	-6769
yme	-6770
▁56	-6771
▁89	-6772
▁91	-6773
▁AT	-6774
▁HP	-6775
▁Id	-6776
▁JK	-6777
▁JR	-6778
▁KB	-6779
▁Ly	-6780
▁Lễ	-6781
▁MW	-6782
▁Oz	-6783
▁SB	-6784
▁Wy	-6785
▁bl	-6786
▁bô	-6787
▁dế	-6788
▁lư	-6789
▁lở	-6790
▁nể	-6791
▁đễ	-6792
alie	-6793
aman	-6794
anna	-6795
aren	-6796
arin	-6797
asso	-6798
atma	-6799
etas	-6800
hane	-6801
iflu	-6802
itic	-6803
itts	-6804
mond	-6805
ough	-6806
phua	-6807
riel	-6808
wait	-6809
west	-6810
xter	-6811
yota	-6812
▁1,3	-6813
▁188	-6814
▁2-3	-6815
▁3,5	-6816
▁Arm	-6817
▁Cro	-6818
▁Cựu	-6819
▁Hut	-6820
▁Imp	-6821
▁Kab	-6822
▁Kan	-6823
▁Kid	-6824
▁Liz	-6825
▁MBA	-6826
▁MBI	-6827
▁Mid	-6828
▁Mob	-6829
▁Món	-6830
▁Nao	-6831
▁Nhu	-6832
▁Nạn	-6833
▁Pia	-6834
▁Pur	-6835
▁Row	-6836
▁Rub	-6837
▁Sel	-6838
▁Spr	-6839
▁Sur	-6840
▁Vai	-6841
▁Vel	-6842
▁Viv	-6843
▁Wis	-6844
▁coc	-6845
▁cặn	-6846
▁cỏi	-6847
▁dem	-6848
▁dạt	-6849
▁dằn	-6850
▁hóm	-6851
▁mào	-6852
▁mồm	-6853
▁ngà	-6854
▁ngõ	-6855
▁par	-6856
▁qúi	-6857
▁rầm	-6858
▁rầu	-6859
▁sul	-6860
▁trơ	-6861
▁von	-6862
▁vạt	-6863
▁Đảo	-6864
▁Đốc	-6865
▁đần	-6866
▁ươm	-6867
Qaeda	-6868
ascal	-6869
atông	-6870
aysia	-6871
ipcar	-6872
organ	-6873
ortis	-6874
rogen	-6875
uchia	-6876
▁1940	-6877
▁1991	-6878
▁1993	-6879
▁7000	-6880
▁Anne	-6881
▁Bart	-6882
▁Bios	-6883
▁Buff	-6884
▁Diet	-6885
▁Dạng	-6886
▁Elec	-6887
▁Evel	-6888
▁Gapm	-6889
▁Giúp	-6890
▁Hind	-6891
▁Homo	-6892
▁Huck	-6893
▁IKEA	-6894
▁Juan	-6895
▁Khal	-6896
▁Luke	-6897
▁Mard	-6898
▁Mars	-6899
▁Nhịp	-6900
▁Pran	-6901
▁Sean	-6902
▁Shaw	-6903
▁Song	-6904
▁Sông	-6905
▁Tric	-6906
▁Vườn	-6907
▁Wire	-6908
▁chèn	-6909
▁chèo	-6910
▁chót	-6911
▁chập	-6912
▁cock	-6913
▁cồng	-6914
▁euro	-6915
▁ngòi	-6916
▁ngóc	-6917
▁ngợm	-6918
▁vượn	-6919
▁yoga	-6920
▁đước	-6921
everly	-6922
manuel	-6923
▁Danny	-6924
▁Elvis	-6925
▁Grant	-6926
▁Guard	-6927
▁INCRA	-6928
▁Jamie	-6929
▁Karen	-6930
▁Osama	-6931
▁Papua	-6932
▁Quyết	-6933
▁Radio	-6934
▁Rives	-6935
▁Scoop	-6936
▁Trình	-6937
▁chánh	-6938
▁giông	-6939
▁khánh	-6940
▁loanh	-6941
▁ngẩng	-6942
▁phiệt	-6943
▁quặng	-6944
▁ruộng	-6945
▁suyễn	-6946
eratops	-6947
▁40,000	-6948
▁40.000	-6949
▁Baxter	-6950
▁Bonnet	-6951
▁Brenda	-6952
▁Chuyên	-6953
▁Econom	-6954
▁Gordon	-6955
▁Harris	-6956
▁Ixaren	-6957
▁Khoảnh	-6958
▁Libăng	-6959
▁Monter	-6960
▁Pascal	-6961
▁Rivers	-6962
▁Wilson	-6963
▁proton	-6964
▁trướng	-6965
▁Bahamas	-6966
▁Beverly	-6967
▁Central	-6968
▁Freeman	-6969
▁Heather	-6970
▁Indiana	-6971
▁Mahatma	-6972
▁Netflix	-6973
▁Rockett	-6974
▁Russell	-6975
▁TEDster	-6976
▁Tamiflu	-6977
▁Voyager	-6978
▁Walmart	-6979
▁Malaysia	-6980
▁Odysseus	-6981
▁Robinson	-6982
▁catadore	-6983
▁cocktail	-6984
▁maratông	-6985
▁Australia	-6986
▁Biosphere	-6987
▁Gapminder	-6988
▁Stockholm	-6989
▁Foundation	-6990
▁Triceratops	-6991
,2	-6992
..	-6993
.6	-6994
IP	-6995
bi	-6996
lê	-6997
ẻm	-6998
ỡn	-6999
aid	-7000
anc	-7001
aro	-7002
bus	-7003
cer	-7004
fus	-7005
iba	-7006
kim	-7007
met	-7008
oon	-7009
oss	-7010
uch	-7011
val	-7012
vet	-7013
yph	-7014
▁66	-7015
▁AC	-7016
▁Cú	-7017
▁Eb	-7018
▁Fi	-7019
▁Hỗ	-7020
▁LA	-7021
▁MP	-7022
▁Ow	-7023
▁PA	-7024
▁Po	-7025
▁TG	-7026
▁Tớ	-7027
▁Tờ	-7028
▁ad	-7029
▁bở	-7030
▁dí	-7031
▁dó	-7032
▁ep	-7033
▁gt	-7034
▁gỉ	-7035
▁hũ	-7036
▁ni	-7037
▁nè	-7038
▁nỉ	-7039
▁oà	-7040
▁sò	-7041
▁đă	-7042
ader	-7043
agas	-7044
anne	-7045
arak	-7046
arty	-7047
atan	-7048
côla	-7049
ende	-7050
etty	-7051
ides	-7052
imét	-7053
isco	-7054
load	-7055
oney	-7056
read	-7057
rett	-7058
vent	-7059
▁1.4	-7060
▁101	-7061
▁401	-7062
▁750	-7063
▁ARN	-7064
▁Alg	-7065
▁Alt	-7066
▁Ast	-7067
▁BBC	-7068
▁Bấy	-7069
▁Chả	-7070
▁Chỗ	-7071
▁Des	-7072
▁EEG	-7073
▁Gấp	-7074
▁Gọi	-7075
▁Heh	-7076
▁Hey	-7077
▁Hob	-7078
▁Hon	-7079
▁Hum	-7080
▁IMF	-7081
▁Kap	-7082
▁Kas	-7083
▁Las	-7084
▁Mub	-7085
▁Mẫu	-7086
▁Nin	-7087
▁Pac	-7088
▁Rec	-7089
▁Rem	-7090
▁Tân	-7091
▁Vừa	-7092
▁bur	-7093
▁bừa	-7094
▁chk	-7095
▁geo	-7096
▁giỏ	-7097
▁goá	-7098
▁gãi	-7099
▁lab	-7100
▁lõm	-7101
▁lộc	-7102
▁năn	-7103
▁rót	-7104
▁răn	-7105
▁rơm	-7106
▁rữa	-7107
▁sal	-7108
▁sen	-7109
▁túm	-7110
▁tợn	-7111
▁vớt	-7112
▁xua	-7113
ellon	-7114
evelt	-7115
ffiti	-7116
lashy	-7117
lickr	-7118
stone	-7119
tonia	-7120
umann	-7121
▁1918	-7122
▁1920	-7123
▁1957	-7124
▁1965	-7125
▁1973	-7126
▁1979	-7127
▁1983	-7128
▁2015	-7129
▁2500	-7130
▁Burn	-7131
▁Cass	-7132
▁Chim	-7133
▁Gian	-7134
▁Giảm	-7135
▁Java	-7136
▁Judy	-7137
▁Kend	-7138
▁Kurd	-7139
▁Lạnh	-7140
▁Mông	-7141
▁Nhảy	-7142
▁Ohio	-7143
▁Robb	-7144
▁Roos	-7145
▁Rừng	-7146
▁Trin	-7147
▁Troy	-7148
▁Trục	-7149
▁Tàng	-7150
▁Wide	-7151
▁chat	-7152
▁diox	-7153
▁diêm	-7154
▁ganh	-7155
▁kềnh	-7156
▁nhan	-7157
▁nhen	-7158
▁nhím	-7159
▁nhót	-7160
▁nhối	-7161
▁nành	-7162
▁quây	-7163
▁rain	-7164
▁rùng	-7165
▁thây	-7166
▁thềm	-7167
▁vãnh	-7168
▁vồng	-7169
linois	-7170
oshima	-7171
strong	-7172
ynthia	-7173
▁4.000	-7174
▁5.000	-7175
▁Broth	-7176
▁Casey	-7177
▁Chủng	-7178
▁Clark	-7179
▁Color	-7180
▁DARPA	-7181
▁Galil	-7182
▁Gayla	-7183
▁Geoff	-7184
▁Hướng	-7185
▁Linus	-7186
▁Molly	-7187
▁Naomi	-7188
▁Pilot	-7189
▁Pitts	-7190
▁Riley	-7191
▁Rufus	-7192
▁Thằng	-7193
▁Tweet	-7194
▁Vinci	-7195
▁Wales	-7196
▁Water	-7197
▁amino	-7198
▁chang	-7199
▁chuồn	-7200
▁chưng	-7201
▁nguời	-7202
▁nhung	-7203
▁nhuần	-7204
▁phước	-7205
▁token	-7206
▁trũng	-7207
anistan	-7208
centure	-7209
ocrates	-7210
ortisol	-7211
▁30,000	-7212
▁30.000	-7213
▁Achill	-7214
▁Bilbao	-7215
▁Critic	-7216
▁Flickr	-7217
▁Hitler	-7218
▁Hunter	-7219
▁Kosovo	-7220
▁Mellon	-7221
▁Michel	-7222
▁Sergey	-7223
▁Sisyph	-7224
▁Studio	-7225
▁Toyota	-7226
▁Viking	-7227
▁enzyme	-7228
▁google	-7229
▁Cynthia	-7230
▁Denisov	-7231
▁Gabriel	-7232
▁Georgia	-7233
▁Mubarak	-7234
▁Philipp	-7235
▁Picasso	-7236
▁Tunisia	-7237
▁prôtein	-7238
▁Friedman	-7239
▁Guardian	-7240
▁Illinois	-7241
▁Marshall	-7242
▁Monterey	-7243
▁cortisol	-7244
▁estrogen	-7245
▁graffiti	-7246
▁Accenture	-7247
▁Campuchia	-7248
▁Hampshire	-7249
▁Hiroshima	-7250
▁Photoshop	-7251
▁Pittsburgh	-7252
▁Massachusetts	-7253
,4	-7254
,9	-7255
-5	-7256
.3	-7257
ER	-7258
ES	-7259
HO	-7260
RN	-7261
iy	-7262
---	-7263
any	-7264
bab	-7265
eed	-7266
eka	-7267
erk	-7268
ery	-7269
ffe	-7270
ibb	-7271
ito	-7272
lic	-7273
mmm	-7274
oac	-7275
oul	-7276
rat	-7277
rập	-7278
uga	-7279
umi	-7280
xon	-7281
yce	-7282
yle	-7283
ổng	-7284
▁59	-7285
▁71	-7286
▁73	-7287
▁AI	-7288
▁Aw	-7289
▁HC	-7290
▁LG	-7291
▁Lí	-7292
▁Lũ	-7293
▁MM	-7294
▁NG	-7295
▁NI	-7296
▁Pe	-7297
▁TD	-7298
▁Tạ	-7299
▁au	-7300
▁lẹ	-7301
▁mm	-7302
▁pl	-7303
▁té	-7304
▁uý	-7305
▁vơ	-7306
▁vể	-7307
▁úp	-7308
▁ắp	-7309
▁ừm	-7310
Prin	-7311
abin	-7312
acre	-7313
adus	-7314
ames	-7315
anan	-7316
burn	-7317
egal	-7318
esar	-7319
gram	-7320
idro	-7321
incl	-7322
ivic	-7323
ment	-7324
nick	-7325
onia	-7326
onie	-7327
ords	-7328
orth	-7329
othy	-7330
ouri	-7331
quez	-7332
raft	-7333
rass	-7334
reat	-7335
rice	-7336
ryst	-7337
tern	-7338
ucky	-7339
unch	-7340
unes	-7341
uten	-7342
uyễn	-7343
wick	-7344
yrne	-7345
zone	-7346
▁0.5	-7347
▁1.8	-7348
▁202	-7349
▁365	-7350
▁ABC	-7351
▁Ath	-7352
▁Bin	-7353
▁Bit	-7354
▁Blu	-7355
▁Bre	-7356
▁Bầu	-7357
▁Bữa	-7358
▁Cod	-7359
▁Cos	-7360
▁Cấp	-7361
▁Gió	-7362
▁Hem	-7363
▁Hoạ	-7364
▁Hud	-7365
▁Hơi	-7366
▁Key	-7367
▁Khơ	-7368
▁Kia	-7369
▁LOL	-7370
▁Lur	-7371
▁Lối	-7372
▁Lớp	-7373
▁Mây	-7374
▁Mãi	-7375
▁Nev	-7376
▁Núi	-7377
▁Ola	-7378
▁Pav	-7379
▁Pho	-7380
▁Pin	-7381
▁Pre	-7382
▁Rep	-7383
▁Reu	-7384
▁Rốt	-7385
▁Sag	-7386
▁Sar	-7387
▁Suz	-7388
▁Thi	-7389
▁Vis	-7390
▁bùa	-7391
▁bùm	-7392
▁bổn	-7393
▁chừ	-7394
▁dặt	-7395
▁for	-7396
▁gợn	-7397
▁héo	-7398
▁hòm	-7399
▁hạc	-7400
▁hốt	-7401
▁lồi	-7402
▁mix	-7403
▁ngỡ	-7404
▁nều	-7405
▁phỉ	-7406
▁rao	-7407
▁rèm	-7408
▁rên	-7409
▁rợn	-7410
▁sầu	-7411
▁sồi	-7412
▁ten	-7413
▁trờ	-7414
▁usd	-7415
▁vụt	-7416
▁wow	-7417
▁yến	-7418
▁đên	-7419
efoot	-7420
esome	-7421
icill	-7422
ilton	-7423
▁1858	-7424
▁1949	-7425
▁1962	-7426
▁1982	-7427
▁8000	-7428
▁Bach	-7429
▁Balk	-7430
▁Bong	-7431
▁CERN	-7432
▁Cape	-7433
▁Chin	-7434
▁Chơi	-7435
▁Clev	-7436
▁Comp	-7437
▁Corn	-7438
▁Diam	-7439
▁Duol	-7440
▁Euro	-7441
▁Gard	-7442
▁Gene	-7443
▁Glad	-7444
▁Head	-7445
▁Hunt	-7446
▁Khắp	-7447
▁Limb	-7448
▁Lắng	-7449
▁Ngồi	-7450
▁Pach	-7451
▁Phép	-7452
▁Phẫu	-7453
▁Pyth	-7454
▁Show	-7455
▁Snow	-7456
▁Thoả	-7457
▁Tiện	-7458
▁Trải	-7459
▁beat	-7460
▁biêt	-7461
▁chao	-7462
▁chém	-7463
▁chần	-7464
▁chừa	-7465
▁demo	-7466
▁eBay	-7467
▁giời	-7468
▁gàng	-7469
▁khay	-7470
▁khắt	-7471
▁khứu	-7472
▁laze	-7473
▁micr	-7474
▁mách	-7475
▁mùng	-7476
▁mắng	-7477
▁neut	-7478
▁ngạt	-7479
▁ngầu	-7480
▁nhàn	-7481
▁nháp	-7482
▁nhõm	-7483
▁nhúm	-7484
▁nhầy	-7485
▁nitơ	-7486
▁okay	-7487
▁sofa	-7488
▁sững	-7489
▁thòi	-7490
▁toái	-7491
▁trăn	-7492
▁tuột	-7493
▁xiết	-7494
▁đuợc	-7495
▁đùng	-7496
Prince	-7497
ingham	-7498
kraine	-7499
muddin	-7500
nesota	-7501
stream	-7502
▁1,500	-7503
▁4,000	-7504
▁Actor	-7505
▁Cohen	-7506
▁Davis	-7507
▁Ellen	-7508
▁Encel	-7509
▁Exxon	-7510
▁Faiza	-7511
▁House	-7512
▁Hyder	-7513
▁Jacob	-7514
▁Jihad	-7515
▁Kabul	-7516
▁Khuôn	-7517
▁Klein	-7518
▁Media	-7519
▁Paula	-7520
▁Perry	-7521
▁Prize	-7522
▁Roman	-7523
▁Serra	-7524
▁Sheph	-7525
▁Sincl	-7526
▁Trách	-7527
▁Tuyết	-7528
▁Xuyên	-7529
▁chuộc	-7530
▁chũng	-7531
▁civic	-7532
▁huyện	-7533
▁nhứng	-7534
▁oxide	-7535
▁phách	-7536
▁trans	-7537
▁tròng	-7538
ambique	-7539
icillin	-7540
▁12.000	-7541
▁60,000	-7542
▁Amanda	-7543
▁Canyon	-7544
▁Church	-7545
▁Clonie	-7546
▁Evelyn	-7547
▁Hamlet	-7548
▁Jeremy	-7549
▁Malawi	-7550
▁Reddit	-7551
▁School	-7552
▁Thưởng	-7553
▁Venter	-7554
▁bonobo	-7555
▁helium	-7556
▁nghĩnh	-7557
▁ngượng	-7558
▁photon	-7559
▁Bandura	-7560
▁Barbara	-7561
▁England	-7562
▁Galileo	-7563
▁Jacques	-7564
▁Michoac	-7565
▁Ottoman	-7566
▁Senegal	-7567
▁Terence	-7568
▁complex	-7569
▁Barefoot	-7570
▁Colorado	-7571
▁Emmanuel	-7572
▁Olympics	-7573
▁Sinclair	-7574
▁hormones	-7575
▁Christian	-7576
▁Enceladus	-7577
▁Minnesota	-7578
▁Riverside	-7579
▁Roosevelt	-7580
▁Afganistan	-7581
▁Mozambique	-7582
▁Transition	-7583
▁penicillin	-7584
,3	-7585
.8	-7586
98	-7587
DR	-7588
LV	-7589
ML	-7590
OO	-7591
OV	-7592
TO	-7593
bê	-7594
dt	-7595
gg	-7596
gs	-7597
éc	-7598
ĩu	-7599
▁í	-7600
ARS	-7601
MRI	-7602
abi	-7603
afi	-7604
ams	-7605
bar	-7606
bul	-7607
dad	-7608
dan	-7609
dor	-7610
eli	-7611
ema	-7612
fer	-7613
fia	-7614
fri	-7615
gie	-7616
hop	-7617
imi	-7618
ios	-7619
ise	-7620
iêc	-7621
kin	-7622
lam	-7623
lau	-7624
nic	-7625
ogh	-7626
oit	-7627
osp	-7628
rag	-7629
ras	-7630
rea	-7631
ret	-7632
rez	-7633
rik	-7634
sen	-7635
uke	-7636
uza	-7637
õng	-7638
▁05	-7639
▁62	-7640
▁63	-7641
▁83	-7642
▁88	-7643
▁Ay	-7644
▁BK	-7645
▁Bỉ	-7646
▁DC	-7647
▁GV	-7648
▁Gã	-7649
▁Kĩ	-7650
▁Lẽ	-7651
▁SI	-7652
▁Sợ	-7653
▁Tù	-7654
▁as	-7655
▁cl	-7656
▁dơ	-7657
▁ed	-7658
▁eo	-7659
▁ft	-7660
▁gù	-7661
▁hê	-7662
▁lự	-7663
▁my	-7664
▁mó	-7665
▁nu	-7666
▁vò	-7667
▁đờ	-7668
▁ạt	-7669
aina	-7670
aire	-7671
alog	-7672
anor	-7673
athy	-7674
atin	-7675
azar	-7676
cola	-7677
corn	-7678
endo	-7679
enix	-7680
gill	-7681
leep	-7682
lock	-7683
more	-7684
olph	-7685
omon	-7686
opin	-7687
rene	-7688
roid	-7689
rove	-7690
shmi	-7691
sson	-7692
uana	-7693
urga	-7694
yson	-7695
▁0,0	-7696
▁0.1	-7697
▁1.7	-7698
▁182	-7699
▁2.3	-7700
▁3.5	-7701
▁650	-7702
▁Aug	-7703
▁Aut	-7704
▁Bac	-7705
▁Bul	-7706
▁CDC	-7707
▁Cải	-7708
▁Cửa	-7709
▁Dep	-7710
▁HLV	-7711
▁Hậu	-7712
▁Hết	-7713
▁Kob	-7714
▁LHC	-7715
▁Lem	-7716
▁Lov	-7717
▁NIH	-7718
▁One	-7719
▁Pao	-7720
▁Phổ	-7721
▁Quỷ	-7722
▁RNA	-7723
▁Rap	-7724
▁Saf	-7725
▁Sir	-7726
▁Sum	-7727
▁Sốt	-7728
▁Tra	-7729
▁Von	-7730
▁Vẫy	-7731
▁Wol	-7732
▁Xác	-7733
▁are	-7734
▁blu	-7735
▁cou	-7736
▁dĩa	-7737
▁dừa	-7738
▁gẫu	-7739
▁hot	-7740
▁hùm	-7741
▁hột	-7742
▁lim	-7743
▁lóc	-7744
▁lún	-7745
▁lỏi	-7746
▁lốp	-7747
▁lụi	-7748
▁meg	-7749
▁mod	-7750
▁nga	-7751
▁ngỏ	-7752
▁nhả	-7753
▁nẹp	-7754
▁phà	-7755
▁quĩ	-7756
▁rầy	-7757
▁sex	-7758
▁sệt	-7759
▁sọc	-7760
▁thớ	-7761
▁tằm	-7762
▁uất	-7763
▁vói	-7764
▁vẹt	-7765
▁vợt	-7766
▁woo	-7767
▁Đẹp	-7768
▁Đọc	-7769
▁Đổi	-7770
▁đái	-7771
▁ưng	-7772
antha	-7773
chúng	-7774
erkat	-7775
icsek	-7776
iffel	-7777
inger	-7778
insey	-7779
istor	-7780
nders	-7781
người	-7782
ology	-7783
onsin	-7784
otton	-7785
press	-7786
uston	-7787
ydney	-7788
zmann	-7789
▁1200	-7790
▁1948	-7791
▁1968	-7792
▁1987	-7793
▁2014	-7794
▁99.9	-7795
▁Anna	-7796
▁Aviv	-7797
▁Bagh	-7798
▁Ball	-7799
▁Bank	-7800
▁Beth	-7801
▁Bion	-7802
▁Bond	-7803
▁Brun	-7804
▁Burg	-7805
▁Bỗng	-7806
▁CPhi	-7807
▁Dian	-7808
▁Erik	-7809
▁Feyn	-7810
▁Food	-7811
▁Gall	-7812
▁Giff	-7813
▁Good	-7814
▁Hack	-7815
▁Hiểu	-7816
▁Hoff	-7817
▁Home	-7818
▁Huss	-7819
▁Hằng	-7820
▁Isab	-7821
▁Jans	-7822
▁Kant	-7823
▁Knee	-7824
▁Kris	-7825
▁Lake	-7826
▁Lisa	-7827
▁Mech	-7828
▁Nano	-7829
▁Ngọn	-7830
▁Pear	-7831
▁Phúc	-7832
▁Play	-7833
▁Roma	-7834
▁Saul	-7835
▁Sony	-7836
▁Tide	-7837
▁Toby	-7838
▁Trân	-7839
▁Trại	-7840
▁Trạm	-7841
▁Trận	-7842
▁Tulu	-7843
▁Whoa	-7844
▁beep	-7845
▁blah	-7846
▁chĩa	-7847
▁chồi	-7848
▁hiền	-7849
▁hiều	-7850
▁hooc	-7851
▁khét	-7852
▁lảng	-7853
▁máng	-7854
▁mòng	-7855
▁nhẹn	-7856
▁niêm	-7857
▁quot	-7858
▁rang	-7859
▁siết	-7860
▁thẩn	-7861
▁thụt	-7862
▁trau	-7863
▁trặc	-7864
▁trụi	-7865
▁uyển	-7866
▁đãng	-7867
castle	-7868
echnya	-7869
engine	-7870
ischer	-7871
owanus	-7872
shhorn	-7873
▁3.000	-7874
▁Allen	-7875
▁Altos	-7876
▁Anton	-7877
▁Blair	-7878
▁Byrne	-7879
▁Chung	-7880
▁Chàng	-7881
▁Cloud	-7882
▁Dolly	-7883
▁Istan	-7884
▁Jesse	-7885
▁Khiến	-7886
▁Khung	-7887
▁Libby	-7888
▁Linda	-7889
▁Luria	-7890
▁Point	-7891
▁Prego	-7892
▁Sagme	-7893
▁Sting	-7894
▁Tránh	-7895
▁Tường	-7896
▁Wired	-7897
▁bloop	-7898
▁flash	-7899
▁hidro	-7900
▁khong	-7901
▁luyến	-7902
▁nghẹn	-7903
▁ngùng	-7904
▁nương	-7905
▁phụng	-7906
▁thoạt	-7907
agascar	-7908
chester	-7909
▁12,000	-7910
▁25,000	-7911
▁Brooks	-7912
▁Budrus	-7913
▁Chopin	-7914
▁Darfur	-7915
▁Eiffel	-7916
▁Farmer	-7917
▁Freder	-7918
▁Hannah	-7919
▁Janine	-7920
▁Kaluza	-7921
▁Kaplan	-7922
▁Knight	-7923
▁Marduk	-7924
▁Online	-7925
▁Reagan	-7926
▁Saddam	-7927
▁Sheila	-7928
▁Sheryl	-7929
▁WikiLe	-7930
▁cácbon	-7931
▁nghiến	-7932
▁nhuyễn	-7933
▁robots	-7934
▁sôcôla	-7935
▁webcam	-7936
▁500,000	-7937
▁Algeria	-7938
▁Android	-7939
▁Baghdad	-7940
▁Cargill	-7941
▁Cassini	-7942
▁Collins	-7943
▁Estonia	-7944
▁Fortune	-7945
▁Gillian	-7946
▁Gowanus	-7947
▁Hussein	-7948
▁Jessica	-7949
▁Neumann	-7950
▁Pauling	-7951
▁Rebecca	-7952
▁Science	-7953
▁Shirley	-7954
▁Splashy	-7955
▁Windows	-7956
▁dollars	-7957
▁meerkat	-7958
▁polymer	-7959
niversity	-7960
▁Broadway	-7961
▁Caroline	-7962
▁Chechnya	-7963
▁Duolingo	-7964
▁Istanbul	-7965
▁Kentucky	-7966
▁Missouri	-7967
▁Robicsek	-7968
▁Samantha	-7969
▁Saunders	-7970
▁Sisyphus	-7971
▁Whitacre	-7972
▁Cleveland	-7973
▁Himalayas	-7974
▁Hirshhorn	-7975
▁Hyderabad	-7976
engineering	-7977
▁Madagascar	-7978
▁Sagmeister	-7979
▁pheromones	-7980
45	-7981
AL	-7982
Ar	-7983
CC	-7984
CK	-7985
In	-7986
NE	-7987
RC	-7988
SM	-7989
SS	-7990
TA	-7991
cụ	-7992
ds	-7993
ga	-7994
rd	-7995
rh	-7996
ru	-7997
wl	-7998
xo	-7999
xơ	-8000
zi	-8001
ừm	-8002
100	-8003
600	-8004
Man	-8005
OOC	-8006
ahn	-8007
ais	-8008
akh	-8009
aul	-8010
aux	-8011
aya	-8012
cow	-8013
cul	-8014
die	-8015
ehr	-8016
ete	-8017
etz	-8018
gan	-8019
hrv	-8020
ieu	-8021
ifi	-8022
ign	-8023
iki	-8024
ilm	-8025
irl	-8026
isi	-8027
iễm	-8028
kut	-8029
lia	-8030
liu	-8031
mat	-8032
mit	-8033
mor	-8034
out	-8035
pon	-8036
rav	-8037
rắc	-8038
sey	-8039
tah	-8040
tol	-8041
unn	-8042
urn	-8043
war	-8044
êin	-8045
▁92	-8046
▁DH	-8047
▁DI	-8048
▁IC	-8049
▁ID	-8050
▁JM	-8051
▁JY	-8052
▁Ka	-8053
▁Kw	-8054
▁LM	-8055
▁MR	-8056
▁NH	-8057
▁NO	-8058
▁PR	-8059
▁PT	-8060
▁Pu	-8061
▁ST	-8062
▁TE	-8063
▁Vệ	-8064
▁Wi	-8065
▁be	-8066
▁by	-8067
▁cò	-8068
▁es	-8069
▁gr	-8070
▁lt	-8071
▁lả	-8072
▁mí	-8073
▁sá	-8074
▁sỉ	-8075
▁tễ	-8076
▁ub	-8077
▁up	-8078
▁xê	-8079
▁đơ	-8080
amie	-8081
avin	-8082
cock	-8083
dies	-8084
egas	-8085
enny	-8086
enos	-8087
erry	-8088
gers	-8089
idad	-8090
inas	-8091
ippi	-8092
ixon	-8093
loid	-8094
ocks	-8095
oraz	-8096
oren	-8097
rand	-8098
thus	-8099
upta	-8100
▁170	-8101
▁175	-8102
▁4,5	-8103
▁7.5	-8104
▁747	-8105
▁Ass	-8106
▁Aud	-8107
▁BKT	-8108
▁Bai	-8109
▁But	-8110
▁Buy	-8111
▁Bời	-8112
▁Côn	-8113
▁DDT	-8114
▁Day	-8115
▁Dew	-8116
▁Dom	-8117
▁Dãy	-8118
▁Dục	-8119
▁Ghi	-8120
▁Hod	-8121
▁Hub	-8122
▁Hôn	-8123
▁Húp	-8124
▁Ian	-8125
▁Ing	-8126
▁Kem	-8127
▁Kyi	-8128
▁LHQ	-8129
▁Low	-8130
▁Mam	-8131
▁McM	-8132
▁Mua	-8133
▁Mun	-8134
▁Mực	-8135
▁Nad	-8136
▁Nổi	-8137
▁Old	-8138
▁Ong	-8139
▁Pad	-8140
▁Rah	-8141
▁Rup	-8142
▁Suu	-8143
▁Sân	-8144
▁Ton	-8145
▁Tri	-8146
▁Tuc	-8147
▁Tul	-8148
▁Tuỳ	-8149
▁Vạn	-8150
▁Wii	-8151
▁XDR	-8152
▁Yah	-8153
▁Yos	-8154
▁bái	-8155
▁bêu	-8156
▁bặm	-8157
▁bỏi	-8158
▁bứt	-8159
▁chê	-8160
▁dìm	-8161
▁dật	-8162
▁dỏm	-8163
▁dột	-8164
▁etc	-8165
▁giũ	-8166
▁goi	-8167
▁gàn	-8168
▁gẫy	-8169
▁hec	-8170
▁hắt	-8171
▁hớt	-8172
▁kha	-8173
▁khố	-8174
▁két	-8175
▁lẻo	-8176
▁mag	-8177
▁moi	-8178
▁mậu	-8179
▁nom	-8180
▁nĩa	-8181
▁nấy	-8182
▁oan	-8183
▁quệ	-8184
▁ròi	-8185
▁rạn	-8186
▁rủa	-8187
▁sài	-8188
▁sặc	-8189
▁teo	-8190
▁thự	-8191
▁trề	-8192
▁tót	-8193
▁vét	-8194
▁xui	-8195
▁yum	-8196
Tunes	-8197
abama	-8198
abian	-8199
agram	-8200
annel	-8201
erbai	-8202
hryst	-8203
igrut	-8204
lasma	-8205
point	-8206
worth	-8207
▁1947	-8208
▁1953	-8209
▁1974	-8210
▁1976	-8211
▁Allo	-8212
▁Aung	-8213
▁Blog	-8214
▁Chaz	-8215
▁Chev	-8216
▁Chip	-8217
▁Coke	-8218
▁Cung	-8219
▁Cảng	-8220
▁Deep	-8221
▁Elli	-8222
▁Giác	-8223
▁Goog	-8224
▁Gram	-8225
▁Hany	-8226
▁Heal	-8227
▁Hurt	-8228
▁Hưng	-8229
▁Kath	-8230
▁Khai	-8231
▁Kong	-8232
▁Lady	-8233
▁Lind	-8234
▁Lucy	-8235
▁MOOC	-8236
▁Mead	-8237
▁Miền	-8238
▁Morg	-8239
▁Muốn	-8240
▁Mảnh	-8241
▁Ngắn	-8242
▁Ngựa	-8243
▁Pine	-8244
▁Quên	-8245
▁Ragu	-8246
▁Sach	-8247
▁Seth	-8248
▁Shan	-8249
▁Skid	-8250
▁Slow	-8251
▁Thuỷ	-8252
▁Trần	-8253
▁Vent	-8254
▁Viag	-8255
▁Vila	-8256
▁biễu	-8257
▁bung	-8258
▁bừng	-8259
▁chùi	-8260
▁chửi	-8261
▁gara	-8262
▁giùm	-8263
▁giấm	-8264
▁head	-8265
▁kỉnh	-8266
▁liếc	-8267
▁muội	-8268
▁ngáp	-8269
▁ngấy	-8270
▁ngứa	-8271
▁nhoà	-8272
▁nhòm	-8273
▁nhịn	-8274
▁nhờn	-8275
▁nick	-8276
▁phết	-8277
▁thun	-8278
▁thưc	-8279
▁trồi	-8280
▁trợn	-8281
▁vênh	-8282
▁whis	-8283
▁Đóng	-8284
egrass	-8285
hrvold	-8286
trolux	-8287
▁Aires	-8288
▁Alain	-8289
▁Bitco	-8290
▁Botsw	-8291
▁Brent	-8292
▁Chuột	-8293
▁Costa	-8294
▁Count	-8295
▁Dyson	-8296
▁Eames	-8297
▁Eskim	-8298
▁Frans	-8299
▁Gupta	-8300
▁Hasan	-8301
▁Hills	-8302
▁Kerry	-8303
▁Kháng	-8304
▁Krist	-8305
▁Lagos	-8306
▁Lương	-8307
▁McGon	-8308
▁Mitra	-8309
▁Orkut	-8310
▁Owens	-8311
▁Pants	-8312
▁Paulo	-8313
▁Sally	-8314
▁Sandy	-8315
▁Shack	-8316
▁Sleep	-8317
▁Trồng	-8318
▁Turbo	-8319
▁cents	-8320
▁chiêc	-8321
▁enzim	-8322
▁enzym	-8323
▁giăng	-8324
▁mafia	-8325
▁ngoạc	-8326
▁ngàng	-8327
▁ngạch	-8328
▁nhãng	-8329
▁quark	-8330
▁salad	-8331
▁thàng	-8332
▁trành	-8333
borough	-8334
ersburg	-8335
hrystal	-8336
igruten	-8337
ingsuit	-8338
issippi	-8339
mingham	-8340
▁80.000	-8341
▁Arabia	-8342
▁Ariely	-8343
▁August	-8344
▁Buenos	-8345
▁Celine	-8346
▁Forbes	-8347
▁Hadron	-8348
▁Hansen	-8349
▁Harvey	-8350
▁Hudson	-8351
▁Isabel	-8352
▁Juliet	-8353
▁Kuwait	-8354
▁Maslow	-8355
▁Moscow	-8356
▁Nevada	-8357
▁Nghiệp	-8358
▁Nghịch	-8359
▁Nicole	-8360
▁Nikola	-8361
▁Pinker	-8362
▁Pranav	-8363
▁Ronald	-8364
▁Sophia	-8365
▁Sugata	-8366
▁Tobago	-8367
▁Tucson	-8368
▁Vivian	-8369
▁chường	-8370
▁eureka	-8371
▁gluten	-8372
▁nghếch	-8373
▁pounds	-8374
▁series	-8375
▁tennis	-8376
▁ubuntu	-8377
▁200.000	-8378
▁Alabama	-8379
▁Alberta	-8380
▁Alberto	-8381
▁America	-8382
▁Azerbai	-8383
▁Beatles	-8384
▁Eleanor	-8385
▁Feynman	-8386
▁Jarrett	-8387
▁Jordans	-8388
▁Laramie	-8389
▁Simpson	-8390
▁Titanic	-8391
▁awesome	-8392
▁sunphua	-8393
▁Collider	-8394
▁Giffords	-8395
▁Gladwell	-8396
▁Matthieu	-8397
▁Myhrvold	-8398
▁Randolph	-8399
▁Schwartz	-8400
▁Trinidad	-8401
▁Airstream	-8402
▁Armstrong	-8403
▁Boltzmann	-8404
▁Economist	-8405
▁Kurdistan	-8406
▁Newcastle	-8407
▁WikiLeaks	-8408
▁Blackberry	-8409
▁Georgetown	-8410
▁McChrystal	-8411
▁Petersburg	-8412
▁Torosaurus	-8413
▁microphone	-8414
▁Hurtigruten	-8415
▁Mississippi	-8416
▁Philippines	-8417
-8	-8418
99	-8419
BS	-8420
CN	-8421
Fi	-8422
PL	-8423
PT	-8424
SB	-8425
TB	-8426
Th	-8427
Tr	-8428
ae	-8429
hh	-8430
ku	-8431
lơ	-8432
rs	-8433
tu	-8434
ty	-8435
wh	-8436
íp	-8437
▁ỉ	-8438
▁ụ	-8439
IAA	-8440
IPP	-8441
Lee	-8442
NIC	-8443
avi	-8444
bro	-8445
ced	-8446
day	-8447
elb	-8448
gic	-8449
hna	-8450
ieg	-8451
ien	-8452
iet	-8453
ift	-8454
imp	-8455
ior	-8456
lis	-8457
lus	-8458
nil	-8459
nit	-8460
non	-8461
ocz	-8462
oxy	-8463
pen	-8464
rel	-8465
res	-8466
ril	-8467
rov	-8468
rug	-8469
sha	-8470
tes	-8471
ãnh	-8472
êng	-8473
▁-1	-8474
▁51	-8475
▁61	-8476
▁79	-8477
▁AA	-8478
▁BB	-8479
▁Fl	-8480
▁GC	-8481
▁GI	-8482
▁Hả	-8483
▁IN	-8484
▁IV	-8485
▁JO	-8486
▁JS	-8487
▁Lệ	-8488
▁NF	-8489
▁NR	-8490
▁Om	-8491
▁RA	-8492
▁TB	-8493
▁Te	-8494
▁Xc	-8495
▁bạ	-8496
▁bẽ	-8497
▁bợ	-8498
▁dả	-8499
▁dể	-8500
▁er	-8501
▁há	-8502
▁hơ	-8503
▁hủ	-8504
▁lổ	-8505
▁mè	-8506
▁rể	-8507
▁tã	-8508
▁vê	-8509
▁xù	-8510
▁ĐH	-8511
▁Đá	-8512
▁ắt	-8513
Card	-8514
abil	-8515
acht	-8516
ague	-8517
aint	-8518
aste	-8519
aust	-8520
avel	-8521
ayne	-8522
bach	-8523
ball	-8524
beta	-8525
chan	-8526
cken	-8527
dale	-8528
erto	-8529
esha	-8530
heim	-8531
inia	-8532
ions	-8533
ital	-8534
itor	-8535
ivia	-8536
nest	-8537
nish	-8538
odka	-8539
oliu	-8540
ooth	-8541
otto	-8542
phal	-8543
rani	-8544
reen	-8545
sain	-8546
teau	-8547
thời	-8548
tone	-8549
usty	-8550
vald	-8551
weil	-8552
work	-8553
znet	-8554
▁103	-8555
▁4.5	-8556
▁ATM	-8557
▁Arn	-8558
▁Bog	-8559
▁Bắn	-8560
▁CSF	-8561
▁Che	-8562
▁Cấu	-8563
▁Cẩn	-8564
▁Cụm	-8565
▁DIY	-8566
▁Dak	-8567
▁Daw	-8568
▁Eis	-8569
▁Est	-8570
▁Fez	-8571
▁Gib	-8572
▁Gut	-8573
▁Guy	-8574
▁Gấu	-8575
▁HAL	-8576
▁Heb	-8577
▁Hor	-8578
▁Hos	-8579
▁Hài	-8580
▁Hữu	-8581
▁Ice	-8582
▁Jaw	-8583
▁Job	-8584
▁Kin	-8585
▁Koh	-8586
▁Ler	-8587
▁MAS	-8588
▁McL	-8589
▁Mis	-8590
▁Mod	-8591
▁Mật	-8592
▁NSA	-8593
▁Nap	-8594
▁Ngà	-8595
▁Ngữ	-8596
▁Nằm	-8597
▁Reg	-8598
▁Rid	-8599
▁Rào	-8600
▁Sin	-8601
▁Ste	-8602
▁Sue	-8603
▁Sợi	-8604
▁Sửa	-8605
▁TNC	-8606
▁Thơ	-8607
▁Til	-8608
▁Trả	-8609
▁Tut	-8610
▁Vib	-8611
▁WHO	-8612
▁bal	-8613
▁bla	-8614
▁bít	-8615
▁búp	-8616
▁bợm	-8617
▁cau	-8618
▁com	-8619
▁càm	-8620
▁cúc	-8621
▁cảu	-8622
▁dãn	-8623
▁fải	-8624
▁hem	-8625
▁hit	-8626
▁hãn	-8627
▁hẻm	-8628
▁lìa	-8629
▁lùa	-8630
▁lùn	-8631
▁lăm	-8632
▁lọi	-8633
▁lới	-8634
▁lựu	-8635
▁múc	-8636
▁mẫn	-8637
▁mịt	-8638
▁nap	-8639
▁nắn	-8640
▁nớt	-8641
▁rem	-8642
▁sil	-8643
▁sán	-8644
▁séc	-8645
▁sấy	-8646
▁sọt	-8647
▁thò	-8648
▁tẹo	-8649
▁tết	-8650
▁vơi	-8651
▁vảy	-8652
▁vữa	-8653
▁xẻo	-8654
▁xỉn	-8655
▁xới	-8656
▁xửa	-8657
Chúng	-8658
NICEF	-8659
adema	-8660
aldez	-8661
endor	-8662
ethyl	-8663
hanol	-8664
inawa	-8665
iness	-8666
istry	-8667
itiba	-8668
ittle	-8669
không	-8670
marin	-8671
monia	-8672
oblog	-8673
oczka	-8674
olulu	-8675
orazo	-8676
quare	-8677
rylic	-8678
scape	-8679
uitar	-8680
urich	-8681
urnal	-8682
▁1100	-8683
▁1969	-8684
▁1972	-8685
▁1977	-8686
▁1978	-8687
▁1981	-8688
▁2100	-8689
▁Biên	-8690
▁Bowl	-8691
▁Bách	-8692
▁Cash	-8693
▁Chap	-8694
▁Chấm	-8695
▁Code	-8696
▁Cous	-8697
▁Cruz	-8698
▁Data	-8699
▁Dhar	-8700
▁Down	-8701
▁Duke	-8702
▁Dược	-8703
▁Dụng	-8704
▁Farm	-8705
▁Fear	-8706
▁Ferr	-8707
▁Full	-8708
▁Gell	-8709
▁Gogh	-8710
▁Grey	-8711
▁Gulf	-8712
▁Hand	-8713
▁Hang	-8714
▁Hart	-8715
▁Hatz	-8716
▁Hers	-8717
▁Hipp	-8718
▁IPCC	-8719
▁Igbo	-8720
▁Jobs	-8721
▁Jose	-8722
▁KIPP	-8723
▁Kara	-8724
▁Khoẻ	-8725
▁Kros	-8726
▁Lick	-8727
▁Life	-8728
▁Mall	-8729
▁Marx	-8730
▁Miến	-8731
▁More	-8732
▁Mừng	-8733
▁Ngạc	-8734
▁Nino	-8735
▁Niết	-8736
▁Pent	-8737
▁Pope	-8738
▁Ptol	-8739
▁Quix	-8740
▁RIAA	-8741
▁Rain	-8742
▁Rica	-8743
▁Rumi	-8744
▁Rượu	-8745
▁Rồng	-8746
▁Shin	-8747
▁Siri	-8748
▁Step	-8749
▁Súng	-8750
▁Thảm	-8751
▁Thấu	-8752
▁Tiết	-8753
▁Turk	-8754
▁Tăng	-8755
▁Tầng	-8756
▁Vọng	-8757
▁Walt	-8758
▁Watt	-8759
▁Wisc	-8760
▁Wong	-8761
▁bass	-8762
▁boom	-8763
▁cass	-8764
▁chòi	-8765
▁chòm	-8766
▁chầm	-8767
▁coll	-8768
▁cóng	-8769
▁ding	-8770
▁font	-8771
▁form	-8772
▁giũa	-8773
▁giỡn	-8774
▁gừng	-8775
▁kang	-8776
▁khuỷ	-8777
▁khít	-8778
▁loát	-8779
▁mili	-8780
▁nghê	-8781
▁ngáy	-8782
▁ngấu	-8783
▁nheo	-8784
▁nhái	-8785
▁nhám	-8786
▁oliu	-8787
▁phàm	-8788
▁phầm	-8789
▁phẩu	-8790
▁phật	-8791
▁quác	-8792
▁quậy	-8793
▁rupi	-8794
▁sexy	-8795
▁thât	-8796
▁toan	-8797
▁toát	-8798
▁tuốc	-8799
▁tuối	-8800
▁táng	-8801
▁vali	-8802
▁vừng	-8803
▁xiếc	-8804
▁Đoán	-8805
▁Đàng	-8806
▁Đằng	-8807
Sphere	-8808
annica	-8809
atcher	-8810
ilocks	-8811
sonian	-8812
▁25000	-8813
▁Ahmad	-8814
▁Allan	-8815
▁Andes	-8816
▁Andre	-8817
▁Annie	-8818
▁Barry	-8819
▁Bruno	-8820
▁Budap	-8821
▁Chand	-8822
▁Chimb	-8823
▁Chuck	-8824
▁Colle	-8825
▁Drori	-8826
▁Durga	-8827
▁Earle	-8828
▁Evans	-8829
▁Genev	-8830
▁Gould	-8831
▁Griff	-8832
▁Haidt	-8833
▁Hindu	-8834
▁India	-8835
▁Jeann	-8836
▁Kaaba	-8837
▁Kamen	-8838
▁Light	-8839
▁Mania	-8840
▁Motor	-8841
▁Mount	-8842
▁Nghèo	-8843
▁Night	-8844
▁Nixon	-8845
▁Palin	-8846
▁Patel	-8847
▁Peace	-8848
▁Percy	-8849
▁Prosp	-8850
▁Rhode	-8851
▁Ridge	-8852
▁Robin	-8853
▁Rossy	-8854
▁Sachs	-8855
▁Schul	-8856
▁Shred	-8857
▁Sunni	-8858
▁Titan	-8859
▁Triết	-8860
▁Verme	-8861
▁adren	-8862
▁calor	-8863
▁chuốt	-8864
▁guồng	-8865
▁huyên	-8866
▁khoét	-8867
▁nghén	-8868
▁nghẹt	-8869
▁ngoặc	-8870
▁ngỗng	-8871
▁ngừoi	-8872
▁nhằng	-8873
▁nơron	-8874
▁organ	-8875
▁quyện	-8876
▁sound	-8877
efeller	-8878
nilever	-8879
▁Alexis	-8880
▁Angela	-8881
▁Atkins	-8882
▁Austin	-8883
▁Barbie	-8884
▁Barric	-8885
▁Bionic	-8886
▁Botton	-8887
▁Democr	-8888
▁Edison	-8889
▁Esther	-8890
▁Ferris	-8891
▁Foster	-8892
▁Kuznet	-8893
▁Makoko	-8894
▁Marcus	-8895
▁McCain	-8896
▁Ornish	-8897
▁Porter	-8898
▁Report	-8899
▁Shirky	-8900
▁Silver	-8901
▁Stalin	-8902
▁Suther	-8903
▁Valdez	-8904
▁Valley	-8905
▁Warner	-8906
▁Yellow	-8907
▁cotton	-8908
▁guitar	-8909
▁iTunes	-8910
▁socola	-8911
atherine	-8912
otterdam	-8913
▁150,000	-8914
▁Allende	-8915
▁Bernard	-8916
▁British	-8917
▁Buffett	-8918
▁Carolyn	-8919
▁Diamond	-8920
▁Hoffman	-8921
▁Journal	-8922
▁Karachi	-8923
▁Lakshmi	-8924
▁Mohamed	-8925
▁Nicolas	-8926
▁Okinawa	-8927
▁Patrick	-8928
▁Phoenix	-8929
▁Popcorn	-8930
▁Ptolemy	-8931
▁Resnick	-8932
▁Robbins	-8933
▁Snowden	-8934
▁Steward	-8935
▁acrylic	-8936
▁ethanol	-8937
▁kilomet	-8938
▁neutron	-8939
▁Atlantic	-8940
▁Botswana	-8941
▁Brothers	-8942
▁Curitiba	-8943
▁Honolulu	-8944
▁Thatcher	-8945
▁collagen	-8946
▁coumarin	-8947
▁terawatt	-8948
▁Instagram	-8949
▁Krosoczka	-8950
▁Licklider	-8951
▁Nathaniel	-8952
▁Shreddies	-8953
▁Wisconsin	-8954
▁microblog	-8955
▁AlloSphere	-8956
▁Britannica	-8957
▁Chimborazo	-8958
▁Electrolux	-8959
▁Goldilocks	-8960
▁Greenville	-8961
▁Sutherland	-8962
▁Rockefeller	-8963
▁Yellowstone	-8964
.1	-8965
42	-8966
49	-8967
CO	-8968
Ho	-8969
Kh	-8970
LS	-8971
NH	-8972
Nh	-8973
PI	-8974
Qu	-8975
bs	-8976
có	-8977
gô	-8978
ms	-8979
py	-8980
sa	-8981
vo	-8982
ys	-8983
zo	-8984
íu	-8985
đó	-8986
-20	-8987
-50	-8988
Car	-8989
Hub	-8990
MCA	-8991
SCO	-8992
Sec	-8993
TCT	-8994
aff	-8995
ahi	-8996
aim	-8997
aip	-8998
als	-8999
ank	-9000
apa	-9001
ase	-9002
aso	-9003
azi	-9004
bal	-9005
bot	-9006
cli	-9007
cut	-9008
eki	-9009
eme	-9010
ext	-9011
ful	-9012
gli	-9013
hou	-9014
iev	-9015
ird	-9016
iza	-9017
lap	-9018
min	-9019
nhe	-9020
ols	-9021
ove	-9022
owa	-9023
par	-9024
rai	-9025
rio	-9026
ryn	-9027
tar	-9028
teo	-9029
thì	-9030
tôi	-9031
vir	-9032
wey	-9033
wln	-9034
ymb	-9035
ơng	-9036
▁49	-9037
▁Ax	-9038
▁BA	-9039
▁Cu	-9040
▁Cà	-9041
▁Cờ	-9042
▁Cử	-9043
▁Er	-9044
▁FB	-9045
▁GW	-9046
▁JE	-9047
▁Kí	-9048
▁LB	-9049
▁SK	-9050
▁SP	-9051
▁Tô	-9052
▁VI	-9053
▁Wu	-9054
▁Xo	-9055
▁Xử	-9056
▁YR	-9057
▁bớ	-9058
▁gở	-9059
▁ib	-9060
▁le	-9061
▁lữ	-9062
▁mú	-9063
▁oi	-9064
▁pH	-9065
▁re	-9066
▁vo	-9067
▁vs	-9068
▁wi	-9069
▁xỏ	-9070
▁ùn	-9071
Pesa	-9072
abas	-9073
acor	-9074
ains	-9075
amer	-9076
artu	-9077
aton	-9078
atra	-9079
augh	-9080
ayan	-9081
bage	-9082
bell	-9083
chel	-9084
cope	-9085
down	-9086
eena	-9087
eger	-9088
eing	-9089
elah	-9090
enna	-9091
ensp	-9092
ento	-9093
eral	-9094
eric	-9095
eros	-9096
esel	-9097
ians	-9098
ibia	-9099
ical	-9100
igal	-9101
iker	-9102
illo	-9103
ilyn	-9104
inck	-9105
irlw	-9106
iềng	-9107
kina	-9108
lett	-9109
loyd	-9110
lông	-9111
meop	-9112
mont	-9113
ness	-9114
neth	-9115
oban	-9116
occo	-9117
olis	-9118
olls	-9119
onte	-9120
orio	-9121
osia	-9122
real	-9123
riet	-9124
tain	-9125
than	-9126
tinh	-9127
ugos	-9128
uhan	-9129
umen	-9130
undy	-9131
urdo	-9132
ushi	-9133
witz	-9134
▁0.2	-9135
▁181	-9136
▁183	-9137
▁220	-9138
▁3-4	-9139
▁6.5	-9140
▁Aqu	-9141
▁Arc	-9142
▁BMW	-9143
▁Bau	-9144
▁Bei	-9145
▁Bis	-9146
▁Bus	-9147
▁Bãi	-9148
▁Cac	-9149
▁Cau	-9150
▁Chí	-9151
▁Chó	-9152
▁Cit	-9153
▁Cầm	-9154
▁Cắt	-9155
▁Dry	-9156
▁Dum	-9157
▁Dạy	-9158
▁ESP	-9159
▁Ell	-9160
▁Fin	-9161
▁Fow	-9162
▁Gir	-9163
▁Giơ	-9164
▁Gái	-9165
▁Gây	-9166
▁Góc	-9167
▁Gặp	-9168
▁Hán	-9169
▁Hỡi	-9170
▁Ins	-9171
▁Jen	-9172
▁Jet	-9173
▁Jur	-9174
▁Leh	-9175
▁Lâu	-9176
▁Lão	-9177
▁Lạc	-9178
▁Moi	-9179
▁Mèo	-9180
▁Móc	-9181
▁Môn	-9182
▁NRK	-9183
▁Nok	-9184
▁Now	-9185
▁Out	-9186
▁PSA	-9187
▁Pam	-9188
▁Pen	-9189
▁RCA	-9190
▁ROV	-9191
▁Ran	-9192
▁Rau	-9193
▁Rev	-9194
▁Rey	-9195
▁Răn	-9196
▁Rối	-9197
▁SOL	-9198
▁Sac	-9199
▁Sat	-9200
▁Ses	-9201
▁Sev	-9202
▁Sâu	-9203
▁Sơn	-9204
▁Tak	-9205
▁Tus	-9206
▁Tồn	-9207
▁Vit	-9208
▁Vul	-9209
▁Wag	-9210
▁Yay	-9211
▁amy	-9212
▁bèn	-9213
▁bấp	-9214
▁càn	-9215
▁cằm	-9216
▁cỡi	-9217
▁den	-9218
▁der	-9219
▁des	-9220
▁dot	-9221
▁dum	-9222
▁dãi	-9223
▁dìu	-9224
▁dòm	-9225
▁gắm	-9226
▁gọt	-9227
▁gột	-9228
▁hal	-9229
▁hep	-9230
▁hoc	-9231
▁hoo	-9232
▁huý	-9233
▁hói	-9234
▁húp	-9235
▁hấn	-9236
▁hợt	-9237
▁imp	-9238
▁kar	-9239
▁khẽ	-9240
▁lặt	-9241
▁lẻn	-9242
▁mon	-9243
▁mẩn	-9244
▁mẫm	-9245
▁mụn	-9246
▁nao	-9247
▁nhỡ	-9248
▁nua	-9249
▁nài	-9250
▁nít	-9251
▁nòi	-9252
▁nần	-9253
▁nẻo	-9254
▁nức	-9255
▁out	-9256
▁pro	-9257
▁roi	-9258
▁rọc	-9259
▁sin	-9260
▁sào	-9261
▁sâm	-9262
▁sầm	-9263
▁toi	-9264
▁trc	-9265
▁try	-9266
▁trổ	-9267
▁tìn	-9268
▁tơi	-9269
▁tầu	-9270
▁tịt	-9271
▁vỏn	-9272
▁xãy	-9273
▁xóc	-9274
▁ôxy	-9275
▁Đau	-9276
▁Đáp	-9277
▁Đói	-9278
▁Đầy	-9279
▁đay	-9280
▁đít	-9281
▁ắng	-9282
NESCO	-9283
abyte	-9284
acyOS	-9285
alaam	-9286
amble	-9287
andon	-9288
burst	-9289
craft	-9290
earch	-9291
ector	-9292
encia	-9293
erial	-9294
house	-9295
igman	-9296
iguel	-9297
ildes	-9298
isher	-9299
iyama	-9300
kheim	-9301
nited	-9302
odops	-9303
oplin	-9304
ority	-9305
othic	-9306
rofen	-9307
terol	-9308
trino	-9309
urtis	-9310
valds	-9311
zeiro	-9312
▁1300	-9313
▁1400	-9314
▁1600	-9315
▁1910	-9316
▁1926	-9317
▁1954	-9318
▁1963	-9319
▁9000	-9320
▁ARES	-9321
▁Agar	-9322
▁Anat	-9323
▁Aust	-9324
▁BRCK	-9325
▁Barn	-9326
▁Beck	-9327
▁Best	-9328
▁Biệt	-9329
▁Bran	-9330
▁Bren	-9331
▁Chán	-9332
▁Dall	-9333
▁Drew	-9334
▁Ecua	-9335
▁Eddy	-9336
▁Erin	-9337
▁Feki	-9338
▁Fern	-9339
▁Flow	-9340
▁Hell	-9341
▁Hãng	-9342
▁Iowa	-9343
▁Jazz	-9344
▁Khẩu	-9345
▁Kirk	-9346
▁Kiều	-9347
▁Kool	-9348
▁Less	-9349
▁Linh	-9350
▁Lord	-9351
▁Love	-9352
▁Lãnh	-9353
▁Lĩnh	-9354
▁Maas	-9355
▁Mack	-9356
▁Mann	-9357
▁Maps	-9358
▁Niel	-9359
▁Nina	-9360
▁Nàng	-9361
▁Pash	-9362
▁Phổi	-9363
▁Pimp	-9364
▁Prot	-9365
▁Pugh	-9366
▁Reed	-9367
▁Rita	-9368
▁Ruby	-9369
▁SARS	-9370
▁Sant	-9371
▁Sard	-9372
▁Seng	-9373
▁Shel	-9374
▁Thảo	-9375
▁Thất	-9376
▁Thịt	-9377
▁Till	-9378
▁Trầm	-9379
▁Tỉnh	-9380
▁Vill	-9381
▁Woff	-9382
▁Xong	-9383
▁bồng	-9384
▁chon	-9385
▁cháo	-9386
▁chùn	-9387
▁chạc	-9388
▁code	-9389
▁cuốc	-9390
▁còng	-9391
▁cẳng	-9392
▁diệp	-9393
▁dộng	-9394
▁fMRI	-9395
▁film	-9396
▁gaga	-9397
▁gươm	-9398
▁heli	-9399
▁ibup	-9400
▁liêm	-9401
▁love	-9402
▁loét	-9403
▁lươn	-9404
▁mênh	-9405
▁nhói	-9406
▁phen	-9407
▁phất	-9408
▁post	-9409
▁quai	-9410
▁seri	-9411
▁sunf	-9412
▁sảng	-9413
▁thon	-9414
▁thán	-9415
▁thâu	-9416
▁thớt	-9417
▁tuýp	-9418
▁xiên	-9419
▁Điên	-9420
▁Điệu	-9421
▁Đoàn	-9422
▁Đỉnh	-9423
▁đung	-9424
▁đành	-9425
▁đễnh	-9426
Script	-9427
acking	-9428
acorex	-9429
celona	-9430
cliffe	-9431
elbart	-9432
enburg	-9433
erinck	-9434
escope	-9435
ilding	-9436
ishman	-9437
kraina	-9438
lahoma	-9439
linger	-9440
master	-9441
oulder	-9442
▁20000	-9443
▁30000	-9444
▁Adams	-9445
▁Aicha	-9446
▁Alisa	-9447
▁Aspen	-9448
▁Atala	-9449
▁Betty	-9450
▁Canal	-9451
▁Carro	-9452
▁Cesar	-9453
▁Champ	-9454
▁Chiều	-9455
▁Chuẩn	-9456
▁Chuỗi	-9457
▁Chừng	-9458
▁Coast	-9459
▁Daily	-9460
▁Diane	-9461
▁Donna	-9462
▁Doyle	-9463
▁Ebert	-9464
▁Enron	-9465
▁Every	-9466
▁Ganđi	-9467
▁Gever	-9468
▁Gross	-9469
▁Heidi	-9470
▁Hutch	-9471
▁Hyper	-9472
▁Inuit	-9473
▁Italy	-9474
▁Jenny	-9475
▁Khadi	-9476
▁Locke	-9477
▁Luton	-9478
▁MOOCs	-9479
▁Maine	-9480
▁Mello	-9481
▁Milan	-9482
▁Mills	-9483
▁Milly	-9484
▁Nancy	-9485
▁PMTCT	-9486
▁Paolo	-9487
▁Parik	-9488
▁Queen	-9489
▁Randi	-9490
▁Riêng	-9491
▁Slick	-9492
▁Stern	-9493
▁TEDxB	-9494
▁TEDxS	-9495
▁Tamil	-9496
▁Terry	-9497
▁Thiệt	-9498
▁Tonya	-9499
▁Triệu	-9500
▁Trích	-9501
▁Trạch	-9502
▁Vegas	-9503
▁Whole	-9504
▁Xương	-9505
▁Yahoo	-9506
▁Yugos	-9507
▁epoxy	-9508
▁ghiếc	-9509
▁muông	-9510
▁nhừng	-9511
▁parab	-9512
▁phiếm	-9513
▁radar	-9514
▁remix	-9515
▁shows	-9516
▁sushi	-9517
▁suông	-9518
▁thảnh	-9519
▁thặng	-9520
▁triền	-9521
▁tuyền	-9522
▁xuồng	-9523
ability	-9524
enstein	-9525
irlwind	-9526
ischeri	-9527
ventist	-9528
▁80,000	-9529
▁Bergen	-9530
▁Boeing	-9531
▁Cookie	-9532
▁Curtis	-9533
▁DARwln	-9534
▁Dereck	-9535
▁Ecosia	-9536
▁Eskimo	-9537
▁Fabian	-9538
▁Fildes	-9539
▁Fowler	-9540
▁Friend	-9541
▁Gambia	-9542
▁Garden	-9543
▁Geneva	-9544
▁Giacom	-9545
▁Granny	-9546
▁Ground	-9547
▁Harold	-9548
▁Hasbro	-9549
▁Health	-9550
▁Hubble	-9551
▁Improv	-9552
▁Jackie	-9553
▁Khuyến	-9554
▁Kinsey	-9555
▁Lauren	-9556
▁Madrid	-9557
▁Maggie	-9558
▁Marcel	-9559
▁Martha	-9560
▁Merced	-9561
▁Monica	-9562
▁Morris	-9563
▁Motors	-9564
▁Nghiêm	-9565
▁Palmer	-9566
▁Pierre	-9567
▁Python	-9568
▁Robbie	-9569
▁Rodrig	-9570
▁Salaam	-9571
▁Tamara	-9572
▁Thuyền	-9573
▁Tulley	-9574
▁Turing	-9575
▁Viagra	-9576
▁Walter	-9577
▁choles	-9578
▁diesel	-9579
▁dioxit	-9580
▁inches	-9581
▁nguệch	-9582
▁sulfur	-9583
▁tweets	-9584
▁vaccin	-9585
eggendor	-9586
meopathy	-9587
▁150.000	-9588
▁250.000	-9589
▁300,000	-9590
▁400,000	-9591
▁400.000	-9592
▁Babbage	-9593
▁Bolivia	-9594
▁Burkina	-9595
▁Derartu	-9596
▁Edwards	-9597
▁Frankie	-9598
▁Goldman	-9599
▁Harriet	-9600
▁Hillary	-9601
▁Hotmail	-9602
▁Houston	-9603
▁Janeiro	-9604
▁Kendall	-9605
▁Kuznets	-9606
▁Malthus	-9607
▁Marilyn	-9608
▁McLuhan	-9609
▁McMurdo	-9610
▁Midwest	-9611
▁Miranda	-9612
▁Mission	-9613
▁Monster	-9614
▁Morgana	-9615
▁Morocco	-9616
▁Namibia	-9617
▁Natalie	-9618
▁Philips	-9619
▁Solomon	-9620
▁Stephan	-9621
▁Sunitha	-9622
▁Suzanne	-9623
▁Vincent	-9624
▁amyloid	-9625
▁cocaine	-9626
▁nơtrino	-9627
▁protêin	-9628
▁whiskey	-9629
▁Achilles	-9630
▁Budapest	-9631
▁Capetown	-9632
▁Children	-9633
▁Cruzeiro	-9634
▁Dietrich	-9635
▁Dracorex	-9636
▁Durkheim	-9637
▁Himalaya	-9638
▁Johannes	-9639
▁Minority	-9640
▁Mohammed	-9641
▁Oklahoma	-9642
▁Phillips	-9643
▁Portland	-9644
▁Prospera	-9645
▁Research	-9646
▁Richards	-9647
▁Seligman	-9648
▁Torvalds	-9649
▁Yugoslav	-9650
▁cacbonat	-9651
▁fischeri	-9652
▁wingsuit	-9653
▁Adventist	-9654
▁Barcelona	-9655
▁Denisovan	-9656
▁Engelbart	-9657
▁Frederick	-9658
▁McGonigal	-9659
▁Michoacán	-9660
▁Oldenburg	-9661
▁Radcliffe	-9662
▁Standford	-9663
▁Whirlwind	-9664
▁ibuprofen	-9665
eggendorfer	-9666
▁Birmingham	-9667
▁JavaScript	-9668
▁Meyerowitz	-9669
▁Powerpoint	-9670
▁transistor	-9671
▁DemocracyOS	-9672
▁Smithsonian	-9673
▁cholesterol	-9674
,6	-9675
.0	-9676
14	-9677
25	-9678
31	-9679
95	-9680
BO	-9681
CL	-9682
Ex	-9683
GF	-9684
HD	-9685
OW	-9686
St	-9687
Vo	-9688
ea	-9689
gu	-9690
kw	-9691
là	-9692
mô	-9693
pm	-9694
po	-9695
rb	-9696
tz	-9697
tê	-9698
uz	-9699
va	-9700
wo	-9701
xa	-9702
ăt	-9703
▁ê	-9704
▁ó	-9705
-10	-9706
-15	-9707
Day	-9708
ISD	-9709
abe	-9710
acs	-9711
aik	-9712
aka	-9713
asy	-9714
bee	-9715
bia	-9716
can	-9717
ces	-9718
cus	-9719
dog	-9720
don	-9721
edi	-9722
ego	-9723
elo	-9724
elu	-9725
gus	-9726
hem	-9727
hic	-9728
hol	-9729
ids	-9730
ika	-9731
ikh	-9732
ime	-9733
ius	-9734
kel	-9735
lif	-9736
opo	-9737
ozy	-9738
pie	-9739
qui	-9740
rad	-9741
raw	-9742
rip	-9743
roe	-9744
sky	-9745
too	-9746
tất	-9747
uay	-9748
ucc	-9749
uds	-9750
urf	-9751
ved	-9752
wan	-9753
zac	-9754
zan	-9755
zon	-9756
▁Ak	-9757
▁Au	-9758
▁CR	-9759
▁CT	-9760
▁DB	-9761
▁DR	-9762
▁EG	-9763
▁EL	-9764
▁Ep	-9765
▁FE	-9766
▁FI	-9767
▁FM	-9768
▁FN	-9769
▁Ga	-9770
▁JB	-9771
▁JN	-9772
▁Jr	-9773
▁Lá	-9774
▁Mw	-9775
▁Mũ	-9776
▁Pa	-9777
▁SM	-9778
▁Sy	-9779
▁Sz	-9780
▁Sô	-9781
▁TM	-9782
▁TQ	-9783
▁Tz	-9784
▁VM	-9785
▁Vẽ	-9786
▁WI	-9787
▁WT	-9788
▁XI	-9789
▁ap	-9790
▁dẻ	-9791
▁fu	-9792
▁lì	-9793
▁ná	-9794
▁om	-9795
▁rì	-9796
▁rỏ	-9797
▁sê	-9798
▁tà	-9799
▁vồ	-9800
▁ww	-9801
▁xị	-9802
▁ẩu	-9803
Bath	-9804
Mann	-9805
acey	-9806
agon	-9807
agra	-9808
aker	-9809
alah	-9810
aler	-9811
alph	-9812
ambo	-9813
ance	-9814
andt	-9815
anga	-9816
arez	-9817
aris	-9818
ator	-9819
aver	-9820
bard	-9821
biết	-9822
brot	-9823
cept	-9824
chai	-9825
cles	-9826
dore	-9827
eats	-9828
edic	-9829
ella	-9830
enne	-9831
enst	-9832
eoul	-9833
esca	-9834
esia	-9835
eson	-9836
esta	-9837
eway	-9838
gate	-9839
haas	-9840
head	-9841
hicô	-9842
icip	-9843
igai	-9844
ilip	-9845
illi	-9846
isch	-9847
isel	-9848
iser	-9849
koff	-9850
laes	-9851
lass	-9852
laug	-9853
luid	-9854
lulo	-9855
mapa	-9856
mark	-9857
mins	-9858
mons	-9859
name	-9860
ners	-9861
nisi	-9862
oing	-9863
oker	-9864
orge	-9865
osph	-9866
pire	-9867
raib	-9868
rann	-9869
rect	-9870
rive	-9871
roir	-9872
shoo	-9873
sler	-9874
teng	-9875
tham	-9876
ucle	-9877
undi	-9878
unta	-9879
unus	-9880
vani	-9881
vian	-9882
viết	-9883
ômét	-9884
▁-40	-9885
▁1,6	-9886
▁178	-9887
▁2,3	-9888
▁240	-9889
▁466	-9890
▁5,5	-9891
▁Act	-9892
▁Ahh	-9893
▁Bối	-9894
▁CSI	-9895
▁Cav	-9896
▁Ced	-9897
▁Cis	-9898
▁Cob	-9899
▁Coi	-9900
▁Cox	-9901
▁Cát	-9902
▁Dev	-9903
▁Dut	-9904
▁Dải	-9905
▁Dẫu	-9906
▁Fir	-9907
▁Gle	-9908
▁Gun	-9909
▁Gốc	-9910
▁Gồm	-9911
▁Hab	-9912
▁Hep	-9913
▁Hyp	-9914
▁Hàm	-9915
▁Hân	-9916
▁Hẹn	-9917
▁Hộp	-9918
▁IGF	-9919
▁Kaf	-9920
▁Kaz	-9921
▁Kìa	-9922
▁Lam	-9923
▁Lip	-9924
▁Liv	-9925
▁Lái	-9926
▁Lưu	-9927
▁Maz	-9928
▁Meh	-9929
▁Mug	-9930
▁Mut	-9931
▁Mũi	-9932
▁Mưa	-9933
▁Mẩu	-9934
▁NGO	-9935
▁Nab	-9936
▁Neg	-9937
▁Ngủ	-9938
▁Nir	-9939
▁Nou	-9940
▁Pew	-9941
▁Pot	-9942
▁Quê	-9943
▁Rao	-9944
▁Ras	-9945
▁Ren	-9946
▁Ric	-9947
▁Rud	-9948
▁SAT	-9949
▁Sav	-9950
▁Sid	-9951
▁Sok	-9952
▁Stu	-9953
▁Sty	-9954
▁São	-9955
▁Tab	-9956
▁Tao	-9957
▁Tat	-9958
▁Ten	-9959
▁Thr	-9960
▁Tib	-9961
▁Top	-9962
▁Toả	-9963
▁Wes	-9964
▁XML	-9965
▁aah	-9966
▁ang	-9967
▁bai	-9968
▁bio	-9969
▁buc	-9970
▁bói	-9971
▁bện	-9972
▁bộn	-9973
▁bủa	-9974
▁chy	-9975
▁cta	-9976
▁cùa	-9977
▁cùn	-9978
▁cún	-9979
▁cúp	-9980
▁cút	-9981
▁cọp	-9982
▁dow	-9983
▁dầm	-9984
▁dứa	-9985
▁gao	-9986
▁gài	-9987
▁gấm	-9988
▁hăm	-9989
▁hơp	-9990
▁hấu	-9991
▁hổn	-9992
▁hợm	-9993
▁kền	-9994
▁les	-9995
▁lol	-9996
▁lán	-9997
▁lòi	-9998
▁lằn	-9999
▁mía	-10000
▁mảy	-10001
▁mền	-10002
▁net	-10003
▁nhĩ	-10004
▁nin	-10005
▁nái	-10006
▁nôm	-10007
▁nạo	-10008
▁oái	-10009
▁pan	-10010
▁per	-10011
▁phũ	-10012
▁ren	-10013
▁ruy	-10014
▁ráo	-10015
▁rât	-10016
▁rốn	-10017
▁rụt	-10018
▁sưa	-10019
▁sắn	-10020
▁sởi	-10021
▁sởn	-10022
▁trĩ	-10023
▁trọ	-10024
▁tào	-10025
▁táp	-10026
▁tôt	-10027
▁tĩu	-10028
▁tấp	-10029
▁tẩm	-10030
▁vát	-10031
▁vít	-10032
▁vắn	-10033
▁www	-10034
▁xát	-10035
▁xẩy	-10036
▁xắp	-10037
▁Đen	-10038
▁ổng	-10039
Shbab	-10040
abbal	-10041
ahaha	-10042
aipur	-10043
alach	-10044
aline	-10045
andro	-10046
arter	-10047
athai	-10048
atiuk	-10049
awton	-10050
buntu	-10051
chang	-10052
cutta	-10053
elile	-10054
ental	-10055
garia	-10056
guson	-10057
illia	-10058
indle	-10059
ingle	-10060
inner	-10061
liken	-10062
odesk	-10063
onchi	-10064
ophis	-10065
orane	-10066
othar	-10067
oulli	-10068
ourne	-10069
parov	-10070
shasa	-10071
ugger	-10072
umpet	-10073
urman	-10074
where	-10075
zweil	-10076
▁----	-10077
▁1850	-10078
▁1879	-10079
▁1890	-10080
▁1929	-10081
▁1938	-10082
▁1959	-10083
▁1967	-10084
▁2016	-10085
▁ADHD	-10086
▁Bass	-10087
▁Benn	-10088
▁Bess	-10089
▁Blak	-10090
▁Borg	-10091
▁Born	-10092
▁Bose	-10093
▁Brah	-10094
▁Brin	-10095
▁Buck	-10096
▁Chek	-10097
▁Chih	-10098
▁Chăm	-10099
▁Citi	-10100
▁Cron	-10101
▁DMCA	-10102
▁Depp	-10103
▁Diff	-10104
▁Dink	-10105
▁Dựng	-10106
▁Elyn	-10107
▁Eman	-10108
▁Enri	-10109
▁Faso	-10110
▁Fire	-10111
▁Fitz	-10112
▁Flem	-10113
▁Flip	-10114
▁Fren	-10115
▁Gang	-10116
▁Giết	-10117
▁Glas	-10118
▁Gray	-10119
▁Hama	-10120
▁Hard	-10121
▁Hiếm	-10122
▁Hugh	-10123
▁Hutu	-10124
▁Joan	-10125
▁Jung	-10126
▁Kare	-10127
▁Kemp	-10128
▁Khảo	-10129
▁Kiev	-10130
▁Kiếm	-10131
▁Klee	-10132
▁Kobe	-10133
▁Kohn	-10134
▁Mach	-10135
▁Mali	-10136
▁Maui	-10137
▁Mick	-10138
▁Moon	-10139
▁Mosk	-10140
▁Muỗi	-10141
▁Nash	-10142
▁Nghi	-10143
▁Nhện	-10144
▁Niên	-10145
▁Nuôi	-10146
▁Oslo	-10147
▁Palo	-10148
▁Patt	-10149
▁Phol	-10150
▁Phẩm	-10151
▁RISD	-10152
▁Rama	-10153
▁Roth	-10154
▁Rush	-10155
▁SOLE	-10156
▁Sark	-10157
▁Sval	-10158
▁Sóng	-10159
▁TNCs	-10160
▁Tang	-10161
▁Tata	-10162
▁Tech	-10163
▁Thân	-10164
▁Thẩm	-10165
▁Tiềm	-10166
▁Town	-10167
▁Toxo	-10168
▁Trek	-10169
▁Trib	-10170
▁Volk	-10171
▁Wael	-10172
▁Wald	-10173
▁Webb	-10174
▁Wond	-10175
▁Wool	-10176
▁Xung	-10177
▁amen	-10178
▁buốt	-10179
▁bòng	-10180
▁bềnh	-10181
▁carb	-10182
▁chấu	-10183
▁chịt	-10184
▁chội	-10185
▁cuôc	-10186
▁cạch	-10187
▁dịnh	-10188
▁fiss	-10189
▁giõi	-10190
▁guga	-10191
▁hững	-10192
▁khua	-10193
▁khải	-10194
▁lith	-10195
▁lằng	-10196
▁mail	-10197
▁meme	-10198
▁mini	-10199
▁muồi	-10200
▁mượt	-10201
▁ngoi	-10202
▁ngán	-10203
▁ngậm	-10204
▁ngốn	-10205
▁nhác	-10206
▁nhât	-10207
▁nhúc	-10208
▁nhẩm	-10209
▁nhậm	-10210
▁nhằn	-10211
▁nhẵn	-10212
▁oxit	-10213
▁phẩy	-10214
▁quất	-10215
▁ráng	-10216
▁thuý	-10217
▁thơi	-10218
▁tong	-10219
▁trìu	-10220
▁trọc	-10221
▁tưng	-10222
▁xước	-10223
Secret	-10224
abasca	-10225
amsala	-10226
aptree	-10227
asthan	-10228
atural	-10229
azarus	-10230
egeren	-10231
elling	-10232
intosh	-10233
ocaust	-10234
ounded	-10235
rabble	-10236
ruguay	-10237
tainer	-10238
vetson	-10239
▁50000	-10240
▁6.000	-10241
▁7,000	-10242
▁Aless	-10243
▁Alley	-10244
▁Atten	-10245
▁Bacon	-10246
▁Behar	-10247
▁Berry	-10248
▁Birds	-10249
▁Blanc	-10250
▁Bobby	-10251
▁Bolte	-10252
▁Bragg	-10253
▁Bundy	-10254
▁Burma	-10255
▁Burns	-10256
▁China	-10257
▁Claes	-10258
▁Coler	-10259
▁Const	-10260
▁Creat	-10261
▁Crick	-10262
▁Dewey	-10263
▁Elias	-10264
▁Erick	-10265
▁Feder	-10266
▁Forer	-10267
▁Giêng	-10268
▁Glenn	-10269
▁Grier	-10270
▁Grove	-10271
▁Heads	-10272
▁Hosni	-10273
▁Huang	-10274
▁Hương	-10275
▁Jared	-10276
▁Jonny	-10277
▁Kamal	-10278
▁Kamkw	-10279
▁Khổng	-10280
▁Kiran	-10281
▁Laman	-10282
▁Laura	-10283
▁Mahab	-10284
▁Marie	-10285
▁Mason	-10286
▁Match	-10287
▁Matty	-10288
▁McKay	-10289
▁Medic	-10290
▁Money	-10291
▁Nhung	-10292
▁Nicol	-10293
▁Nokia	-10294
▁Pizza	-10295
▁Prick	-10296
▁Prius	-10297
▁Punta	-10298
▁Rabin	-10299
▁Ralph	-10300
▁Ratan	-10301
▁Reich	-10302
▁River	-10303
▁Saint	-10304
▁Seoul	-10305
▁Small	-10306
▁Speed	-10307
▁Store	-10308
▁TEDxP	-10309
▁TEDxR	-10310
▁Talks	-10311
▁Thích	-10312
▁Tommy	-10313
▁Tracy	-10314
▁Tướng	-10315
▁Tượng	-10316
▁Winky	-10317
▁Yunus	-10318
▁boong	-10319
▁cabin	-10320
▁caram	-10321
▁carro	-10322
▁chùng	-10323
▁coban	-10324
▁giằng	-10325
▁hecta	-10326
▁huých	-10327
▁iPods	-10328
▁khuỷu	-10329
▁liệng	-10330
▁micrô	-10331
▁miles	-10332
▁modem	-10333
▁napot	-10334
▁ngóng	-10335
▁ngông	-10336
▁ngưởi	-10337
▁nucle	-10338
▁nuông	-10339
▁ozone	-10340
▁party	-10341
▁phăng	-10342
▁quàng	-10343
▁tango	-10344
▁thong	-10345
annelrh	-10346
minster	-10347
ramento	-10348
rofluid	-10349
ycephal	-10350
▁15,000	-10351
▁25.000	-10352
▁Action	-10353
▁Acumen	-10354
▁Adrian	-10355
▁Alison	-10356
▁Angola	-10357
▁Arnold	-10358
▁Austen	-10359
▁Bartok	-10360
▁Batiuk	-10361
▁Benoit	-10362
▁Bieber	-10363
▁Borane	-10364
▁Braxin	-10365
▁Burger	-10366
▁Camera	-10367
▁Caucas	-10368
▁Cheval	-10369
▁Clarke	-10370
▁Crimer	-10371
▁Dakota	-10372
▁Dublin	-10373
▁Dunlap	-10374
▁Fuller	-10375
▁Gallup	-10376
▁Gamble	-10377
▁Ghraib	-10378
▁Greene	-10379
▁Hacker	-10380
▁Herbie	-10381
▁Hercul	-10382
▁Intern	-10383
▁Jeanny	-10384
▁Joplin	-10385
▁Kerala	-10386
▁Kermit	-10387
▁Kindle	-10388
▁Laurie	-10389
▁Lehman	-10390
▁Lothar	-10391
▁Maddie	-10392
▁Maidan	-10393
▁Meadow	-10394
▁Miguel	-10395
▁Mistry	-10396
▁Mêhicô	-10397
▁Nellie	-10398
▁Orwell	-10399
▁Osorio	-10400
▁Panama	-10401
▁Polaro	-10402
▁Puerto	-10403
▁Reader	-10404
▁Ridley	-10405
▁Salman	-10406
▁Sesame	-10407
▁Sheena	-10408
▁Sivers	-10409
▁Somali	-10410
▁Starck	-10411
▁Sughar	-10412
▁Sydney	-10413
▁Temple	-10414
▁Valent	-10415
▁Wagner	-10416
▁WorldW	-10417
▁Yochai	-10418
▁bridge	-10419
▁burger	-10420
▁giương	-10421
▁impact	-10422
▁monkey	-10423
▁upload	-10424
abbaleen	-10425
anderson	-10426
changing	-10427
ullinger	-10428
▁Albania	-10429
▁Apophis	-10430
▁Ashdown	-10431
▁Avelile	-10432
▁Balkans	-10433
▁Bennett	-10434
▁Berners	-10435
▁Bitcoin	-10436
▁Boulder	-10437
▁College	-10438
▁Cornell	-10439
▁Dorothy	-10440
▁Douglas	-10441
▁DryBath	-10442
▁Georges	-10443
▁Grameen	-10444
▁Gregory	-10445
▁Hamburg	-10446
▁Karmapa	-10447
▁Kenneth	-10448
▁Lazarus	-10449
▁Madison	-10450
▁Masters	-10451
▁Mullins	-10452
▁Pierson	-10453
▁Quixote	-10454
▁Reuters	-10455
▁Salinas	-10456
▁Sarkozy	-10457
▁Shereen	-10458
▁Toonchi	-10459
▁Tuynisi	-10460
▁Vermeer	-10461
▁Wangari	-10462
▁Webster	-10463
▁Wilkins	-10464
▁Wofford	-10465
▁Wounded	-10466
▁ammonia	-10467
▁beatbox	-10468
▁fission	-10469
▁hoocmôn	-10470
▁hormone	-10471
▁kilômét	-10472
▁lithium	-10473
▁terroir	-10474
▁Appalach	-10475
▁Autodesk	-10476
▁Beatrice	-10477
▁Bionicle	-10478
▁Bulgaria	-10479
▁Calcutta	-10480
▁Carrillo	-10481
▁Chandler	-10482
▁Cousteau	-10483
▁Ferguson	-10484
▁Florence	-10485
▁Hatzalah	-10486
▁Hazleton	-10487
▁Interval	-10488
▁Kasparov	-10489
▁Kinshasa	-10490
▁Koolhaas	-10491
▁Kurzweil	-10492
▁Legadema	-10493
▁Meegeren	-10494
▁Milliken	-10495
▁Montreal	-10496
▁Particip	-10497
▁Pholeros	-10498
▁Sandberg	-10499
▁Scrabble	-10500
▁Socrates	-10501
▁Svalbard	-10502
▁Swaptree	-10503
▁Theodore	-10504
▁Warcraft	-10505
▁centimét	-10506
▁nickname	-10507
▁Bernoulli	-10508
▁Catherine	-10509
▁Churchill	-10510
▁Holocaust	-10511
▁HyperCard	-10512
▁Jurvetson	-10513
▁Macintosh	-10514
▁Moskowitz	-10515
▁Rotterdam	-10516
▁Shephelah	-10517
▁Telescope	-10518
▁channelrh	-10519
▁container	-10520
▁Cloudburst	-10521
▁Dharamsala	-10522
▁Disneyland	-10523
▁Everywhere	-10524
▁Huntington	-10525
▁Manchester	-10526
▁PostSecret	-10527
▁Sacramento	-10528
▁Shackleton	-10529
▁Pachycephal	-10530
▁Attenborough	-10531
▁Frankenstein	-10532
▁Meggendorfer	-10533
▁Neanderthals	-10534
▁International	-10535
-7	-10536
10	-10537
29	-10538
34	-10539
60	-10540
64	-10541
65	-10542
75	-10543
78	-10544
Af	-10545
BT	-10546
EO	-10547
KO	-10548
MG	-10549
NI	-10550
NY	-10551
OR	-10552
PF	-10553
Ph	-10554
SF	-10555
To	-10556
cd	-10557
dr	-10558
du	-10559
fl	-10560
hl	-10561
ml	-10562
mà	-10563
nơ	-10564
pl	-10565
sp	-10566
tơ	-10567
xe	-10568
zb	-10569
âp	-10570
íc	-10571
óp	-10572
đa	-10573
ẵm	-10574
ểu	-10575
ệm	-10576
▁ị	-10577
▁ợ	-10578
-40	-10579
Bot	-10580
COB	-10581
DER	-10582
Mar	-10583
Rập	-10584
SAF	-10585
Yêu	-10586
ahl	-10587
aho	-10588
aku	-10589
cal	-10590
cav	-10591
cho	-10592
cht	-10593
ckx	-10594
con	-10595
duc	-10596
dul	-10597
ebe	-10598
ebr	-10599
eca	-10600
eez	-10601
erd	-10602
get	-10603
gim	-10604
gow	-10605
hne	-10606
hua	-10607
iad	-10608
iew	-10609
iks	-10610
ili	-10611
ilê	-10612
mal	-10613
oin	-10614
ope	-10615
orp	-10616
osa	-10617
rix	-10618
roc	-10619
rod	-10620
rom	-10621
rot	-10622
tai	-10623
thy	-10624
top	-10625
tối	-10626
ubs	-10627
ude	-10628
ugo	-10629
uri	-10630
uru	-10631
uyn	-10632
ven	-10633
vre	-10634
yar	-10635
éli	-10636
đun	-10637
ẫng	-10638
▁03	-10639
▁09	-10640
▁AB	-10641
▁Bò	-10642
▁Bề	-10643
▁CB	-10644
▁DE	-10645
▁Dh	-10646
▁ET	-10647
▁Et	-10648
▁Ey	-10649
▁Fe	-10650
▁Gà	-10651
▁IT	-10652
▁JT	-10653
▁KH	-10654
▁LI	-10655
▁Lé	-10656
▁Lê	-10657
▁MC	-10658
▁MS	-10659
▁Mr	-10660
▁Mù	-10661
▁NY	-10662
▁Ny	-10663
▁Nè	-10664
▁Ot	-10665
▁PP	-10666
▁Pi	-10667
▁RT	-10668
▁SJ	-10669
▁Sư	-10670
▁TW	-10671
▁Tứ	-10672
▁Vá	-10673
▁YB	-10674
▁at	-10675
▁br	-10676
▁bẹ	-10677
▁cở	-10678
▁dà	-10679
▁dề	-10680
▁gờ	-10681
▁hờ	-10682
▁ik	-10683
▁mo	-10684
▁mủ	-10685
▁nê	-10686
▁só	-10687
▁ur	-10688
▁us	-10689
▁vè	-10690
▁we	-10691
▁xy	-10692
▁ẵm	-10693
▁ớn	-10694
2010	-10695
2011	-10696
Afee	-10697
Mart	-10698
adah	-10699
adda	-10700
aise	-10701
akis	-10702
akka	-10703
alan	-10704
alle	-10705
ando	-10706
angi	-10707
aran	-10708
ards	-10709
aroo	-10710
arta	-10711
aven	-10712
avic	-10713
awat	-10714
borg	-10715
eans	-10716
ecom	-10717
efer	-10718
enia	-10719
ethi	-10720
etor	-10721
exan	-10722
hall	-10723
iall	-10724
iath	-10725
icot	-10726
ilia	-10727
ious	-10728
iper	-10729
issa	-10730
itty	-10731
ival	-10732
lanh	-10733
lawa	-10734
loud	-10735
ltan	-10736
maer	-10737
main	-10738
mund	-10739
ngal	-10740
nham	-10741
ning	-10742
olan	-10743
olic	-10744
onim	-10745
otic	-10746
plex	-10747
pont	-10748
popo	-10749
riam	-10750
rika	-10751
tafa	-10752
tran	-10753
tual	-10754
tuốt	-10755
ware	-10756
wart	-10757
ycin	-10758
ydia	-10759
yler	-10760
zbek	-10761
điều	-10762
▁0.8	-10763
▁1,0	-10764
▁1,4	-10765
▁1.1	-10766
▁102	-10767
▁105	-10768
▁145	-10769
▁156	-10770
▁158	-10771
▁165	-10772
▁173	-10773
▁2.7	-10774
▁205	-10775
▁230	-10776
▁3.3	-10777
▁3.7	-10778
▁330	-10779
▁442	-10780
▁5-6	-10781
▁911	-10782
▁Aah	-10783
▁Abb	-10784
▁Acc	-10785
▁Aha	-10786
▁Ahn	-10787
▁Aid	-10788
▁Ayl	-10789
▁BRD	-10790
▁Baz	-10791
▁Bia	-10792
▁Bib	-10793
▁Bod	-10794
▁Bou	-10795
▁Bùm	-10796
▁Bơi	-10797
▁Bậc	-10798
▁Bật	-10799
▁Bồi	-10800
▁CAO	-10801
▁Cad	-10802
▁Cel	-10803
▁Cen	-10804
▁Cup	-10805
▁Cúc	-10806
▁Dap	-10807
▁Dig	-10808
▁Dod	-10809
▁Dọc	-10810
▁EPA	-10811
▁Eco	-10812
▁Ent	-10813
▁Eva	-10814
▁Fam	-10815
▁Fan	-10816
▁GBM	-10817
▁GNH	-10818
▁Gag	-10819
▁Gam	-10820
▁Gra	-10821
▁Hog	-10822
▁Họp	-10823
▁Hỗn	-10824
▁Hừm	-10825
▁JPL	-10826
▁Jak	-10827
▁Jal	-10828
▁Jun	-10829
▁KPI	-10830
▁Khô	-10831
▁Kis	-10832
▁Kun	-10833
▁Kéo	-10834
▁Laf	-10835
▁Lah	-10836
▁Lao	-10837
▁Let	-10838
▁Liu	-10839
▁Luc	-10840
▁Lud	-10841
▁Lầu	-10842
▁MTV	-10843
▁Meg	-10844
▁Mes	-10845
▁Miz	-10846
▁Mmm	-10847
▁Mại	-10848
▁NFL	-10849
▁Nak	-10850
▁Ngu	-10851
▁Nhi	-10852
▁Nit	-10853
▁Not	-10854
▁Nốt	-10855
▁OMG	-10856
▁Off	-10857
▁PAC	-10858
▁PBS	-10859
▁PCC	-10860
▁PET	-10861
▁PRI	-10862
▁Ped	-10863
▁Pha	-10864
▁Phá	-10865
▁Phô	-10866
▁Phú	-10867
▁Phủ	-10868
▁Ple	-10869
▁Pra	-10870
▁Qui	-10871
▁Quạ	-10872
▁Rol	-10873
▁Rot	-10874
▁Rút	-10875
▁Rằm	-10876
▁Sap	-10877
▁Sek	-10878
▁Shu	-10879
▁Sit	-10880
▁Sox	-10881
▁Sán	-10882
▁Sát	-10883
▁Sếp	-10884
▁Tia	-10885
▁Trụ	-10886
▁Two	-10887
▁Tần	-10888
▁Tặc	-10889
▁Tồi	-10890
▁Tựa	-10891
▁Vân	-10892
▁Vứt	-10893
▁Vực	-10894
▁Wei	-10895
▁Wid	-10896
▁Wit	-10897
▁Xấu	-10898
▁Yor	-10899
▁all	-10900
▁app	-10901
▁big	-10902
▁bow	-10903
▁bre	-10904
▁but	-10905
▁bye	-10906
▁bét	-10907
▁bập	-10908
▁bịu	-10909
▁chè	-10910
▁col	-10911
▁cưú	-10912
▁cạc	-10913
▁cầy	-10914
▁cộc	-10915
▁cộm	-10916
▁duệ	-10917
▁dùi	-10918
▁dầy	-10919
▁dến	-10920
▁edX	-10921
▁fax	-10922
▁fer	-10923
▁fus	-10924
▁gal	-10925
▁gig	-10926
▁giớ	-10927
▁gòn	-10928
▁hám	-10929
▁hão	-10930
▁héc	-10931
▁hổi	-10932
▁hỡi	-10933
▁khư	-10934
▁kít	-10935
▁lbs	-10936
▁loi	-10937
▁loã	-10938
▁lác	-10939
▁líp	-10940
▁lúp	-10941
▁lút	-10942
▁lơi	-10943
▁lẩm	-10944
▁lữa	-10945
▁mul	-10946
▁mùn	-10947
▁múi	-10948
▁măt	-10949
▁mạt	-10950
▁mầy	-10951
▁mửa	-10952
▁ngỗ	-10953
▁nhá	-10954
▁nhợ	-10955
▁not	-10956
▁oai	-10957
▁oát	-10958
▁pic	-10959
▁ppm	-10960
▁quở	-10961
▁ran	-10962
▁rip	-10963
▁rou	-10964
▁rám	-10965
▁rít	-10966
▁rôi	-10967
▁sap	-10968
▁sơm	-10969
▁sạo	-10970
▁sực	-10971
▁thệ	-10972
▁tạt	-10973
▁tủa	-10974
▁vac	-10975
▁vun	-10976
▁vât	-10977
▁vút	-10978
▁vệc	-10979
▁xun	-10980
▁xơi	-10981
▁xạc	-10982
▁yao	-10983
▁yếm	-10984
▁ách	-10985
▁Đom	-10986
▁Đác	-10987
▁Đồi	-10988
▁đàu	-10989
▁đôn	-10990
▁đúp	-10991
▁đăc	-10992
▁đăt	-10993
▁đểu	-10994
0.000	-10995
NAIDS	-10996
NCCOB	-10997
Space	-10998
ablan	-10999
acama	-11000
achim	-11001
agall	-11002
anium	-11003
appos	-11004
arius	-11005
arthe	-11006
assel	-11007
bergh	-11008
cover	-11009
emens	-11010
emite	-11011
ening	-11012
entin	-11013
eople	-11014
epper	-11015
eroon	-11016
etter	-11017
found	-11018
gimol	-11019
ianne	-11020
icket	-11021
ideen	-11022
iegel	-11023
iffen	-11024
iller	-11025
illus	-11026
itium	-11027
lebee	-11028
lobin	-11029
lying	-11030
mouth	-11031
mwood	-11032
nload	-11033
ocure	-11034
oming	-11035
oohoo	-11036
oping	-11037
orska	-11038
owatt	-11039
owell	-11040
owski	-11041
riDER	-11042
ricia	-11043
ucker	-11044
ugaad	-11045
unker	-11046
unner	-11047
uppam	-11048
virus	-11049
yllis	-11050
▁0,05	-11051
▁1904	-11052
▁1919	-11053
▁1941	-11054
▁1952	-11055
▁1956	-11056
▁1958	-11057
▁1964	-11058
▁1966	-11059
▁Aber	-11060
▁Aldo	-11061
▁Alto	-11062
▁Anim	-11063
▁Aria	-11064
▁Avaz	-11065
▁Bann	-11066
▁Bear	-11067
▁Berg	-11068
▁Bike	-11069
▁Boot	-11070
▁Buch	-11071
▁Bumb	-11072
▁Bông	-11073
▁Casa	-11074
▁Chao	-11075
▁Chem	-11076
▁Chữa	-11077
▁Conc	-11078
▁Dale	-11079
▁Dana	-11080
▁Diêm	-11081
▁Dool	-11082
▁Dung	-11083
▁Eden	-11084
▁Egan	-11085
▁Erez	-11086
▁Fide	-11087
▁Finn	-11088
▁Flin	-11089
▁Frid	-11090
▁Game	-11091
▁Gart	-11092
▁Girl	-11093
▁Haas	-11094
▁Herz	-11095
▁Hood	-11096
▁Horn	-11097
▁ISAF	-11098
▁Idol	-11099
▁Ines	-11100
▁Jody	-11101
▁Jonh	-11102
▁Kart	-11103
▁Khoá	-11104
▁Khởi	-11105
▁Kick	-11106
▁Kill	-11107
▁Kite	-11108
▁Kofi	-11109
▁Koko	-11110
▁LGBT	-11111
▁Lead	-11112
▁Lear	-11113
▁Leib	-11114
▁Lenn	-11115
▁Lima	-11116
▁Link	-11117
▁Lion	-11118
▁List	-11119
▁Lith	-11120
▁Lynn	-11121
▁Lãng	-11122
▁Lính	-11123
▁Lưới	-11124
▁Lồng	-11125
▁Main	-11126
▁Mash	-11127
▁Melb	-11128
▁Mena	-11129
▁Miko	-11130
▁Mild	-11131
▁Milk	-11132
▁Mons	-11133
▁NATO	-11134
▁Nath	-11135
▁Next	-11136
▁Nghề	-11137
▁Ngon	-11138
▁Ngón	-11139
▁Nhấn	-11140
▁Nhập	-11141
▁Nhắn	-11142
▁Ommm	-11143
▁PTSD	-11144
▁Pack	-11145
▁Pall	-11146
▁Pand	-11147
▁Pass	-11148
▁Phái	-11149
▁Phạm	-11150
▁Phấn	-11151
▁Prag	-11152
▁Prov	-11153
▁Punk	-11154
▁Quác	-11155
▁Rang	-11156
▁Ranh	-11157
▁Real	-11158
▁Rhod	-11159
▁Rice	-11160
▁Rico	-11161
▁Rift	-11162
▁Rony	-11163
▁SAMS	-11164
▁SING	-11165
▁Salt	-11166
▁Sash	-11167
▁Save	-11168
▁Saxe	-11169
▁Sequ	-11170
▁Shap	-11171
▁Slov	-11172
▁Spec	-11173
▁Sufi	-11174
▁Take	-11175
▁Than	-11176
▁Thói	-11177
▁TiVo	-11178
▁Tibb	-11179
▁Tink	-11180
▁Tiếc	-11181
▁Tree	-11182
▁Treo	-11183
▁True	-11184
▁Trật	-11185
▁Trực	-11186
▁Type	-11187
▁Vang	-11188
▁Wilk	-11189
▁Wins	-11190
▁Worc	-11191
▁Word	-11192
▁Xuất	-11193
▁Your	-11194
▁bits	-11195
▁byte	-11196
▁búng	-11197
▁card	-11198
▁choi	-11199
▁chài	-11200
▁chác	-11201
▁chắp	-11202
▁cool	-11203
▁cuồn	-11204
▁cáng	-11205
▁data	-11206
▁dich	-11207
▁diển	-11208
▁fear	-11209
▁giầu	-11210
▁goro	-11211
▁high	-11212
▁hinh	-11213
▁hòng	-11214
▁khạo	-11215
▁khảm	-11216
▁kilô	-11217
▁kung	-11218
▁like	-11219
▁list	-11220
▁liếm	-11221
▁liềm	-11222
▁loai	-11223
▁lênh	-11224
▁môtô	-11225
▁mống	-11226
▁nanh	-11227
▁neon	-11228
▁ngai	-11229
▁ngụm	-11230
▁nong	-11231
▁oanh	-11232
▁oxal	-11233
▁panh	-11234
▁phot	-11235
▁phít	-11236
▁phập	-11237
▁play	-11238
▁quắt	-11239
▁reCA	-11240
▁read	-11241
▁solo	-11242
▁thãi	-11243
▁thóc	-11244
▁thọc	-11245
▁toại	-11246
▁trệt	-11247
▁trớn	-11248
▁tuồi	-11249
▁vầng	-11250
▁with	-11251
▁xưng	-11252
▁Đặng	-11253
▁đich	-11254
▁đuốc	-11255
anical	-11256
aptist	-11257
asteur	-11258
atford	-11259
bright	-11260
carbon	-11261
cavore	-11262
egrove	-11263
etooth	-11264
friend	-11265
gerald	-11266
ibbean	-11267
luloza	-11268
lusion	-11269
morrow	-11270
ollock	-11271
presso	-11272
rogram	-11273
ussels	-11274
▁1,2,3	-11275
▁1.500	-11276
▁12000	-11277
▁15000	-11278
▁2,500	-11279
▁Abdul	-11280
▁Adria	-11281
▁Allah	-11282
▁Armen	-11283
▁Audio	-11284
▁Basit	-11285
▁Belsh	-11286
▁Benef	-11287
▁Birke	-11288
▁Bosch	-11289
▁Brohi	-11290
▁Carib	-11291
▁Chilê	-11292
▁Choir	-11293
▁Chỉnh	-11294
▁Conan	-11295
▁Damon	-11296
▁Edith	-11297
▁Eliot	-11298
▁Fargo	-11299
▁Foods	-11300
▁Galen	-11301
▁Gayle	-11302
▁Gensp	-11303
▁Glass	-11304
▁Godin	-11305
▁Goran	-11306
▁Hamas	-11307
▁Hanna	-11308
▁Hardy	-11309
▁Hoang	-11310
▁Homer	-11311
▁Hydro	-11312
▁Idaho	-11313
▁Joyce	-11314
▁Karol	-11315
▁Khoan	-11316
▁Loren	-11317
▁Lotto	-11318
▁Lunch	-11319
▁Mahal	-11320
▁Marin	-11321
▁Marla	-11322
▁Mecca	-11323
▁Miner	-11324
▁Mycop	-11325
▁Ngừng	-11326
▁Niall	-11327
▁Niger	-11328
▁Olson	-11329
▁Phiến	-11330
▁Pinot	-11331
▁Randy	-11332
▁Remen	-11333
▁Renny	-11334
▁Rolls	-11335
▁Romeo	-11336
▁Royal	-11337
▁Rupal	-11338
▁Sagan	-11339
▁Satur	-11340
▁Sears	-11341
▁Shawn	-11342
▁Smart	-11343
▁Snoop	-11344
▁Spock	-11345
▁Studs	-11346
▁Szymb	-11347
▁TEDxC	-11348
▁TEDxM	-11349
▁Table	-11350
▁Techn	-11351
▁Thiếu	-11352
▁Thrun	-11353
▁Thước	-11354
▁Tibet	-11355
▁Today	-11356
▁Tombo	-11357
▁Treat	-11358
▁Trứng	-11359
▁Turin	-11360
▁Tuyến	-11361
▁Twain	-11362
▁Tyler	-11363
▁Volta	-11364
▁Volvo	-11365
▁Willy	-11366
▁Worth	-11367
▁Xuống	-11368
▁bioph	-11369
▁blues	-11370
▁check	-11371
▁cuống	-11372
▁genes	-11373
▁ghita	-11374
▁grams	-11375
▁gượng	-11376
▁khuân	-11377
▁khồng	-11378
▁magie	-11379
▁ngoằn	-11380
▁nhiếm	-11381
▁nhiện	-11382
▁nhích	-11383
▁nicot	-11384
▁phung	-11385
▁poker	-11386
▁quầng	-11387
▁siêng	-11388
▁smart	-11389
▁thali	-11390
▁thich	-11391
▁thinh	-11392
▁think	-11393
▁thổng	-11394
▁tulip	-11395
ablanca	-11396
akhstan	-11397
alympic	-11398
artheid	-11399
avicini	-11400
erbread	-11401
imbardo	-11402
oglobin	-11403
roponte	-11404
station	-11405
tenberg	-11406
▁......	-11407
▁100000	-11408
▁11.000	-11409
▁15.000	-11410
▁250000	-11411
▁Airbus	-11412
▁Archer	-11413
▁Avatar	-11414
▁Babble	-11415
▁Barton	-11416
▁Basque	-11417
▁Bogota	-11418
▁Borges	-11419
▁Bunker	-11420
▁Camden	-11421
▁Cannes	-11422
▁Carson	-11423
▁Cedars	-11424
▁Claron	-11425
▁County	-11426
▁Cronin	-11427
▁Cruise	-11428
▁Dallas	-11429
▁Daphne	-11430
▁Denver	-11431
▁Design	-11432
▁Elliot	-11433
▁Empire	-11434
▁Ensler	-11435
▁Financ	-11436
▁Fraser	-11437
▁Ghonim	-11438
▁GitHub	-11439
▁Global	-11440
▁Hanson	-11441
▁Haring	-11442
▁Hebrew	-11443
▁Iphone	-11444
▁Italia	-11445
▁Jacobs	-11446
▁Jansen	-11447
▁Jansky	-11448
▁Kendal	-11449
▁Kenyan	-11450
▁Kevlar	-11451
▁Kismet	-11452
▁Kuiper	-11453
▁Kymaer	-11454
▁Laurel	-11455
▁League	-11456
▁Leslie	-11457
▁Lessig	-11458
▁Little	-11459
▁Louise	-11460
▁Magell	-11461
▁Marrow	-11462
▁Marvin	-11463
▁McAfee	-11464
▁McKean	-11465
▁Merckx	-11466
▁Milton	-11467
▁Mobile	-11468
▁Monkey	-11469
▁Mormon	-11470
▁Musica	-11471
▁Myesha	-11472
▁Nation	-11473
▁Nghiệm	-11474
▁Pamela	-11475
▁Parker	-11476
▁Patton	-11477
▁Pilots	-11478
▁Pretor	-11479
▁Produc	-11480
▁Prozac	-11481
▁Queens	-11482
▁Record	-11483
▁Ronson	-11484
▁Sandel	-11485
▁Schulz	-11486
▁Scrubs	-11487
▁Shirin	-11488
▁Skerry	-11489
▁Spring	-11490
▁Square	-11491
▁Susana	-11492
▁Teresa	-11493
▁Thaler	-11494
▁Truyện	-11495
▁Vanier	-11496
▁Vulner	-11497
▁Whites	-11498
▁analog	-11499
▁calori	-11500
▁cocain	-11501
▁duplex	-11502
▁hotdog	-11503
▁ikigai	-11504
▁karate	-11505
▁khiêng	-11506
▁nghiễm	-11507
▁nghành	-11508
▁phosph	-11509
▁phường	-11510
▁picnic	-11511
▁vacxin	-11512
gimoloch	-11513
niversal	-11514
▁250,000	-11515
▁350.000	-11516
▁Allison	-11517
▁Antonio	-11518
▁Assange	-11519
▁Atacama	-11520
▁Benedic	-11521
▁Berkley	-11522
▁Bradley	-11523
▁Brendan	-11524
▁Bueller	-11525
▁Chekhov	-11526
▁Commons	-11527
▁Company	-11528
▁Control	-11529
▁Fleming	-11530
▁Galvani	-11531
▁Glasgow	-11532
▁Gleeson	-11533
▁Goliath	-11534
▁Hepburn	-11535
▁Jenkins	-11536
▁Joachim	-11537
▁Kathryn	-11538
▁Khalida	-11539
▁Leonard	-11540
▁Limpopo	-11541
▁Maathai	-11542
▁Mapendo	-11543
▁Mellody	-11544
▁Mildred	-11545
▁Mizzone	-11546
▁Mustafa	-11547
▁MySpace	-11548
▁Napster	-11549
▁Natural	-11550
▁Pandora	-11551
▁Pollock	-11552
▁Prickly	-11553
▁Reuther	-11554
▁SANCCOB	-11555
▁Schlaug	-11556
▁Siemens	-11557
▁Springs	-11558
▁Tahltan	-11559
▁Tibbits	-11560
▁Timothy	-11561
▁Virtual	-11562
▁Walters	-11563
▁Weiffen	-11564
▁Wislawa	-11565
▁Wyoming	-11566
▁bowling	-11567
▁bucardo	-11568
▁calorie	-11569
▁caramen	-11570
▁dioxide	-11571
▁generic	-11572
▁parabol	-11573
▁tritium	-11574
▁uranium	-11575
▁Brussels	-11576
▁Business	-11577
▁Cameroon	-11578
▁Campbell	-11579
▁Caucasus	-11580
▁Creative	-11581
▁Discover	-11582
▁Enriquez	-11583
▁Genspace	-11584
▁Geoffrey	-11585
▁Hamilton	-11586
▁Horowitz	-11587
▁Imperial	-11588
▁Mercedes	-11589
▁Novocure	-11590
▁Oxytocin	-11591
▁Partners	-11592
▁Patricia	-11593
▁Rockwell	-11594
▁Sardinia	-11595
▁Slovenia	-11596
▁Standard	-11597
▁TEDTalks	-11598
▁TEDsters	-11599
▁Taniyama	-11600
▁Wormwood	-11601
▁Yosemite	-11602
▁defriend	-11603
▁download	-11604
▁facebook	-11605
▁kilowatt	-11606
▁locavore	-11607
▁megawatt	-11608
▁tomorrow	-11609
▁Ahmedabad	-11610
▁Athabasca	-11611
▁Augustine	-11612
▁Bannister	-11613
▁Bloomberg	-11614
▁Bluetooth	-11615
▁Bumblebee	-11616
▁Caribbean	-11617
▁Christina	-11618
▁Coleridge	-11619
▁Collusion	-11620
▁Goldstein	-11621
▁Lamanites	-11622
▁Lindbergh	-11623
▁Lovegrove	-11624
▁Melbourne	-11625
▁Stephanie	-11626
▁Worcester	-11627
▁WorldWide	-11628
▁bluegrass	-11629
▁photoshop	-11630
▁Barricelli	-11631
▁Bennington	-11632
▁Blackawton	-11633
▁Casablanca	-11634
▁Christakis	-11635
▁Copernican	-11636
▁Fitzgerald	-11637
▁Giacometti	-11638
▁Kazakhstan	-11639
▁Mechanical	-11640
▁Mycoplasma	-11641
▁Negroponte	-11642
▁Paralympic	-11643
▁Paravicini	-11644
▁Szymborska	-11645
▁Yugoslavia	-11646
▁ferrofluid	-11647
▁smartphone	-11648
▁soundscape	-11649
▁Buckminster	-11650
▁Hippocrates	-11651
▁Participant	-11652
▁Playstation	-11653
▁Stygimoloch	-11654
▁Weiffenbach	-11655
▁Vulnerability	-11656
▁channelrhodops	-11657
.4	-11658
13	-11659
82	-11660
92	-11661
AA	-11662
AW	-11663
At	-11664
Be	-11665
CR	-11666
DF	-11667
DG	-11668
DĐ	-11669
EB	-11670
FO	-11671
HX	-11672
IM	-11673
IS	-11674
Is	-11675
Jo	-11676
LM	-11677
Li	-11678
Me	-11679
ND	-11680
PC	-11681
PJ	-11682
PO	-11683
PR	-11684
VC	-11685
XD	-11686
aa	-11687
be	-11688
gy	-11689
ks	-11690
lk	-11691
nó	-11692
of	-11693
qo	-11694
rt	-11695
ré	-11696
sl	-11697
yp	-11698
ár	-11699
ổn	-11700
▁ì	-11701
▁ứ	-11702
,10	-11703
,15	-11704
,20	-11705
-12	-11706
-60	-11707
And	-11708
Col	-11709
ECT	-11710
Fad	-11711
IAC	-11712
IDA	-11713
IDG	-11714
Mor	-11715
OPA	-11716
Rev	-11717
SDF	-11718
Sáu	-11719
TDĐ	-11720
Tại	-11721
aac	-11722
aal	-11723
add	-11724
alt	-11725
ane	-11726
aqu	-11727
arf	-11728
arz	-11729
ask	-11730
asw	-11731
bio	-11732
bạn	-11733
cet	-11734
cro	-11735
edd	-11736
ehy	-11737
ele	-11738
ely	-11739
fam	-11740
far	-11741
flo	-11742
for	-11743
gas	-11744
hak	-11745
his	-11746
hnu	-11747
ibi	-11748
imo	-11749
ipe	-11750
irt	-11751
ize	-11752
kcd	-11753
lim	-11754
làm	-11755
mel	-11756
ngh	-11757
not	-11758
náp	-11759
nói	-11760
ogo	-11761
oie	-11762
ono	-11763
ooc	-11764
opp	-11765
ots	-11766
phê	-11767
pro	-11768
raf	-11769
rak	-11770
rex	-11771
rma	-11772
rou	-11773
ryp	-11774
sch	-11775
sin	-11776
ski	-11777
spr	-11778
thu	-11779
tia	-11780
tis	-11781
tra	-11782
tun	-11783
uan	-11784
uez	-11785
ugg	-11786
ull	-11787
una	-11788
uni	-11789
ups	-11790
ury	-11791
usi	-11792
ute	-11793
vel	-11794
vey	-11795
vit	-11796
von	-11797
vào	-11798
wal	-11799
ydr	-11800
Ông	-11801
ìều	-11802
đây	-11803
ễng	-11804
▁01	-11805
▁04	-11806
▁07	-11807
▁69	-11808
▁87	-11809
▁Cỗ	-11810
▁DA	-11811
▁Ez	-11812
▁Hè	-11813
▁Hổ	-11814
▁Ib	-11815
▁JQ	-11816
▁Km	-11817
▁PG	-11818
▁Ry	-11819
▁Rô	-11820
▁SH	-11821
▁Sơ	-11822
▁TT	-11823
▁Vỏ	-11824
▁cr	-11825
▁cy	-11826
▁cù	-11827
▁ex	-11828
▁fr	-11829
▁he	-11830
▁hù	-11831
▁hú	-11832
▁hế	-11833
▁iO	-11834
▁ka	-11835
▁kè	-11836
▁mg	-11837
▁mé	-11838
▁mụ	-11839
▁nc	-11840
▁nã	-11841
▁rê	-11842
▁se	-11843
▁si	-11844
▁sn	-11845
▁sỏ	-11846
▁sụ	-11847
▁sữ	-11848
▁tè	-11849
▁tề	-11850
▁uh	-11851
▁um	-11852
▁un	-11853
▁vế	-11854
▁xó	-11855
▁xố	-11856
▁ây	-11857
▁ăm	-11858
▁ải	-11859
▁ẻo	-11860
,500	-11861
,700	-11862
.300	-11863
2008	-11864
PASS	-11865
PTHX	-11866
Tech	-11867
acak	-11868
acks	-11869
affi	-11870
agel	-11871
agua	-11872
aiah	-11873
aide	-11874
aign	-11875
alai	-11876
alam	-11877
ales	-11878
aloa	-11879
amba	-11880
andi	-11881
anni	-11882
aram	-11883
ardi	-11884
arna	-11885
arsh	-11886
asio	-11887
assa	-11888
asti	-11889
atle	-11890
atte	-11891
ause	-11892
avia	-11893
ayel	-11894
bane	-11895
beat	-11896
bian	-11897
bone	-11898
born	-11899
băng	-11900
cany	-11901
chio	-11902
ckel	-11903
cker	-11904
ctor	-11905
deen	-11906
doch	-11907
edIn	-11908
edom	-11909
elet	-11910
elow	-11911
emey	-11912
endy	-11913
ense	-11914
entl	-11915
enya	-11916
enzo	-11917
erts	-11918
erty	-11919
erve	-11920
ethe	-11921
etic	-11922
etri	-11923
etta	-11924
etto	-11925
evar	-11926
eyla	-11927
fast	-11928
ffic	-11929
fort	-11930
hard	-11931
haus	-11932
hnan	-11933
iang	-11934
ichu	-11935
icks	-11936
ihar	-11937
ilda	-11938
ilon	-11939
iman	-11940
indi	-11941
inek	-11942
inin	-11943
ipeg	-11944
irut	-11945
ista	-11946
itia	-11947
itol	-11948
kmen	-11949
laza	-11950
lton	-11951
mand	-11952
maro	-11953
meen	-11954
mous	-11955
nder	-11956
ngar	-11957
nion	-11958
note	-11959
ocal	-11960
ocar	-11961
okov	-11962
olia	-11963
ombo	-11964
ooch	-11965
ooka	-11966
ooks	-11967
oooo	-11968
orah	-11969
oshi	-11970
ossy	-11971
otta	-11972
ovic	-11973
oảng	-11974
phần	-11975
rens	-11976
rica	-11977
rost	-11978
rrrr	-11979
rush	-11980
talk	-11981
tery	-11982
uble	-11983
ucci	-11984
uchu	-11985
umar	-11986
usta	-11987
uynh	-11988
vika	-11989
voir	-11990
wear	-11991
week	-11992
ylar	-11993
ylus	-11994
động	-11995
▁0.6	-11996
▁1,7	-11997
▁1,8	-11998
▁104	-11999
▁112	-12000
▁117	-12001
▁132	-12002
▁135	-12003
▁136	-12004
▁162	-12005
▁177	-12006
▁2,4	-12007
▁2.4	-12008
▁260	-12009
▁4.6	-12010
▁413	-12011
▁440	-12012
▁544	-12013
▁550	-12014
▁581	-12015
▁683	-12016
▁7.6	-12017
▁826	-12018
▁996	-12019
▁AOL	-12020
▁Ale	-12021
▁Aub	-12022
▁Avi	-12023
▁BBQ	-12024
▁Bam	-12025
▁Bat	-12026
▁Bec	-12027
▁Bom	-12028
▁Bào	-12029
▁Bạc	-12030
▁CNC	-12031
▁Cab	-12032
▁Cat	-12033
▁Cay	-12034
▁Cir	-12035
▁Cli	-12036
▁Cow	-12037
▁Cấm	-12038
▁Cất	-12039
▁Cặp	-12040
▁Cởi	-12041
▁Dah	-12042
▁Dec	-12043
▁Dậy	-12044
▁Dọn	-12045
▁Equ	-12046
▁Fah	-12047
▁Fat	-12048
▁Fel	-12049
▁GIờ	-12050
▁Ghế	-12051
▁Gon	-12052
▁Gor	-12053
▁Gắn	-12054
▁Huh	-12055
▁Hux	-12056
▁Huy	-12057
▁Hòn	-12058
▁Hạn	-12059
▁Hấp	-12060
▁Hệt	-12061
▁Hối	-12062
▁INK	-12063
▁IRC	-12064
▁Iss	-12065
▁Jol	-12066
▁Kai	-12067
▁Kew	-12068
▁Khỉ	-12069
▁Kil	-12070
▁Kip	-12071
▁LXD	-12072
▁Lil	-12073
▁Lol	-12074
▁Lux	-12075
▁Lát	-12076
▁Lắc	-12077
▁Lửa	-12078
▁MDG	-12079
▁MTA	-12080
▁MTT	-12081
▁McE	-12082
▁Mow	-12083
▁Máu	-12084
▁Mùi	-12085
▁Mạo	-12086
▁Mấu	-12087
▁Mội	-12088
▁NBC	-12089
▁NGH	-12090
▁Nay	-12091
▁Ngụ	-12092
▁Nye	-12093
▁Nãy	-12094
▁Nấu	-12095
▁Nối	-12096
▁OED	-12097
▁Oct	-12098
▁Orw	-12099
▁Ost	-12100
▁Oth	-12101
▁Oxi	-12102
▁PDF	-12103
▁Pab	-12104
▁Phí	-12105
▁Pos	-12106
▁Pou	-12107
▁RAM	-12108
▁Rab	-12109
▁Rag	-12110
▁Rit	-12111
▁Rou	-12112
▁Rét	-12113
▁Rời	-12114
▁Rủi	-12115
▁SEA	-12116
▁SIM	-12117
▁SOC	-12118
▁Say	-12119
▁Sem	-12120
▁Sex	-12121
▁Sey	-12122
▁Shh	-12123
▁Siy	-12124
▁Son	-12125
▁Sov	-12126
▁Súp	-12127
▁Sải	-12128
▁Sớm	-12129
▁TCN	-12130
▁TMS	-12131
▁TOR	-12132
▁Tap	-12133
▁Thả	-12134
▁Tik	-12135
▁Tiv	-12136
▁Tol	-12137
▁Tôm	-12138
▁Túi	-12139
▁Tật	-12140
▁Tốn	-12141
▁Vac	-12142
▁Vod	-12143
▁Voi	-12144
▁WOW	-12145
▁Who	-12146
▁XIX	-12147
▁Xen	-12148
▁Yuc	-12149
▁Yến	-12150
▁ack	-12151
▁art	-12152
▁asp	-12153
▁bậy	-12154
▁bẹp	-12155
▁chọ	-12156
▁chỏ	-12157
▁chớ	-12158
▁cor	-12159
▁cùm	-12160
▁cạm	-12161
▁cấn	-12162
▁dùm	-12163
▁dăm	-12164
▁dậm	-12165
▁dặc	-12166
▁gar	-12167
▁glu	-12168
▁gạc	-12169
▁gội	-12170
▁had	-12171
▁han	-12172
▁hiu	-12173
▁huh	-12174
▁húc	-12175
▁hạm	-12176
▁hển	-12177
▁hộc	-12178
▁hừm	-12179
▁inh	-12180
▁inv	-12181
▁key	-12182
▁loè	-12183
▁lèo	-12184
▁lét	-12185
▁líu	-12186
▁lơn	-12187
▁lạp	-12188
▁mor	-12189
▁mot	-12190
▁mui	-12191
▁mải	-12192
▁mỏm	-12193
▁mốt	-12194
▁mớm	-12195
▁mứt	-12196
▁nem	-12197
▁ngở	-12198
▁nhg	-12199
▁nhò	-12200
▁nhó	-12201
▁nhơ	-12202
▁nhử	-12203
▁nhữ	-12204
▁níu	-12205
▁nệm	-12206
▁nện	-12207
▁one	-12208
▁oun	-12209
▁pao	-12210
▁pol	-12211
▁qủa	-12212
▁rec	-12213
▁ris	-12214
▁set	-12215
▁sky	-12216
▁sum	-12217
▁syn	-12218
▁săm	-12219
▁sất	-12220
▁sần	-12221
▁thé	-12222
▁trư	-12223
▁tât	-12224
▁típ	-12225
▁tắn	-12226
▁tắp	-12227
▁tời	-12228
▁tủi	-12229
▁uhm	-12230
▁vin	-12231
▁váo	-12232
▁vãi	-12233
▁vèo	-12234
▁vén	-12235
▁vằn	-12236
▁vẵn	-12237
▁vọc	-12238
▁vờn	-12239
▁was	-12240
▁wug	-12241
▁xoè	-12242
▁xéo	-12243
▁xôn	-12244
▁xúp	-12245
▁xẩu	-12246
▁xắt	-12247
▁xịn	-12248
▁xốt	-12249
▁àoo	-12250
▁áng	-12251
▁Đay	-12252
▁Đùa	-12253
▁Đều	-12254
▁đúa	-12255
▁đản	-12256
▁đếu	-12257
▁đụn	-12258
0,000	-12259
5.000	-12260
Marie	-12261
Những	-12262
Sakka	-12263
Trung	-12264
abena	-12265
adesh	-12266
ahili	-12267
aille	-12268
amine	-12269
andal	-12270
andin	-12271
aniam	-12272
aniuk	-12273
anmar	-12274
annah	-12275
arias	-12276
arthy	-12277
ascon	-12278
ascus	-12279
atchi	-12280
ateau	-12281
atsby	-12282
aturk	-12283
atury	-12284
avela	-12285
aware	-12286
azzar	-12287
celos	-12288
chatz	-12289
eeker	-12290
egans	-12291
eggie	-12292
elkar	-12293
ellul	-12294
ensen	-12295
enson	-12296
eroin	-12297
ewell	-12298
fried	-12299
hovah	-12300
ilogy	-12301
inect	-12302
inoza	-12303
inska	-12304
insop	-12305
ipper	-12306
itect	-12307
itsha	-12308
itzer	-12309
iving	-12310
lanet	-12311
matic	-12312
nesty	-12313
ocene	-12314
ogito	-12315
ogram	-12316
omage	-12317
onies	-12318
oreau	-12319
other	-12320
owery	-12321
ozoin	-12322
phony	-12323
phrey	-12324
ponen	-12325
rahim	-12326
raphy	-12327
rived	-12328
trong	-12329
ubert	-12330
ulian	-12331
ution	-12332
▁1.25	-12333
▁1650	-12334
▁1759	-12335
▁1812	-12336
▁1870	-12337
▁1875	-12338
▁1880	-12339
▁1885	-12340
▁1908	-12341
▁1912	-12342
▁1915	-12343
▁1928	-12344
▁1932	-12345
▁1939	-12346
▁1944	-12347
▁1971	-12348
▁3500	-12349
▁AIDG	-12350
▁Abdi	-12351
▁Ache	-12352
▁Adel	-12353
▁Amen	-12354
▁Arav	-12355
▁Ardu	-12356
▁Aron	-12357
▁BASE	-12358
▁Baby	-12359
▁Bald	-12360
▁Bami	-12361
▁Biff	-12362
▁Bobo	-12363
▁Boyd	-12364
▁Boys	-12365
▁Bris	-12366
▁Bros	-12367
▁Bryn	-12368
▁Burt	-12369
▁Buộc	-12370
▁Bạch	-12371
▁Cage	-12372
▁Cart	-12373
▁Cath	-12374
▁Chan	-12375
▁Chat	-12376
▁Chau	-12377
▁Cháy	-12378
▁Clar	-12379
▁Club	-12380
▁Cran	-12381
▁Dart	-12382
▁Dass	-12383
▁Deqo	-12384
▁Dion	-12385
▁Diều	-12386
▁Dodi	-12387
▁Dogg	-12388
▁Easy	-12389
▁Eddi	-12390
▁Emil	-12391
▁FEED	-12392
▁FOXP	-12393
▁Fair	-12394
▁Fall	-12395
▁Fark	-12396
▁Fest	-12397
▁Forr	-12398
▁GCSE	-12399
▁Gaga	-12400
▁Ghem	-12401
▁Ging	-12402
▁Giov	-12403
▁Giud	-12404
▁Giày	-12405
▁Giây	-12406
▁Goro	-12407
▁Gour	-12408
▁Grim	-12409
▁Gánh	-12410
▁HIện	-12411
▁Haha	-12412
▁Heer	-12413
▁Heff	-12414
▁Hodg	-12415
▁Hole	-12416
▁Huao	-12417
▁Humb	-12418
▁Huấn	-12419
▁IDEO	-12420
▁Ishi	-12421
▁Jain	-12422
▁Jeep	-12423
▁Jorg	-12424
▁June	-12425
▁Kane	-12426
▁Kang	-12427
▁Khẩn	-12428
▁Kiki	-12429
▁Kimb	-12430
▁Knop	-12431
▁Krug	-12432
▁Kryp	-12433
▁Kyle	-12434
▁Kịch	-12435
▁Labs	-12436
▁Lama	-12437
▁Leop	-12438
▁Lest	-12439
▁Levy	-12440
▁Liều	-12441
▁Lois	-12442
▁Lomb	-12443
▁Luca	-12444
▁Luce	-12445
▁Luis	-12446
▁Lula	-12447
▁Lyne	-12448
▁Làng	-12449
▁Lũng	-12450
▁Lạch	-12451
▁Madh	-12452
▁Merz	-12453
▁Mess	-12454
▁Mies	-12455
▁Mira	-12456
▁Moby	-12457
▁Mund	-12458
▁Màng	-12459
▁Méli	-12460
▁Naná	-12461
▁Narc	-12462
▁Nazi	-12463
▁Neph	-12464
▁Ngăn	-12465
▁Nint	-12466
▁Noir	-12467
▁Nyad	-12468
▁Ocar	-12469
▁Oops	-12470
▁PCCC	-12471
▁Page	-12472
▁Pers	-12473
▁Pete	-12474
▁Phar	-12475
▁Phel	-12476
▁Phận	-12477
▁Poor	-12478
▁Pors	-12479
▁Prin	-12480
▁Purs	-12481
▁Quái	-12482
▁Quán	-12483
▁RTPJ	-12484
▁Rail	-12485
▁Rest	-12486
▁Reyk	-12487
▁Ritz	-12488
▁Rosa	-12489
▁Rudy	-12490
▁Rust	-12491
▁SIDA	-12492
▁Saks	-12493
▁Scud	-12494
▁Shai	-12495
▁Shea	-12496
▁Shhh	-12497
▁Shim	-12498
▁Shuk	-12499
▁Siza	-12500
▁Smol	-12501
▁Sole	-12502
▁Stux	-12503
▁Suss	-12504
▁Swaz	-12505
▁TEDY	-12506
▁TEEB	-12507
▁THPT	-12508
▁Tana	-12509
▁Tate	-12510
▁Ther	-12511
▁Thum	-12512
▁Thâm	-12513
▁Thúc	-12514
▁Thừa	-12515
▁Todd	-12516
▁Truy	-12517
▁Trúc	-12518
▁Tảng	-12519
▁Vann	-12520
▁Vaux	-12521
▁Vern	-12522
▁Vinh	-12523
▁Vusi	-12524
▁Ward	-12525
▁Wars	-12526
▁Wine	-12527
▁Winn	-12528
▁With	-12529
▁Wyss	-12530
▁Xcốt	-12531
▁Xuân	-12532
▁Yami	-12533
▁Yann	-12534
▁base	-12535
▁beta	-12536
▁bưng	-12537
▁chãi	-12538
▁chỉa	-12539
▁chớm	-12540
▁chực	-12541
▁cuội	-12542
▁cọng	-12543
▁diếp	-12544
▁dodo	-12545
▁dong	-12546
▁dượt	-12547
▁four	-12548
▁free	-12549
▁ghìm	-12550
▁hẵng	-12551
▁isop	-12552
▁kham	-12553
▁khập	-12554
▁kiếu	-12555
▁loan	-12556
▁luộc	-12557
▁lâng	-12558
▁lỉnh	-12559
▁miến	-12560
▁mãng	-12561
▁mướt	-12562
▁nach	-12563
▁nanô	-12564
▁ngạn	-12565
▁ngụp	-12566
▁nhin	-12567
▁nhíp	-12568
▁nhẩy	-12569
▁nhổm	-12570
▁núng	-12571
▁phào	-12572
▁phễu	-12573
▁phới	-12574
▁phực	-12575
▁rinh	-12576
▁ruổi	-12577
▁rưới	-12578
▁rượt	-12579
▁shot	-12580
▁ster	-12581
▁sulf	-12582
▁sắng	-12583
▁sụng	-12584
▁sủng	-12585
▁thàm	-12586
▁thía	-12587
▁thùa	-12588
▁thưở	-12589
▁thổn	-12590
▁toạc	-12591
▁trát	-12592
▁trét	-12593
▁trôn	-12594
▁trầy	-12595
▁tuốt	-12596
▁tành	-12597
▁viển	-12598
▁vung	-12599
▁vảng	-12600
▁whoa	-12601
▁wifi	-12602
▁wiki	-12603
▁xent	-12604
▁xkcd	-12605
▁xoăn	-12606
▁xuốt	-12607
▁ĐTDĐ	-12608
▁Đấng	-12609
▁đoái	-12610
▁đơợc	-12611
Andrea	-12612
Arthur	-12613
Israel	-12614
Sakkaf	-12615
aldine	-12616
arayan	-12617
athrin	-12618
avelas	-12619
beater	-12620
brandt	-12621
chwitz	-12622
eberry	-12623
edonia	-12624
elbrot	-12625
emeyaw	-12626
ennium	-12627
estern	-12628
ettner	-12629
exanol	-12630
ffeine	-12631
ingway	-12632
inness	-12633
istine	-12634
itchen	-12635
loween	-12636
olymer	-12637
ordion	-12638
perger	-12639
ricket	-12640
rusing	-12641
spring	-12642
tophan	-12643
uganan	-12644
uggets	-12645
vetica	-12646
waites	-12647
ydrate	-12648
yengar	-12649
▁1,100	-12650
▁1-2-3	-12651
▁1.600	-12652
▁10,20	-12653
▁10-15	-12654
▁15-20	-12655
▁46664	-12656
▁8,000	-12657
▁8.000	-12658
▁99.99	-12659
▁Adolf	-12660
▁Angry	-12661
▁Annan	-12662
▁Anony	-12663
▁Astro	-12664
▁Attia	-12665
▁Avril	-12666
▁Baehr	-12667
▁Barón	-12668
▁Basil	-12669
▁Bible	-12670
▁Bihar	-12671
▁Bliss	-12672
▁Botox	-12673
▁Bouba	-12674
▁Boyle	-12675
▁Chaos	-12676
▁Chiếm	-12677
▁Cisco	-12678
▁Citiz	-12679
▁Clare	-12680
▁Clint	-12681
▁Coles	-12682
▁Colin	-12683
▁Court	-12684
▁Crock	-12685
▁Cương	-12686
▁Cưỡng	-12687
▁Dalai	-12688
▁Daria	-12689
▁Delle	-12690
▁Delta	-12691
▁Dhabi	-12692
▁Dicke	-12693
▁Doris	-12694
▁Dream	-12695
▁Duflo	-12696
▁Duran	-12697
▁Dusty	-12698
▁Ebola	-12699
▁Emory	-12700
▁Enter	-12701
▁Etete	-12702
▁Ethel	-12703
▁FedEx	-12704
▁Frost	-12705
▁Gmail	-12706
▁Gooch	-12707
▁Hindi	-12708
▁Hitch	-12709
▁Hunts	-12710
▁Huyền	-12711
▁Image	-12712
▁Isaac	-12713
▁Islam	-12714
▁Janet	-12715
▁Jolly	-12716
▁Jorge	-12717
▁Kalen	-12718
▁Keats	-12719
▁Khoai	-12720
▁Khoản	-12721
▁Kings	-12722
▁Kirst	-12723
▁Kitty	-12724
▁Lanza	-12725
▁Large	-12726
▁Leroy	-12727
▁Leyla	-12728
▁Limor	-12729
▁Liver	-12730
▁Lloyd	-12731
▁Louie	-12732
▁Lower	-12733
▁Luyện	-12734
▁Maeda	-12735
▁McFad	-12736
▁Miami	-12737
▁Mikko	-12738
▁Mises	-12739
▁Miếng	-12740
▁Miệng	-12741
▁Monty	-12742
▁Mouss	-12743
▁Nacht	-12744
▁Nadia	-12745
▁Nigel	-12746
▁Ninth	-12747
▁Ockel	-12748
▁Opera	-12749
▁Oxfam	-12750
▁PRISM	-12751
▁Paley	-12752
▁Pearl	-12753
▁Pedro	-12754
▁Petra	-12755
▁Phăng	-12756
▁Porco	-12757
▁Print	-12758
▁Rebel	-12759
▁Reinh	-12760
▁Rider	-12761
▁Roche	-12762
▁Rosey	-12763
▁Rubin	-12764
▁Saima	-12765
▁Sambo	-12766
▁Sangu	-12767
▁Sethi	-12768
▁Shady	-12769
▁Sheep	-12770
▁Shelf	-12771
▁Shell	-12772
▁Sinek	-12773
▁Soren	-12774
▁Start	-12775
▁TEDxT	-12776
▁Tatum	-12777
▁Thang	-12778
▁Thẳng	-12779
▁Tiger	-12780
▁Tomas	-12781
▁Torah	-12782
▁Torre	-12783
▁Trust	-12784
▁Trúng	-12785
▁Trượt	-12786
▁Trạng	-12787
▁Tutsi	-12788
▁Velde	-12789
▁Vibro	-12790
▁Vodka	-12791
▁Wadah	-12792
▁Weber	-12793
▁Wendy	-12794
▁Woods	-12795
▁Yentl	-12796
▁bindi	-12797
▁board	-12798
▁bossy	-12799
▁break	-12800
▁bướng	-12801
▁chong	-12802
▁chắng	-12803
▁cloud	-12804
▁dingo	-12805
▁dượng	-12806
▁ghiền	-12807
▁ghềnh	-12808
▁halal	-12809
▁huyệt	-12810
▁khoải	-12811
▁kiếng	-12812
▁loáng	-12813
▁luyên	-12814
▁memes	-12815
▁muỗng	-12816
▁ngoai	-12817
▁ngoãn	-12818
▁nguôi	-12819
▁ngáng	-12820
▁nhang	-12821
▁nhiểu	-12822
▁nhình	-12823
▁nhạnh	-12824
▁nylon	-12825
▁pacak	-12826
▁phone	-12827
▁phàng	-12828
▁quyệt	-12829
▁quánh	-12830
▁rapam	-12831
▁retro	-12832
▁rôbốt	-12833
▁scrot	-12834
▁silic	-12835
▁slash	-12836
▁sonic	-12837
▁spect	-12838
▁thoai	-12839
▁thuât	-12840
▁thòng	-12841
▁titan	-12842
▁toang	-12843
▁toanh	-12844
▁trược	-12845
▁tuyêt	-12846
▁vodka	-12847
▁xuông	-12848
▁yards	-12849
Colombo	-12850
ahideen	-12851
athemba	-12852
enhower	-12853
enstock	-12854
merwear	-12855
olfsson	-12856
starter	-12857
tengill	-12858
usharam	-12859
▁16,000	-12860
▁19,000	-12861
▁70,000	-12862
▁Africa	-12863
▁Anders	-12864
▁Angelo	-12865
▁Aparna	-12866
▁Aubrey	-12867
▁Ayelet	-12868
▁Bailey	-12869
▁Balkan	-12870
▁Baloch	-12871
▁Baobab	-12872
▁Barcia	-12873
▁Beirut	-12874
▁Berlow	-12875
▁Bernie	-12876
▁Billie	-12877
▁Blaise	-12878
▁Borneo	-12879
▁Bowery	-12880
▁Brooke	-12881
▁Burton	-12882
▁Carlos	-12883
▁Carmen	-12884
▁Carrie	-12885
▁Castle	-12886
▁Center	-12887
▁Champs	-12888
▁Cirque	-12889
▁Copper	-12890
▁DEPTHX	-12891
▁DIYbio	-12892
▁Danone	-12893
▁Debora	-12894
▁Direct	-12895
▁Dunbar	-12896
▁Ecuado	-12897
▁Ernest	-12898
▁Fisher	-12899
▁Flints	-12900
▁French	-12901
▁Frieda	-12902
▁Ganson	-12903
▁Garone	-12904
▁Gatsby	-12905
▁German	-12906
▁Golden	-12907
▁Graves	-12908
▁Handel	-12909
▁Hillis	-12910
▁Hilton	-12911
▁Hocken	-12912
▁Homaro	-12913
▁IMPASS	-12914
▁Ingrid	-12915
▁Instit	-12916
▁Isaiah	-12917
▁Jaclyn	-12918
▁Jehane	-12919
▁Jetman	-12920
▁Jinsop	-12921
▁Jugaad	-12922
▁Kareem	-12923
▁Keller	-12924
▁Khaled	-12925
▁Khalil	-12926
▁Khuynh	-12927
▁Kinect	-12928
▁Koblin	-12929
▁Kohler	-12930
▁Krista	-12931
▁Kílian	-12932
▁Lahore	-12933
▁Lancet	-12934
▁Legacy	-12935
▁Levine	-12936
▁Lionel	-12937
▁Maasai	-12938
▁Market	-12939
▁Markus	-12940
▁Metric	-12941
▁Metrop	-12942
▁Minsky	-12943
▁Morgan	-12944
▁Mowgli	-12945
▁Munroe	-12946
▁Nature	-12947
▁Neuron	-12948
▁Newark	-12949
▁Nguyen	-12950
▁Ostrow	-12951
▁Pavlov	-12952
▁Pepper	-12953
▁Perony	-12954
▁Pleist	-12955
▁Poupon	-12956
▁Promet	-12957
▁Provid	-12958
▁Purple	-12959
▁Ramsey	-12960
▁Resour	-12961
▁Rhodes	-12962
▁Robben	-12963
▁Rodney	-12964
▁Rookie	-12965
▁Rupert	-12966
▁Sandor	-12967
▁Sandra	-12968
▁Santee	-12969
▁Scalia	-12970
▁Scatch	-12971
▁Scient	-12972
▁Seatle	-12973
▁Senior	-12974
▁Serbia	-12975
▁Shaffi	-12976
▁Sidney	-12977
▁Skylar	-12978
▁Soviet	-12979
▁Spider	-12980
▁Stress	-12981
▁Stuart	-12982
▁Suarez	-12983
▁Swartz	-12984
▁Tandon	-12985
▁Tilson	-12986
▁Tweets	-12987
▁Vander	-12988
▁Vascon	-12989
▁Velcro	-12990
▁Vienna	-12991
▁Vishna	-12992
▁Washin	-12993
▁Willie	-12994
▁Winter	-12995
▁Wurman	-12996
▁carboh	-12997
▁cellul	-12998
▁coltan	-12999
▁cookie	-13000
▁cyborg	-13001
▁dotcom	-13002
▁garage	-13003
▁gothic	-13004
▁heroin	-13005
▁hippie	-13006
▁khiễng	-13007
▁router	-13008
▁server	-13009
▁starsh	-13010
▁sunfat	-13011
▁throve	-13012
▁truồng	-13013
▁truờng	-13014
▁videos	-13015
▁violon	-13016
asteurii	-13017
enschatz	-13018
esterday	-13019
ollywood	-13020
▁600,000	-13021
▁Amnesty	-13022
▁Armenia	-13023
▁Ataturk	-13024
▁Aylward	-13025
▁Ballbot	-13026
▁Barnett	-13027
▁Bazooka	-13028
▁Bercken	-13029
▁Bigelow	-13030
▁Bismark	-13031
▁Blakley	-13032
▁Braille	-13033
▁Britlin	-13034
▁Brother	-13035
▁Burundi	-13036
▁Capitol	-13037
▁Chagall	-13038
▁Chaplin	-13039
▁Chapman	-13040
▁Chateau	-13041
▁Clooney	-13042
▁Damasio	-13043
▁Deborah	-13044
▁Dishman	-13045
▁Elliott	-13046
▁Emanuel	-13047
▁Ferrari	-13048
▁Gagarin	-13049
▁General	-13050
▁Gerhard	-13051
▁Googler	-13052
▁Gordian	-13053
▁Gourley	-13054
▁Grandin	-13055
▁Griffin	-13056
▁Hallelu	-13057
▁Hancock	-13058
▁Harford	-13059
▁Hawkins	-13060
▁Ibrahim	-13061
▁Israeli	-13062
▁Jawbone	-13063
▁Jeffrey	-13064
▁Jehovah	-13065
▁Jobrani	-13066
▁Johanna	-13067
▁Joubert	-13068
▁Juliana	-13069
▁Kitchen	-13070
▁Krishna	-13071
▁Krypton	-13072
▁Kwabena	-13073
▁Larsson	-13074
▁Leopold	-13075
▁Lestari	-13076
▁Mairead	-13077
▁Mankoff	-13078
▁Myanmar	-13079
▁Nabokov	-13080
▁Network	-13081
▁Ocarina	-13082
▁Orville	-13083
▁Pashtun	-13084
▁Pentium	-13085
▁Phyllis	-13086
▁Pradesh	-13087
▁Pratury	-13088
▁Pringle	-13089
▁Protein	-13090
▁Quentin	-13091
▁Railway	-13092
▁Randall	-13093
▁Raymond	-13094
▁Ritalin	-13095
▁Rodrigo	-13096
▁Rosalie	-13097
▁Safeway	-13098
▁Scandin	-13099
▁Schwarz	-13100
▁Sebasti	-13101
▁Shermer	-13102
▁Sinaloa	-13103
▁Sitopia	-13104
▁Skinner	-13105
▁Spinoza	-13106
▁Sumatra	-13107
▁Swahili	-13108
▁Swenson	-13109
▁TEDtalk	-13110
▁TEDxMid	-13111
▁Talking	-13112
▁Telecom	-13113
▁Thoreau	-13114
▁Tillett	-13115
▁Trilogy	-13116
▁Turkmen	-13117
▁Tuscany	-13118
▁Wallace	-13119
▁Whewell	-13120
▁Whitney	-13121
▁Winston	-13122
▁Yucatan	-13123
▁cassava	-13124
▁cricket	-13125
▁elegans	-13126
▁favelas	-13127
▁formald	-13128
▁hacking	-13129
▁heparin	-13130
▁khuyếch	-13131
▁lesbian	-13132
▁milimét	-13133
▁nanomet	-13134
▁network	-13135
▁nucleic	-13136
▁thrived	-13137
▁trumpet	-13138
▁xunphua	-13139
ayelitsha	-13140
uckerberg	-13141
▁Aberdeen	-13142
▁Abrahams	-13143
▁Adelaide	-13144
▁Agaricon	-13145
▁Albright	-13146
▁Angeline	-13147
▁Aquarius	-13148
▁Aremeyaw	-13149
▁Asperger	-13150
▁Bacillus	-13151
▁Baraniuk	-13152
▁Benedict	-13153
▁Bertrand	-13154
▁Brisbane	-13155
▁Buettner	-13156
▁Building	-13157
▁Catholic	-13158
▁Delaware	-13159
▁Eliasson	-13160
▁Ghemawat	-13161
▁Giovanni	-13162
▁Griffith	-13163
▁Hercules	-13164
▁Herschel	-13165
▁Huaorani	-13166
▁Humphrey	-13167
▁Hypponen	-13168
▁Jennings	-13169
▁Johnston	-13170
▁Limbaugh	-13171
▁LinkedIn	-13172
▁McCarthy	-13173
▁Medicine	-13174
▁Michaela	-13175
▁Michelin	-13176
▁Nachtwey	-13177
▁Nephites	-13178
▁Newsweek	-13179
▁Nintendo	-13180
▁Parikrma	-13181
▁Pierpont	-13182
▁Polaroid	-13183
▁Pranitha	-13184
▁Sharmeen	-13185
▁Shepherd	-13186
▁Thompson	-13187
▁Thwaites	-13188
▁Vannevar	-13189
▁Vauxhall	-13190
▁Winnipeg	-13191
▁biophony	-13192
▁caffeine	-13193
▁centimet	-13194
▁espresso	-13195
▁gigabyte	-13196
▁hemozoin	-13197
▁isoprene	-13198
▁kangaroo	-13199
▁nicotine	-13200
uganantham	-13201
▁Anatomage	-13202
▁Anonymous	-13203
▁Auschwitz	-13204
▁Benefield	-13205
▁Bluegrass	-13206
▁Dartmouth	-13207
▁Discovery	-13208
▁Financial	-13209
▁Francesca	-13210
▁Fransisco	-13211
▁Geraldine	-13212
▁Halloween	-13213
▁Helvetica	-13214
▁Hemingway	-13215
▁Hitchcock	-13216
▁Hutchison	-13217
▁Kamkwamba	-13218
▁MacArthur	-13219
▁Mashelkar	-13220
▁Nashville	-13221
▁Ockelford	-13222
▁Phthalate	-13223
▁Pragmatic	-13224
▁Recording	-13225
▁Rembrandt	-13226
▁Stratford	-13227
▁TEDxWomen	-13228
▁Treatment	-13229
▁Winehouse	-13230
▁adrenalin	-13231
▁apartheid	-13232
▁cellulose	-13233
▁chorusing	-13234
▁headphone	-13235
▁impactful	-13236
▁pasteurii	-13237
▁rapamycin	-13238
▁reCAPTCHA	-13239
▁trytophan	-13240
▁xenluloza	-13241
▁Belshazzar	-13242
▁Eisenhower	-13243
▁Federation	-13244
▁Guttenberg	-13245
▁Handspring	-13246
▁Juanderson	-13247
▁Karolinska	-13248
▁Leadbeater	-13249
▁Magellanic	-13250
▁Mandelbrot	-13251
▁Parusharam	-13252
▁Pettengill	-13253
▁Production	-13254
▁Siyathemba	-13255
▁Summerwear	-13256
▁adrenaline	-13257
▁homeopathy	-13258
▁retrovirus	-13259
▁sandwiches	-13260
▁Balochistan	-13261
▁Heatherwick	-13262
▁Hockenberry	-13263
▁Scandinavia	-13264
▁Vasconcelos	-13265
▁spectrogram	-13266
▁Johannesburg	-13267
▁Muruganantham	-13268
▁Worldchanging	-13269
-9	-13270
04	-13271
15	-13272
19	-13273
26	-13274
36	-13275
53	-13276
97	-13277
AE	-13278
AO	-13279
CD	-13280
CG	-13281
DD	-13282
DL	-13283
FC	-13284
FK	-13285
GB	-13286
GE	-13287
Gi	-13288
LL	-13289
La	-13290
Mỹ	-13291
Nó	-13292
OM	-13293
TT	-13294
TV	-13295
WF	-13296
XL	-13297
bô	-13298
cl	-13299
cr	-13300
cả	-13301
cỡ	-13302
dl	-13303
dn	-13304
fu	-13305
hy	-13306
hệ	-13307
họ	-13308
lr	-13309
mg	-13310
nê	-13311
oC	-13312
pp	-13313
sb	-13314
sm	-13315
tn	-13316
vy	-13317
ww	-13318
xc	-13319
yu	-13320
áz	-13321
âý	-13322
ăp	-13323
đã	-13324
ịm	-13325
▁ã	-13326
▁ù	-13327
▁ế	-13328
▁ố	-13329
,25	-13330
,48	-13331
,70	-13332
,80	-13333
-25	-13334
-30	-13335
-47	-13336
Ark	-13337
BeR	-13338
Get	-13339
HAT	-13340
ICE	-13341
Ind	-13342
Jac	-13343
MAP	-13344
Mot	-13345
ONG	-13346
PER	-13347
Pin	-13348
Pix	-13349
Rex	-13350
Sin	-13351
TML	-13352
Tây	-13353
Xon	-13354
aah	-13355
amo	-13356
anz	-13357
aoh	-13358
auk	-13359
aun	-13360
aut	-13361
bis	-13362
bit	-13363
boy	-13364
bíp	-13365
cac	-13366
cif	-13367
crô	-13368
dha	-13369
dom	-13370
dẫn	-13371
emb	-13372
eou	-13373
etn	-13374
eve	-13375
eya	-13376
fly	-13377
fox	-13378
gal	-13379
ges	-13380
gok	-13381
gíc	-13382
hay	-13383
hek	-13384
hhh	-13385
hip	-13386
hor	-13387
hru	-13388
học	-13389
iac	-13390
iah	-13391
ilo	-13392
irk	-13393
iêp	-13394
kas	-13395
lay	-13396
lid	-13397
loh	-13398
los	-13399
cz	-13400
ôt	-13401
ahu	-13402
dic	-13403
hun	-13404
iga	-13405
lik	-13406
lof	-13407
lợi	-13408
mes	-13409
mun	-13410
mus	-13411
mát	-13412
mức	-13413
nan	-13414
nar	-13415
nel	-13416
nge	-13417
ngu	-13418
nis	-13419
nom	-13420
nét	-13421
omy	-13422
oom	-13423
oty	-13424
oug	-13425
pee	-13426
phy	-13427
pil	-13428
raq	-13429
rốc	-13430
sal	-13431
ser	-13432
sia	-13433
sor	-13434
sét	-13435
tal	-13436
tay	-13437
tec	-13438
ubi	-13439
uct	-13440
ukh	-13441
urs	-13442
uya	-13443
uốm	-13444
wed	-13445
wid	-13446
wig	-13447
xic	-13448
yro	-13449
zen	-13450
zzz	-13451
zôn	-13452
ème	-13453
ìng	-13454
đặc	-13455
đổi	-13456
ướn	-13457
ườm	-13458
ợng	-13459
ứơc	-13460
▁7.	-13461
▁81	-13462
▁AL	-13463
▁BI	-13464
▁By	-13465
▁Bơ	-13466
▁Cư	-13467
▁Dw	-13468
▁EI	-13469
▁EO	-13470
▁EP	-13471
▁Ek	-13472
▁Gb	-13473
▁Gn	-13474
▁Gw	-13475
▁Hm	-13476
▁Hộ	-13477
▁Iw	-13478
▁JL	-13479
▁KI	-13480
▁Kê	-13481
▁Kỉ	-13482
▁LP	-13483
▁Lộ	-13484
▁Ns	-13485
▁Nơ	-13486
▁Nỗ	-13487
▁Og	-13488
▁Pô	-13489
▁RE	-13490
▁RF	-13491
▁RP	-13492
▁Rẽ	-13493
▁SG	-13494
▁Sứ	-13495
▁TI	-13496
▁TR	-13497
▁Té	-13498
▁Va	-13499
ns	-13500
vì	-13501
Ely	-13502
Hou	-13503
Hãy	-13504
avu	-13505
obe	-13506
ova	-13507
óoc	-13508
▁CM	-13509
▁XK	-13510
▁XY	-13511
▁Xà	-13512
▁Xê	-13513
▁av	-13514
▁fl	-13515
▁gạ	-13516
▁gả	-13517
▁hể	-13518
▁ke	-13519
▁kỏ	-13520
▁ló	-13521
▁lĩ	-13522
▁nỡ	-13523
▁ol	-13524
▁ri	-13525
▁rè	-13526
▁rú	-13527
▁rĩ	-13528
▁rỗ	-13529
▁sủ	-13530
▁vù	-13531
▁vạ	-13532
▁vầ	-13533
▁vỉ	-13534
▁àm	-13535
▁áy	-13536
▁ùa	-13537
▁úa	-13538
▁ĐI	-13539
▁đư	-13540
▁đọ	-13541
▁ướ	-13542
▁ại	-13543
▁ối	-13544
▁ới	-13545
,900	-13546
2006	-13547
2012	-13548
2013	-13549
Bake	-13550
Bird	-13551
Clau	-13552
DOPA	-13553
Iran	-13554
Jord	-13555
Kinn	-13556
LATO	-13557
LMCL	-13558
NIAC	-13559
Rock	-13560
Wafi	-13561
Walk	-13562
York	-13563
aXon	-13564
abia	-13565
abit	-13566
acab	-13567
acas	-13568
acle	-13569
adan	-13570
akul	-13571
alon	-13572
ampa	-13573
amín	-13574
andr	-13575
anet	-13576
anto	-13577
arke	-13578
arts	-13579
asia	-13580
asub	-13581
atti	-13582
aulk	-13583
avio	-13584
awes	-13585
beck	-13586
biot	-13587
boro	-13588
bury	-13589
chen	-13590
chev	-13591
ckey	-13592
czyc	-13593
date	-13594
ects	-13595
ecue	-13596
eezy	-13597
egen	-13598
elis	-13599
22	-13600
81	-13601
aww	-13602
ión	-13603
pad	-13604
utu	-13605
đan	-13606
arti	-13607
awak	-13608
back	-13609
edip	-13610
enbr	-13611
ency	-13612
enes	-13613
ents	-13614
eris	-13615
ertz	-13616
essa	-13617
etel	-13618
eter	-13619
etzs	-13620
eves	-13621
ewer	-13622
feld	-13623
ffen	-13624
flon	-13625
form	-13626
ftus	-13627
gado	-13628
gina	-13629
gras	-13630
hack	-13631
heus	-13632
hoff	-13633
iale	-13634
ibar	-13635
ichi	-13636
icki	-13637
icky	-13638
idan	-13639
idou	-13640
ieux	-13641
ific	-13642
ikes	-13643
iles	-13644
imes	-13645
imir	-13646
imit	-13647
inch	-13648
inet	-13649
iral	-13650
irin	-13651
itas	-13652
itos	-13653
kofa	-13654
less	-13655
life	-13656
lion	-13657
lish	-13658
look	-13659
lưới	-13660
mian	-13661
mite	-13662
mình	-13663
măng	-13664
mạng	-13665
nard	-13666
nezz	-13667
niez	-13668
ocol	-13669
oire	-13670
omer	-13671
ompe	-13672
onna	-13673
orde	-13674
ours	-13675
oyuz	-13676
pert	-13677
phen	-13678
plan	-13679
raen	-13680
rana	-13681
rent	-13682
repo	-13683
ribe	-13684
rict	-13685
ries	-13686
ring	-13687
rino	-13688
rise	-13689
rize	-13690
royo	-13691
rsus	-13692
sbaw	-13693
scap	-13694
side	-13695
sons	-13696
sore	-13697
stad	-13698
stem	-13699
62	-13700
no	-13701
Can	-13702
IDI	-13703
erg	-13704
gei	-13705
gov	-13706
izz	-13707
kon	-13708
kèm	-13709
uca	-13710
udi	-13711
yam	-13712
Pall	-13713
ekel	-13714
esco	-13715
gang	-13716
ituc	-13717
kinh	-13718
lers	-13719
mahl	-13720
oldt	-13721
onda	-13722
orov	-13723
pash	-13724
rain	-13725
shak	-13726
stoy	-13727
surf	-13728
teri	-13729
thay	-13730
theo	-13731
tive	-13732
town	-13733
tric	-13734
ttar	-13735
tuổi	-13736
ucha	-13737
uech	-13738
ughs	-13739
uhuh	-13740
uman	-13741
umin	-13742
unge	-13743
ungu	-13744
upsy	-13745
uras	-13746
urra	-13747
user	-13748
uyệt	-13749
vind	-13750
wing	-13751
woai	-13752
ylan	-13753
yola	-13754
ysus	-13755
được	-13756
đồng	-13757
▁0.7	-13758
▁106	-13759
▁108	-13760
▁111	-13761
▁114	-13762
▁123	-13763
▁127	-13764
▁129	-13765
▁134	-13766
▁144	-13767
▁148	-13768
▁154	-13769
▁174	-13770
▁184	-13771
▁2-5	-13772
▁2.2	-13773
▁207	-13774
▁232	-13775
▁249	-13776
▁256	-13777
▁3,4	-13778
▁3,7	-13779
▁3-5	-13780
▁390	-13781
▁4,6	-13782
▁405	-13783
▁5.5	-13784
▁529	-13785
▁8.1	-13786
▁ALS	-13787
▁Aba	-13788
▁Ada	-13789
▁Adv	-13790
▁Ald	-13791
▁Alh	-13792
▁Amb	-13793
▁Ami	-13794
▁Are	-13795
▁BCG	-13796
▁BPA	-13797
▁BRI	-13798
▁Bag	-13799
83	-13800
Pal	-13801
cle	-13802
gis	-13803
hiz	-13804
idd	-13805
máy	-13806
▁Ji	-13807
SAID	-13808
acha	-13809
anth	-13810
asma	-13811
enda	-13812
ersk	-13813
ezza	-13814
horn	-13815
ikha	-13816
ivak	-13817
izer	-13818
olog	-13819
onka	-13820
osis	-13821
port	-13822
usse	-13823
view	-13824
wana	-13825
▁0.3	-13826
▁1.9	-13827
▁539	-13828
▁Bed	-13829
▁Bey	-13830
▁Bio	-13831
▁Bip	-13832
▁Box	-13833
▁Buk	-13834
▁Bìa	-13835
▁Bút	-13836
▁Bạo	-13837
▁Bầy	-13838
▁Bền	-13839
▁Bới	-13840
▁Bụi	-13841
▁CSP	-13842
▁Cer	-13843
▁Cud	-13844
▁Cuk	-13845
▁Cus	-13846
▁Cut	-13847
▁Cân	-13848
▁Cốc	-13849
▁Cột	-13850
▁Củi	-13851
▁DEC	-13852
▁Dao	-13853
▁Dic	-13854
▁Dob	-13855
▁Dud	-13856
▁Dơi	-13857
▁Dạo	-13858
▁ETH	-13859
▁EXL	-13860
▁Eag	-13861
▁Edu	-13862
▁Eig	-13863
▁Eil	-13864
▁End	-13865
▁Eni	-13866
▁Eps	-13867
▁FLS	-13868
▁Fal	-13869
▁Fot	-13870
▁Fry	-13871
▁Fus	-13872
▁GHz	-13873
▁GSM	-13874
▁Geg	-13875
▁Ghê	-13876
▁Già	-13877
▁Gop	-13878
▁Het	-13879
▁Hew	-13880
▁How	-13881
▁Hur	-13882
▁Huỷ	-13883
▁Hèn	-13884
▁Hút	-13885
▁Hẻm	-13886
▁Hứa	-13887
▁ISS	-13888
▁Ike	-13889
▁Int	-13890
▁JFK	-13891
▁Jag	-13892
▁KHÔ	-13893
▁Kad	-13894
▁Kub	-13895
▁Led	-13896
▁Lek	-13897
▁Lep	-13898
▁Loa	-13899
,30	-13900
của	-13901
fts	-13902
▁hỉ	-13903
.500	-13904
City	-13905
Rast	-13906
ldus	-13907
nier	-13908
otho	-13909
outi	-13910
usha	-13911
▁1,1	-13912
▁3.2	-13913
▁320	-13914
▁530	-13915
▁6,5	-13916
▁6,8	-13917
▁620	-13918
▁BMA	-13919
▁Fut	-13920
▁Gev	-13921
▁Lal	-13922
▁Lor	-13923
▁Lot	-13924
▁Lus	-13925
▁Làn	-13926
▁Lắp	-13927
▁Lặn	-13928
▁Lợn	-13929
▁Lục	-13930
▁MSN	-13931
▁Moh	-13932
▁Mom	-13933
▁Muk	-13934
▁Mái	-13935
▁Már	-13936
▁Mâu	-13937
▁Môt	-13938
▁Mỉa	-13939
▁NDD	-13940
▁NPR	-13941
▁Nal	-13942
▁Nas	-13943
▁Nav	-13944
▁Neb	-13945
▁Ngũ	-13946
▁Ngự	-13947
▁Nho	-13948
▁Nhẹ	-13949
▁Nul	-13950
▁Nêu	-13951
▁OCR	-13952
▁PDA	-13953
▁PTT	-13954
▁PVC	-13955
▁Paz	-13956
▁Pel	-13957
▁Phe	-13958
▁Phó	-13959
▁Phù	-13960
▁Pis	-13961
▁Pix	-13962
▁Pog	-13963
▁Pud	-13964
▁Pul	-13965
▁Raq	-13966
▁Rum	-13967
▁Rus	-13968
▁Rác	-13969
▁Rùa	-13970
▁SBI	-13971
▁SEF	-13972
▁See	-13973
▁Soc	-13974
▁Sog	-13975
▁Săn	-13976
▁Sữa	-13977
▁Taz	-13978
▁Thợ	-13979
▁Toa	-13980
▁Trớ	-13981
▁Tud	-13982
▁Tup	-13983
▁Typ	-13984
▁Tzu	-13985
▁Túp	-13986
▁Tấn	-13987
▁Vas	-13988
▁Vig	-13989
▁Vos	-13990
▁Vác	-13991
▁Ván	-13992
▁Vắc	-13993
▁Vết	-13994
▁Vời	-13995
▁WWF	-13996
▁Wan	-13997
▁Wax	-13998
▁Woz	-13999
-18	-14000
-19	-14001
exe	-14002
pho	-14003
tốt	-14004
▁ze	-14005
▁ốp	-14006
Wire	-14007
lene	-14008
lier	-14009
lynn	-14010
moan	-14011
mpus	-14012
oora	-14013
otax	-14014
sees	-14015
span	-14016
uire	-14017
ular	-14018
uska	-14019
▁Eno	-14020
▁Fuk	-14021
▁Koy	-14022
▁Tât	-14023
▁XIn	-14024
▁Xia	-14025
▁Yes	-14026
▁Yip	-14027
▁Yên	-14028
▁acc	-14029
▁ami	-14030
▁apt	-14031
▁bèo	-14032
▁bùi	-14033
▁bết	-14034
▁caí	-14035
▁cir	-14036
▁cos	-14037
▁còm	-14038
▁cúa	-14039
▁cũa	-14040
▁cới	-14041
▁cứa	-14042
▁day	-14043
▁del	-14044
▁dep	-14045
▁die	-14046
▁dog	-14047
▁duh	-14048
▁dát	-14049
▁dũa	-14050
▁dổi	-14051
▁emp	-14052
▁fre	-14053
▁ghì	-14054
▁giã	-14055
▁giẻ	-14056
▁gly	-14057
▁gor	-14058
▁gua	-14059
▁gáp	-14060
▁găm	-14061
▁gẫm	-14062
▁gỏi	-14063
▁gới	-14064
▁hoỉ	-14065
▁hâu	-14066
▁hòi	-14067
▁hất	-14068
▁hớn	-14069
▁hớp	-14070
▁hởi	-14071
▁iPh	-14072
▁kHz	-14073
▁kit	-14074
▁lag	-14075
▁liu	-14076
▁lum	-14077
▁lài	-14078
▁lói	-14079
▁lạn	-14080
▁lất	-14081
▁lỏm	-14082
▁lởn	-14083
▁mou	-14084
▁mít	-14085
▁mói	-14086
▁mõm	-14087
▁mấp	-14088
▁mắm	-14089
▁mọn	-14090
▁nat	-14091
▁nhè	-14092
▁nhú	-14093
▁nhọ	-14094
▁nán	-14095
▁náy	-14096
▁nêm	-14097
▁núc	-14098
▁núp	-14099
MBC	-14100
avet	-14101
▁Hid	-14102
▁Tắt	-14103
▁kèo	-14104
▁nướ	-14105
▁nảo	-14106
▁nịt	-14107
▁our	-14108
▁pal	-14109
▁pes	-14110
▁quơ	-14111
▁quị	-14112
▁rát	-14113
▁rêu	-14114
▁ríu	-14115
▁rận	-14116
▁rắt	-14117
▁rứt	-14118
▁sam	-14119
▁sạm	-14120
▁sẫm	-14121
▁sẳn	-14122
▁sến	-14123
▁sột	-14124
▁sủi	-14125
▁sứt	-14126
▁tag	-14127
▁tau	-14128
▁thừ	-14129
▁tic	-14130
▁tùm	-14131
▁tẩu	-14132
▁tậm	-14133
▁tậu	-14134
▁tếu	-14135
▁tệp	-14136
▁vas	-14137
▁víu	-14138
▁vôn	-14139
▁vẩy	-14140
▁vẹo	-14141
▁vởi	-14142
▁vởn	-14143
▁vợi	-14144
▁xuý	-14145
▁xuể	-14146
▁xém	-14147
▁xẩm	-14148
▁xết	-14149
▁xỉa	-14150
▁xỉu	-14151
▁xối	-14152
▁xổm	-14153
▁xụp	-14154
▁yết	-14155
▁yểu	-14156
▁ôxi	-14157
▁Đua	-14158
▁Đèn	-14159
▁Đón	-14160
▁Đạp	-14161
▁Đẩy	-14162
▁Đập	-14163
▁đrô	-14164
▁đát	-14165
▁đáu	-14166
▁đât	-14167
▁đén	-14168
▁đăm	-14169
▁đẩu	-14170
▁đẫn	-14171
▁đẽo	-14172
▁đềm	-14173
▁đển	-14174
▁đỉa	-14175
▁đỏi	-14176
▁đớp	-14177
▁ướm	-14178
IMBeR	-14179
India	-14180
Jacob	-14181
Sinai	-14182
Toole	-14183
actal	-14184
acter	-14185
adian	-14186
aefer	-14187
aglid	-14188
aikum	-14189
aines	-14190
ainst	-14191
alind	-14192
alium	-14193
allam	-14194
allum	-14195
amets	-14196
amien	-14197
andie	-14198
andis	-14199
andra	-14200
angea	-14201
aquin	-14202
atham	-14203
ative	-14204
aungu	-14205
avere	-14206
azeal	-14207
brook	-14208
calfe	-14209
chant	-14210
child	-14211
clays	-14212
eckel	-14213
ectus	-14214
ehrli	-14215
ehyde	-14216
eisel	-14217
enton	-14218
enzie	-14219
erman	-14220
ernan	-14221
eshat	-14222
estig	-14223
etnam	-14224
ghing	-14225
hanti	-14226
herty	-14227
icken	-14228
icker	-14229
idone	-14230
iface	-14231
iform	-14232
igeru	-14233
ikeya	-14234
imbic	-14235
inkle	-14236
inkra	-14237
ision	-14238
issus	-14239
istol	-14240
itage	-14241
itesh	-14242
ithia	-14243
ities	-14244
ittin	-14245
laday	-14246
ladni	-14247
lehem	-14248
ngược	-14249
nheim	-14250
nhưng	-14251
obert	-14252
ocaly	-14253
ocopy	-14254
odiac	-14255
okite	-14256
oleon	-14257
olina	-14258
olloh	-14259
onton	-14260
orset	-14261
ortal	-14262
ottir	-14263
oturf	-14264
peace	-14265
quest	-14266
quila	-14267
quist	-14268
ramer	-14269
rbine	-14270
recht	-14271
regor	-14272
reyek	-14273
ridos	-14274
riram	-14275
ritte	-14276
rovia	-14277
scott	-14278
shirt	-14279
strom	-14280
taire	-14281
taiya	-14282
talum	-14283
tario	-14284
tocot	-14285
triệu	-14286
uahua	-14287
uania	-14288
ublin	-14289
uchad	-14290
umblr	-14291
unach	-14292
under	-14293
usman	-14294
utkin	-14295
utpro	-14296
vante	-14297
visor	-14298
xicam	-14299
▁13,7	-14300
▁13.7	-14301
▁1455	-14302
▁1700	-14303
▁1787	-14304
▁1824	-14305
▁1829	-14306
▁1840	-14307
▁1863	-14308
▁1871	-14309
▁1891	-14310
▁1903	-14311
▁1913	-14312
▁1931	-14313
▁1933	-14314
▁1934	-14315
▁1936	-14316
▁1955	-14317
▁2025	-14318
▁2027	-14319
▁2300	-14320
▁26.2	-14321
▁2600	-14322
▁5-10	-14323
▁5500	-14324
▁99.5	-14325
▁Aden	-14326
▁Afra	-14327
▁Aida	-14328
▁Alma	-14329
▁Alon	-14330
▁Amos	-14331
▁Anil	-14332
▁Arby	-14333
▁Arts	-14334
▁Astr	-14335
▁Atta	-14336
▁Axis	-14337
▁BRIC	-14338
▁Baba	-14339
▁Batt	-14340
▁Bees	-14341
▁Bela	-14342
▁Benz	-14343
▁Bhar	-14344
▁Bird	-14345
▁Biện	-14346
▁Blan	-14347
▁Bres	-14348
▁Brid	-14349
▁Bunn	-14350
▁Bính	-14351
▁Bùng	-14352
▁CBGB	-14353
▁CHAT	-14354
▁Cain	-14355
▁Capt	-14356
▁Card	-14357
▁Cary	-14358
▁Case	-14359
▁Cave	-14360
▁Chav	-14361
▁Ches	-14362
▁Chôn	-14363
▁Chút	-14364
▁Chấp	-14365
▁Chẩn	-14366
▁Chậm	-14367
▁Cody	-14368
▁Cole	-14369
▁Core	-14370
▁Căng	-14371
▁Cưng	-14372
▁Cướp	-14373
▁Cống	-14374
▁Dame	-14375
▁Dawn	-14376
▁Desk	-14377
▁Dist	-14378
▁Dong	-14379
▁Dozo	-14380
▁Dành	-14381
▁ESPN	-14382
▁Eben	-14383
▁Esta	-14384
▁Evil	-14385
▁Fior	-14386
▁Fish	-14387
▁Foot	-14388
▁From	-14389
▁Gadd	-14390
▁Gara	-14391
▁Gero	-14392
▁Give	-14393
▁Gián	-14394
▁Glob	-14395
▁Gonz	-14396
▁Goos	-14397
▁Gượm	-14398
▁HSBC	-14399
▁HTML	-14400
▁Hale	-14401
▁Hare	-14402
▁Hawa	-14403
▁Heis	-14404
▁Here	-14405
▁Hier	-14406
▁Hiên	-14407
▁Hiểm	-14408
▁Hoan	-14409
▁Holm	-14410
▁Holy	-14411
▁Hond	-14412
▁Hour	-14413
▁Huff	-14414
▁Hugo	-14415
▁Hùng	-14416
▁Jang	-14417
▁Just	-14418
▁Kanw	-14419
▁Kard	-14420
▁Katy	-14421
▁Khao	-14422
▁Khat	-14423
▁Khỏi	-14424
▁Khớp	-14425
▁Kidd	-14426
▁Klin	-14427
▁Kuhl	-14428
▁Kumb	-14429
▁Kurt	-14430
▁Kênh	-14431
▁LISA	-14432
▁Laet	-14433
▁Land	-14434
▁Lane	-14435
▁Lasc	-14436
▁Lehi	-14437
▁Live	-14438
▁Liêu	-14439
▁Lobo	-14440
▁Loạn	-14441
▁Loạt	-14442
▁Lành	-14443
▁Lưỡi	-14444
▁Lệnh	-14445
▁MARS	-14446
▁MIDI	-14447
▁MacD	-14448
▁Macy	-14449
▁Mala	-14450
▁Mald	-14451
▁Marg	-14452
▁Math	-14453
▁Maur	-14454
▁Mayo	-14455
▁Mega	-14456
▁Mein	-14457
▁Mend	-14458
▁Mind	-14459
▁Mini	-14460
▁Miwa	-14461
▁Mmmm	-14462
▁Moai	-14463
▁Mohr	-14464
▁Mond	-14465
▁Moss	-14466
▁Mota	-14467
▁Moto	-14468
▁Mượn	-14469
▁Mạnh	-14470
▁Mảng	-14471
▁NICE	-14472
▁Nell	-14473
▁Neop	-14474
▁Nghỉ	-14475
▁Ngẫu	-14476
▁Nhât	-14477
▁Nhắm	-14478
▁Niag	-14479
▁Nice	-14480
▁Nitơ	-14481
▁Nova	-14482
▁Nâng	-14483
▁Nặng	-14484
▁Olof	-14485
▁Omar	-14486
▁Omen	-14487
▁Oort	-14488
▁Oppe	-14489
▁Otto	-14490
▁Owen	-14491
▁Pari	-14492
▁Past	-14493
▁Pean	-14494
▁Penh	-14495
▁Penz	-14496
▁Pets	-14497
▁Phạn	-14498
▁Phốt	-14499
▁Piar	-14500
▁Pick	-14501
▁Piff	-14502
▁Pike	-14503
▁Pomp	-14504
▁Pune	-14505
▁Quét	-14506
▁Quận	-14507
▁Rafi	-14508
▁Ragh	-14509
▁Rahm	-14510
▁Rami	-14511
▁Rcif	-14512
▁Rees	-14513
▁Scar	-14514
▁Shiv	-14515
▁Side	-14516
▁Sina	-14517
▁Soto	-14518
▁Soát	-14519
▁Sund	-14520
▁Sung	-14521
▁Swan	-14522
▁Swat	-14523
▁Sạch	-14524
▁TEDA	-14525
▁TEDX	-14526
▁Tavi	-14527
▁Team	-14528
▁Test	-14529
▁Thác	-14530
▁Thám	-14531
▁Thưc	-14532
▁Thạc	-14533
▁Tivi	-14534
▁Tiêm	-14535
▁Toni	-14536
▁Trad	-14537
▁Trào	-14538
▁Trăm	-14539
▁Trừu	-14540
▁Tung	-14541
▁Twil	-14542
▁Twin	-14543
▁Tước	-14544
▁Vall	-14545
▁Vera	-14546
▁Vers	-14547
▁Vlad	-14548
▁Vành	-14549
▁Vững	-14550
▁WMAP	-14551
▁Waal	-14552
▁Wade	-14553
▁Wern	-14554
▁What	-14555
▁WiFi	-14556
▁Wing	-14557
▁Work	-14558
▁Xcot	-14559
▁Xoay	-14560
▁Yang	-14561
▁Yitz	-14562
▁agra	-14563
▁amar	-14564
▁amip	-14565
▁arch	-14566
▁argh	-14567
▁axon	-14568
▁ball	-14569
▁balo	-14570
▁benz	-14571
▁biều	-14572
▁buff	-14573
▁burn	-14574
▁bươm	-14575
▁bảnh	-14576
▁bẵng	-14577
▁bỉnh	-14578
▁bọng	-14579
▁chop	-14580
▁chít	-14581
▁chùa	-14582
▁chấy	-14583
▁chặc	-14584
▁chồm	-14585
▁chờn	-14586
▁cước	-14587
▁diên	-14588
▁diết	-14589
▁dúng	-14590
▁elip	-14591
▁ergo	-14592
▁ghém	-14593
▁giãi	-14594
▁giẫm	-14595
▁giếm	-14596
▁guốc	-14597
▁gằng	-14598
▁hash	-14599
▁hoay	-14600
▁hope	-14601
▁hoạc	-14602
▁huân	-14603
▁háng	-14604
▁hóoc	-14605
▁hĩnh	-14606
▁kheo	-14607
▁khâm	-14608
▁khổi	-14609
▁king	-14610
▁kình	-14611
▁kếch	-14612
▁lego	-14613
▁life	-14614
▁liến	-14615
▁loay	-14616
▁loud	-14617
▁loẹt	-14618
▁lạng	-14619
▁lẳng	-14620
▁lọng	-14621
▁lừng	-14622
▁maki	-14623
▁mash	-14624
▁mass	-14625
▁mega	-14626
▁menu	-14627
▁mile	-14628
▁myBO	-14629
▁ngac	-14630
▁ngổn	-14631
▁ngớt	-14632
▁nhuệ	-14633
▁nhíu	-14634
▁nhón	-14635
▁nhậu	-14636
▁nhẹm	-14637
▁nhẽo	-14638
▁nhọt	-14639
▁nhụt	-14640
▁nhữn	-14641
▁nice	-14642
▁ních	-14643
▁nựng	-14644
▁panô	-14645
▁phia	-14646
▁phiá	-14647
▁phui	-14648
▁phạn	-14649
▁phảm	-14650
▁phấp	-14651
▁pred	-14652
▁prof	-14653
▁prom	-14654
▁punk	-14655
▁quại	-14656
▁quằn	-14657
▁quẹo	-14658
▁rada	-14659
▁raku	-14660
▁roll	-14661
▁rupe	-14662
▁rình	-14663
▁rườm	-14664
▁skyd	-14665
▁soda	-14666
▁soạt	-14667
▁spec	-14668
▁suey	-14669
▁sượt	-14670
▁talk	-14671
▁thau	-14672
▁this	-14673
▁thoã	-14674
▁thui	-14675
▁thày	-14676
▁thìa	-14677
▁thẩy	-14678
▁thới	-14679
▁tiều	-14680
▁tren	-14681
▁tron	-14682
▁trám	-14683
▁trâm	-14684
▁trót	-14685
▁trĩu	-14686
▁trạc	-14687
▁trịa	-14688
▁trức	-14689
▁tuồn	-14690
▁tược	-14691
▁tượt	-14692
▁tấng	-14693
▁tịnh	-14694
▁uổng	-14695
▁vest	-14696
▁viêt	-14697
▁vãng	-14698
▁vông	-14699
▁vược	-14700
▁warf	-14701
▁will	-14702
▁xoài	-14703
▁zoom	-14704
▁ôliu	-14705
▁Điêu	-14706
▁Đích	-14707
▁Đùng	-14708
▁đanh	-14709
▁điếm	-14710
▁đạng	-14711
▁đẵng	-14712
▁đựoc	-14713
Canada	-14714
Claude	-14715
Jordan	-14716
Kinnon	-14717
Motion	-14718
Philip	-14719
Pinney	-14720
abytes	-14721
ainier	-14722
andria	-14723
anesia	-14724
angelo	-14725
apolis	-14726
athrow	-14727
ations	-14728
attery	-14729
attfel	-14730
ayette	-14731
bisson	-14732
bridge	-14733
burger	-14734
busier	-14735
cacbon	-14736
camole	-14737
celium	-14738
church	-14739
daipur	-14740
dinand	-14741
edipus	-14742
eleine	-14743
endish	-14744
eskind	-14745
essori	-14746
estein	-14747
ething	-14748
harata	-14749
ichini	-14750
ileaks	-14751
illion	-14752
indler	-14753
insula	-14754
ipping	-14755
itchie	-14756
itchik	-14757
lewood	-14758
lifert	-14759
nezzar	-14760
nisone	-14761
olitan	-14762
ompeii	-14763
onymus	-14764
otitan	-14765
ougall	-14766
pashin	-14767
rannus	-14768
rosten	-14769
ruvian	-14770
umping	-14771
vantes	-14772
weiser	-14773
worthy	-14774
ázquez	-14775
▁1,034	-14776
▁1,600	-14777
▁1,800	-14778
▁14000	-14779
▁2,200	-14780
▁30-40	-14781
▁5.300	-14782
▁7.500	-14783
▁75-25	-14784
▁9.000	-14785
▁Abbey	-14786
▁Acorn	-14787
▁Amund	-14788
▁Ashok	-14789
▁Asner	-14790
▁Aston	-14791
▁Atari	-14792
▁Atlas	-14793
▁Autom	-14794
▁Aziza	-14795
▁Bacha	-14796
▁Basin	-14797
▁Baumg	-14798
▁Bavel	-14799
▁Becky	-14800
▁Bioph	-14801
▁Blake	-14802
▁Blend	-14803
▁Boing	-14804
▁Brain	-14805
▁Braun	-14806
▁Brene	-14807
▁Brené	-14808
▁Brigh	-14809
▁Bront	-14810
▁Buech	-14811
▁CHúng	-14812
▁Cantu	-14813
▁Chamb	-14814
▁Chevy	-14815
▁Chiat	-14816
▁Chlam	-14817
▁Clive	-14818
▁Close	-14819
▁Crash	-14820
▁Crete	-14821
▁Cuddy	-14822
▁CyArk	-14823
▁Cường	-14824
▁Dance	-14825
▁Davos	-14826
▁Dench	-14827
▁Dimit	-14828
▁Donne	-14829
▁Dweck	-14830
▁Dylan	-14831
▁Eigen	-14832
▁Emdin	-14833
▁Ether	-14834
▁Excel	-14835
▁Faron	-14836
▁Faulk	-14837
▁Field	-14838
▁Floyd	-14839
▁Flynn	-14840
▁Force	-14841
▁Forte	-14842
▁Franz	-14843
▁Frida	-14844
▁Fulla	-14845
▁Gallo	-14846
▁Gavin	-14847
▁Geary	-14848
▁Geert	-14849
▁Getty	-14850
▁Girls	-14851
▁Giêsu	-14852
▁GoGet	-14853
▁Gucci	-14854
▁Haifa	-14855
▁Haven	-14856
▁Haydn	-14857
▁Healy	-14858
▁Henri	-14859
▁Hertz	-14860
▁Hirsh	-14861
▁Honor	-14862
▁Howey	-14863
▁Hoạch	-14864
▁Huyết	-14865
▁Indus	-14866
▁Inver	-14867
▁Issac	-14868
▁Jacek	-14869
▁Kafka	-14870
▁Kenny	-14871
▁Kimbo	-14872
▁Knopf	-14873
▁Kowan	-14874
▁Kraft	-14875
▁Krill	-14876
▁Kunst	-14877
▁Laenn	-14878
▁Lance	-14879
▁Legos	-14880
▁Lemon	-14881
▁Levin	-14882
▁Logan	-14883
▁Lucas	-14884
▁Lynch	-14885
▁Lélia	-14886
▁Lưỡng	-14887
▁Magaz	-14888
▁Magic	-14889
▁Malin	-14890
▁Marge	-14891
▁Maris	-14892
▁Masai	-14893
▁Matas	-14894
▁Meade	-14895
▁Metro	-14896
▁Micro	-14897
▁Mikey	-14898
▁Model	-14899
▁Moshe	-14900
▁Muniz	-14901
▁Music	-14902
▁Nerve	-14903
▁Nhứng	-14904
▁Noble	-14905
▁Novak	-14906
▁Obaid	-14907
▁Omega	-14908
▁PLATO	-14909
▁Paddy	-14910
▁Pagel	-14911
▁Palme	-14912
▁Payne	-14913
▁Perel	-14914
▁Petri	-14915
▁Phnom	-14916
▁Piano	-14917
▁Plaza	-14918
▁Pogue	-14919
▁Porto	-14920
▁Prada	-14921
▁Press	-14922
▁Quest	-14923
▁Quyến	-14924
▁Quãng	-14925
▁Rainb	-14926
▁Ramon	-14927
▁Reeve	-14928
▁Right	-14929
▁RoboC	-14930
▁Rosin	-14931
▁Round	-14932
▁Royce	-14933
▁SPECT	-14934
▁Sabia	-14935
▁Sacks	-14936
▁Sadik	-14937
▁Santo	-14938
▁Sasha	-14939
▁Seine	-14940
▁Seuss	-14941
▁Shiva	-14942
▁Shree	-14943
▁Shuff	-14944
▁Skoll	-14945
▁Smits	-14946
▁Sokol	-14947
▁Soler	-14948
▁Soyuz	-14949
▁Space	-14950
▁Spiel	-14951
▁Stacy	-14952
▁Stage	-14953
▁Stawi	-14954
▁Steel	-14955
▁TEDxA	-14956
▁TEDxD	-14957
▁Takei	-14958
▁Tampa	-14959
▁Teddy	-14960
▁Theme	-14961
▁Thiền	-14962
▁Thoát	-14963
▁Thính	-14964
▁Thạch	-14965
▁Thắng	-14966
▁Tikal	-14967
▁Troll	-14968
▁Trott	-14969
▁Tufts	-14970
▁Tuyển	-14971
▁Vardi	-14972
▁Varty	-14973
▁Veron	-14974
▁Vesta	-14975
▁Wayne	-14976
▁Widow	-14977
▁Wolfe	-14978
▁Wolff	-14979
▁Wonka	-14980
▁Woody	-14981
▁Wyatt	-14982
▁Yorke	-14983
▁Yossi	-14984
▁acids	-14985
▁alpha	-14986
▁bingo	-14987
▁bitch	-14988
▁block	-14989
▁catch	-14990
▁chuôt	-14991
▁chyện	-14992
▁chình	-14993
▁doang	-14994
▁euros	-14995
▁genit	-14996
▁giêng	-14997
▁gluon	-14998
▁gradi	-14999
▁gường	-15000
▁haiku	-15001
▁heads	-15002
▁huyễn	-15003
▁huênh	-15004
▁hường	-15005
▁inter	-15006
▁khiên	-15007
▁khoáy	-15008
▁khoắc	-15009
▁khoắn	-15010
▁khước	-15011
▁khộng	-15012
▁loạng	-15013
▁loảng	-15014
▁luống	-15015
▁multi	-15016
▁nacho	-15017
▁nghía	-15018
▁nhiền	-15019
▁nhiểm	-15020
▁nhuốm	-15021
▁nhếch	-15022
▁nhộng	-15023
▁nhựng	-15024
▁ounce	-15025
▁phage	-15026
▁phỉnh	-15027
▁phộng	-15028
▁pshoo	-15029
▁quạnh	-15030
▁ruồng	-15031
▁rường	-15032
▁snack	-15033
▁taiga	-15034
▁thiêt	-15035
▁thiếc	-15036
▁tiêng	-15037
▁triến	-15038
▁truất	-15039
▁trính	-15040
▁trạch	-15041
▁trạnh	-15042
▁trủng	-15043
▁xiềng	-15044
▁xoàng	-15045
▁xoảng	-15046
▁yadda	-15047
Baptist	-15048
Carlton	-15049
Elysees	-15050
Houston	-15051
acabana	-15052
america	-15053
anderas	-15054
andreou	-15055
asselas	-15056
asubram	-15057
aughter	-15058
aveteli	-15059
busters	-15060
ception	-15061
eflying	-15062
emaster	-15063
etzsche	-15064
formers	-15065
houette	-15066
illiard	-15067
itución	-15068
ization	-15069
lassian	-15070
minator	-15071
ography	-15072
olution	-15073
perware	-15074
stadter	-15075
surfing	-15076
tisland	-15077
uhahaha	-15078
western	-15079
▁11,000	-15080
▁13.000	-15081
▁32,000	-15082
▁36,000	-15083
▁400000	-15084
▁45,000	-15085
▁60.000	-15086
▁66.000	-15087
▁75,000	-15088
▁Agusta	-15089
▁AirPix	-15090
▁Alisch	-15091
▁Andres	-15092
▁Arcade	-15093
▁Arctic	-15094
▁Arroyo	-15095
▁Arusha	-15096
▁Arvind	-15097
▁Athens	-15098
▁Auenbr	-15099
▁Barrow	-15100
▁Beloit	-15101
▁Bengal	-15102
▁Besser	-15103
▁Bharti	-15104
▁Biggie	-15105
▁Bloggs	-15106
▁Boothe	-15107
▁Botero	-15108
▁Bowden	-15109
▁Buddha	-15110
▁Bukavu	-15111
▁Butler	-15112
▁Calvin	-15113
▁Caribê	-15114
▁Carole	-15115
▁Carrel	-15116
▁Cayman	-15117
▁Challe	-15118
▁Change	-15119
▁Cheney	-15120
▁Chinoy	-15121
▁Chitra	-15122
▁Chuông	-15123
▁Cobalt	-15124
▁Conrad	-15125
▁Crunch	-15126
▁Cukier	-15127
▁Curios	-15128
▁Custer	-15129
▁Damien	-15130
▁Dassen	-15131
▁Dayton	-15132
▁Declan	-15133
▁Denise	-15134
▁Diffee	-15135
▁Dodson	-15136
▁Dorset	-15137
▁Dunham	-15138
▁Dutton	-15139
▁Eagles	-15140
▁Eccles	-15141
▁Edmund	-15142
▁Eggers	-15143
▁Eileen	-15144
▁Eisner	-15145
▁Emmart	-15146
▁FILMCL	-15147
▁Fedeli	-15148
▁Ferren	-15149
▁Finkle	-15150
▁Garten	-15151
▁Gibbon	-15152
▁Gneezy	-15153
▁Gopnik	-15154
▁Gothic	-15155
▁Grammy	-15156
▁Habibi	-15157
▁Harbor	-15158
▁Harlan	-15159
▁Hawkes	-15160
▁Hebron	-15161
▁Hellum	-15162
▁Herman	-15163
▁Hermes	-15164
▁Hetain	-15165
▁Heuser	-15166
▁Hillel	-15167
▁Hobbes	-15168
▁Hobson	-15169
▁Hoover	-15170
▁Horner	-15171
▁Hughes	-15172
▁Indian	-15173
▁Inside	-15174
▁Ixraen	-15175
▁Jagger	-15176
▁Jaipur	-15177
▁Jayant	-15178
▁Julius	-15179
▁Julián	-15180
▁Kalash	-15181
▁Kallik	-15182
▁Kenyon	-15183
▁Kibaki	-15184
▁Kruger	-15185
▁Laptop	-15186
▁Lauder	-15187
▁Lawler	-15188
▁Lepage	-15189
▁Lesley	-15190
▁Loftus	-15191
▁Lolita	-15192
▁Louvre	-15193
▁Loyola	-15194
▁Madhav	-15195
▁Madoff	-15196
▁Maersk	-15197
▁Maezza	-15198
▁Mahler	-15199
▁Maison	-15200
▁Malone	-15201
▁Manila	-15202
▁Manuel	-15203
▁Marcin	-15204
▁Marley	-15205
▁Mather	-15206
▁Maurit	-15207
▁McCune	-15208
▁McGrew	-15209
▁Mechai	-15210
▁Mehico	-15211
▁Michal	-15212
▁Micron	-15213
▁Miriam	-15214
▁Mirren	-15215
▁Mister	-15216
▁Mugabe	-15217
▁Mulgan	-15218
▁Mullis	-15219
▁Murphy	-15220
▁Mwangi	-15221
▁Mwenda	-15222
▁Mysore	-15223
▁Nalini	-15224
▁Nanoty	-15225
▁Neshat	-15226
▁Nghiện	-15227
▁Ntaiya	-15228
▁Nuland	-15229
▁Obiang	-15230
▁Office	-15231
▁Paldin	-15232
▁Pangea	-15233
▁Patten	-15234
▁People	-15235
▁Perasa	-15236
▁Petrus	-15237
▁Phelps	-15238
▁Pisani	-15239
▁Plains	-15240
▁Planet	-15241
▁Police	-15242
▁Pollan	-15243
▁Portal	-15244
▁Powell	-15245
▁Praagh	-15246
▁Proust	-15247
▁Random	-15248
▁Reggie	-15249
▁Review	-15250
▁Ricard	-15251
▁Robots	-15252
▁Rogers	-15253
▁Rospil	-15254
▁Rotich	-15255
▁Runner	-15256
▁Safdie	-15257
▁Schrod	-15258
▁Scotch	-15259
▁Sergei	-15260
▁Sergio	-15261
▁Sharon	-15262
▁Sheikh	-15263
▁Shimon	-15264
▁Shukla	-15265
▁Siegel	-15266
▁Sietas	-15267
▁Simone	-15268
▁Singer	-15269
▁Slavin	-15270
▁Smolin	-15271
▁Snoopy	-15272
▁Sokoto	-15273
▁Soleil	-15274
▁Solove	-15275
▁Sophal	-15276
▁Spivak	-15277
▁Svante	-15278
▁System	-15279
▁Tahiti	-15280
▁Talmud	-15281
▁Talwar	-15282
▁Tammet	-15283
▁Target	-15284
▁Taymor	-15285
▁Terkel	-15286
▁Ticket	-15287
▁Tirana	-15288
▁Torres	-15289
▁Tracey	-15290
▁Tumblr	-15291
▁Turner	-15292
▁Tyrann	-15293
▁Vibrio	-15294
▁Viktor	-15295
▁Vishnu	-15296
▁Volksw	-15297
▁Warhol	-15298
▁Wehrli	-15299
▁Willis	-15300
▁Wonder	-15301
▁Woznia	-15302
▁biogas	-15303
▁choạng	-15304
▁cogito	-15305
▁domain	-15306
▁double	-15307
▁emails	-15308
▁favela	-15309
▁flupsy	-15310
▁format	-15311
▁global	-15312
▁hockey	-15313
▁hormon	-15314
▁khoàng	-15315
▁khuông	-15316
▁kỏoảng	-15317
▁lexico	-15318
▁limbic	-15319
▁methyl	-15320
▁nghiêp	-15321
▁oxalat	-15322
▁plasma	-15323
▁polyme	-15324
▁rapper	-15325
▁risper	-15326
▁sapien	-15327
▁shekel	-15328
▁slides	-15329
▁stereo	-15330
▁sunfua	-15331
▁update	-15332
▁vector	-15333
▁yaourt	-15334
▁zipcar	-15335
Baptiste	-15336
acharias	-15337
agliding	-15338
appiness	-15339
ewilding	-15340
iroxicam	-15341
itecture	-15342
otaxites	-15343
rabowski	-15344
▁155.000	-15345
▁160.000	-15346
▁300.000	-15347
▁450.000	-15348
▁500.000	-15349
▁600.000	-15350
▁Adinkra	-15351
▁Agarwal	-15352
▁Aravena	-15353
▁Arduino	-15354
▁Arianna	-15355
▁Arunach	-15356
▁Ashanti	-15357
▁Ashburn	-15358
▁Aurasma	-15359
▁Baldwin	-15360
▁Bamiyan	-15361
▁Barnaby	-15362
▁Biology	-15363
▁Boswana	-15364
▁Brahimi	-15365
▁Bristol	-15366
▁Britney	-15367
▁CLIMBeR	-15368
▁Cacilda	-15369
▁Caliban	-15370
▁Camilla	-15371
▁Capgras	-15372
▁Caracas	-15373
▁Carlton	-15374
▁Carroll	-15375
▁Cartaya	-15376
▁Charley	-15377
▁Chicken	-15378
▁Chladni	-15379
▁Citizen	-15380
▁Clayton	-15381
▁Colbert	-15382
▁Coleman	-15383
▁Collier	-15384
▁Deavere	-15385
▁Dennett	-15386
▁Deskbar	-15387
▁Dickens	-15388
▁EcoRock	-15389
▁Ecuador	-15390
▁Eduardo	-15391
▁English	-15392
▁Epsilon	-15393
▁Estelle	-15394
▁Express	-15395
▁Fernand	-15396
▁Firefox	-15397
▁Fischer	-15398
▁Forever	-15399
▁Freedom	-15400
▁Gallery	-15401
▁Ganesha	-15402
▁Garniez	-15403
▁Garrett	-15404
▁Giudice	-15405
▁Hadrian	-15406
▁Hanczyc	-15407
▁Hartman	-15408
▁Heerden	-15409
▁Hercles	-15410
▁Hexanol	-15411
▁Hiroshi	-15412
▁Hobsbaw	-15413
▁Hodgman	-15414
▁Hogwart	-15415
▁Insulin	-15416
▁Jakarta	-15417
▁Joaquin	-15418
▁Khanfar	-15419
▁Kiliman	-15420
▁Kipling	-15421
▁Kirsten	-15422
▁Lascaux	-15423
▁Lesotho	-15424
▁Letters	-15425
▁Longden	-15426
▁Lowline	-15427
▁Maasais	-15428
▁Madonna	-15429
▁Mallory	-15430
▁Managua	-15431
▁Mariana	-15432
▁Markham	-15433
▁Maureen	-15434
▁Maxwell	-15435
▁McKenna	-15436
▁Melcher	-15437
▁Micheal	-15438
▁Milgram	-15439
▁Morieux	-15440
▁Moussao	-15441
▁Mundano	-15442
▁Murdoch	-15443
▁Márquez	-15444
▁NewYork	-15445
▁Niagara	-15446
▁Nicklen	-15447
▁Nielsen	-15448
▁Octavio	-15449
▁Oedipus	-15450
▁Okolloh	-15451
▁Olympus	-15452
▁Ontario	-15453
▁Origami	-15454
▁Othello	-15455
▁Outlook	-15456
▁Parikma	-15457
▁Penzias	-15458
▁Pharaoh	-15459
▁Pickles	-15460
▁Pompeii	-15461
▁Pratham	-15462
▁Proctor	-15463
▁Pythago	-15464
▁Ramadan	-15465
▁Ramirez	-15466
▁Ricardo	-15467
▁Ritchie	-15468
▁Rolling	-15469
▁Rushing	-15470
▁STriDER	-15471
▁Saatchi	-15472
▁Salgado	-15473
▁Sanford	-15474
▁Sankofa	-15475
▁Sapling	-15476
▁Sarawak	-15477
▁Sevitha	-15478
▁Shannon	-15479
▁Sheikha	-15480
▁Sherwin	-15481
▁Shigeru	-15482
▁Shinola	-15483
▁Shriram	-15484
▁Slutkin	-15485
▁Southam	-15486
▁Spitzer	-15487
▁Stamets	-15488
▁Steffen	-15489
▁Steindl	-15490
▁Steiner	-15491
▁Stevens	-15492
▁Stuxnet	-15493
▁Sussman	-15494
▁Templar	-15495
▁Thandie	-15496
▁Theodor	-15497
▁Todorov	-15498
▁Tolstoy	-15499
▁Tribeca	-15500
▁Tribune	-15501
▁Valenti	-15502
▁Ventura	-15503
▁Vietnam	-15504
▁Village	-15505
▁Virgina	-15506
▁Vitamin	-15507
▁Volkman	-15508
▁Walkman	-15509
▁Wernick	-15510
▁Witness	-15511
▁Wolpert	-15512
▁Yitzhak	-15513
▁aptamer	-15514
▁erectus	-15515
▁gelatin	-15516
▁gorilla	-15517
▁iPhones	-15518
▁insideo	-15519
▁marmite	-15520
▁methane	-15521
▁mouflon	-15522
▁profile	-15523
▁reading	-15524
▁scandal	-15525
▁sulfate	-15526
▁turbine	-15527
▁twitter	-15528
▁wasichu	-15529
attfelder	-15530
foundland	-15531
graphical	-15532
ingsworth	-15533
tocotylus	-15534
zbekistan	-15535
▁10,20,30	-15536
▁Adriatic	-15537
▁Ahmadine	-15538
▁Amstrong	-15539
▁Banderas	-15540
▁Bangoora	-15541
▁Barclays	-15542
▁Bavelier	-15543
▁Beaufort	-15544
▁Beauvoir	-15545
▁Bitcoins	-15546
▁Bolinsky	-15547
▁Boniface	-15548
▁Breazeal	-15549
▁Buchanan	-15550
▁Buechley	-15551
▁Burstein	-15552
▁Campaign	-15553
▁Carnival	-15554
▁Charmian	-15555
▁Chinanet	-15556
▁CityWalk	-15557
▁Columbus	-15558
▁Cristine	-15559
▁Crockett	-15560
▁Damascus	-15561
▁Danielle	-15562
▁Dionysus	-15563
▁District	-15564
▁Electron	-15565
▁Emiliano	-15566
▁Famillia	-15567
▁Faulkner	-15568
▁Fotokite	-15569
▁Frederic	-15570
▁Freeland	-15571
▁Gevinson	-15572
▁Guinness	-15573
▁Hadfield	-15574
▁Heathrow	-15575
▁Heritage	-15576
▁Highline	-15577
▁Holladay	-15578
▁Honduras	-15579
▁Humboldt	-15580
▁Kadinsky	-15581
▁Kaminsky	-15582
▁Khatanga	-15583
▁Krishnan	-15584
▁Laetitia	-15585
▁Laurence	-15586
▁Lupashin	-15587
▁Magritte	-15588
▁Mahattan	-15589
▁Matreyek	-15590
▁McCallum	-15591
▁McFadden	-15592
▁Megaffic	-15593
▁Melville	-15594
▁Merchant	-15595
▁Metcalfe	-15596
▁Michelle	-15597
▁Missmahl	-15598
▁Monrovia	-15599
▁Motorola	-15600
▁Musallam	-15601
▁Napoleon	-15602
▁Nebuchad	-15603
▁Neoprene	-15604
▁Netscape	-15605
▁Nicolaus	-15606
▁Pallotta	-15607
▁Pompidou	-15608
▁Rachelle	-15609
▁Rasselas	-15610
▁ReMotion	-15611
▁Restrepo	-15612
▁Robotics	-15613
▁Rosalind	-15614
▁Sandwich	-15615
▁Saturday	-15616
▁Savannah	-15617
▁Schaefer	-15618
▁Scottish	-15619
▁Selinger	-15620
▁Shapshak	-15621
▁Superior	-15622
▁Superman	-15623
▁Swaniker	-15624
▁TEDIndia	-15625
▁TEDYouth	-15626
▁Takaungu	-15627
▁Talithia	-15628
▁Tapscott	-15629
▁Tunguska	-15630
▁Twilight	-15631
▁Valencia	-15632
▁Vladimir	-15633
▁Washburn	-15634
▁Wolfgang	-15635
▁cacbonic	-15636
▁clathrin	-15637
▁fusiform	-15638
▁kilogram	-15639
▁laughing	-15640
▁micromet	-15641
▁mycelium	-15642
▁neutrino	-15643
▁protocol	-15644
▁tantalum	-15645
▁titanium	-15646
▁warfarin	-15647
hemoglobin	-15648
▁Alaveteli	-15649
▁Astroturf	-15650
▁Atlassian	-15651
▁Beckstrom	-15652
▁Bethlehem	-15653
▁Bollywood	-15654
▁Budweiser	-15655
▁Caledonia	-15656
▁Canaletto	-15657
▁Cavendish	-15658
▁Cervantes	-15659
▁Chihuahua	-15660
▁Chlamydia	-15661
▁Christien	-15662
▁Christine	-15663
▁Corbusier	-15664
▁Cranbrook	-15665
▁Diamandis	-15666
▁Doolittle	-15667
▁Dougherty	-15668
▁Economics	-15669
▁Etheridge	-15670
▁Ferdinand	-15671
▁Firestein	-15672
▁Friedrich	-15673
▁Greenspan	-15674
▁Harbisson	-15675
▁Hazlewood	-15676
▁Heffernan	-15677
▁Inception	-15678
▁InteraXon	-15679
▁Juilliard	-15680
▁Kanwisher	-15681
▁Kartikeya	-15682
▁Kymaerica	-15683
▁Lafayette	-15684
▁Libeskind	-15685
▁Lithuania	-15686
▁Livermore	-15687
▁MacKinnon	-15688
▁Mackenzie	-15689
▁Madeleine	-15690
▁Mallifert	-15691
▁Marketing	-15692
▁McDougall	-15693
▁Mountains	-15694
▁Narcissus	-15695
▁Nicolelis	-15696
▁Nietzsche	-15697
▁Resources	-15698
▁Rodriguez	-15699
▁Schelling	-15700
▁Schindler	-15701
▁Slaughter	-15702
▁SmartBird	-15703
▁Spielberg	-15704
▁Steinberg	-15705
▁Telecomix	-15706
▁Tinkering	-15707
▁Velázquez	-15708
▁Vitruvian	-15709
▁Washinton	-15710
▁Watergate	-15711
▁Yesterday	-15712
▁accordion	-15713
▁androsten	-15714
▁electrons	-15715
▁guacamole	-15716
▁photocopy	-15717
▁skydiving	-15718
▁starshade	-15719
▁Adventists	-15720
▁Alessandro	-15721
▁Alexandria	-15722
▁Anatotitan	-15723
▁Balasubram	-15724
▁Copacabana	-15725
▁Denisovans	-15726
▁Flintstone	-15727
▁Fullbright	-15728
▁Gooseberry	-15729
▁Greenpeace	-15730
▁Heisenberg	-15731
▁Hieronymus	-15732
▁Homeopathy	-15733
▁Huffington	-15734
▁Jacqueline	-15735
▁Kryptonite	-15736
▁Michoacana	-15737
▁Millennium	-15738
▁Montessori	-15739
▁Papandreou	-15740
▁Prometheus	-15741
▁Reichental	-15742
▁Rustichini	-15743
▁Streetview	-15744
▁TEDxSydney	-15745
▁Terminator	-15746
▁Tupperware	-15747
▁Waterhouse	-15748
▁Whitesides	-15749
▁Williamson	-15750
▁genitalium	-15751
▁globaloney	-15752
▁prednisone	-15753
▁Arunachalam	-15754
▁Auenbrugger	-15755
▁Burntisland	-15756
▁Gegenschatz	-15757
▁Glattfelder	-15758
▁Kallikuppam	-15759
▁Kickstarter	-15760
▁Mahabharata	-15761
▁Paralympics	-15762
▁Phillipines	-15763
▁Pleistocene	-15764
▁Productions	-15765
▁Providencia	-15766
▁Schrodinger	-15767
▁TEDxHouston	-15768
▁TEDxRainier	-15769
▁Wonderbread	-15770
▁hydrocacbon	-15771
▁hydrocarbon	-15772
▁risperidone	-15773
▁Christchurch	-15774
▁Constitución	-15775
▁Michelangelo	-15776
▁Nanotyrannus	-15777
▁Newfoundland	-15778
▁Peterborough	-15779
▁Prototaxites	-15780
▁Schwarzchild	-15781
▁Soloveitchik	-15782
▁Ticketmaster	-15783
▁Transformers	-15784
▁Turkmenistan	-15785
▁Williamsburg	-15786
▁carbohydrate	-15787
▁formaldehyde	-15788
▁insideoutpro	-15789
▁Killingsworth	-15790
▁Nebuchadnezzar	-15791
▁Balasubramaniam	-15792
▁lexicographical	-15793
Do	-15794
bà	-15795
,04	-15796
,16	-15797
,17	-15798
,19	-15799
HQ	-15800
-83	-15801
.12	-15802
.95	-15803
00-	-15804
380	-15805
456	-15806
8,7	-15807
837	-15808
928	-15809
CSF	-15810
DRA	-15811
EPF	-15812
ERP	-15813
For	-15814
LAS	-15815
LIS	-15816
LPC	-15817
MAO	-15818
OWE	-15819
bil	-15820
bos	-15821
dis	-15822
fat	-15823
fis	-15824
fit	-15825
gaa	-15826
geb	-15827
gyz	-15828
hợp	-15829
iat	-15830
icz	-15831
idt	-15832
mặt	-15833
oor	-15834
phr	-15835
tml	-15836
ttp	-15837
vat	-15838
wei	-15839
www	-15840
xít	-15841
ôma	-15842
ôzơ	-15843
▁BV	-15844
▁DW	-15845
▁Dị	-15846
▁EV	-15847
▁FC	-15848
▁FD	-15849
▁KG	-15850
▁Mì	-15851
▁WE	-15852
▁Ws	-15853
▁zz	-15854
▁ỉn	-15855
▁ủn	-15856
,041	-15857
,100	-15858
,230	-15859
,760	-15860
,849	-15861
,931	-15862
-400	-15863
.125	-15864
.212	-15865
.226	-15866
.800	-15867
.862	-15868
2007	-15869
2009	-15870
8,71	-15871
8245	-15872
ASDF	-15873
Atti	-15874
Char	-15875
DRAS	-15876
Dopa	-15877
Dunn	-15878
Hurt	-15879
Iraq	-15880
John	-15881
Lees	-15882
MeLa	-15883
Meng	-15884
NAMA	-15885
NITA	-15886
SDAQ	-15887
Soon	-15888
TERP	-15889
Thật	-15890
aaaa	-15891
aitz	-15892
akht	-15893
alek	-15894
amia	-15895
anks	-15896
atic	-15897
awww	-15898
brey	-15899
mê	-15900
afe	-15901
arh	-15902
aum	-15903
bay	-15904
iab	-15905
ido	-15906
oia	-15907
▁GM	-15908
▁GP	-15909
▁Gỗ	-15910
▁Há	-15911
▁Kg	-15912
▁PJ	-15913
▁cõ	-15914
▁nk	-15915
bubi	-15916
chet	-15917
chết	-15918
coli	-15919
cusi	-15920
czan	-15921
dorp	-15922
ears	-15923
eeea	-15924
eggy	-15925
eive	-15926
elia	-15927
elin	-15928
emar	-15929
emia	-15930
emin	-15931
emis	-15932
enbo	-15933
eneu	-15934
etch	-15935
ewan	-15936
eysc	-15937
faas	-15938
hasa	-15939
hous	-15940
idic	-15941
iksz	-15942
ikwa	-15943
inov	-15944
isan	-15945
isen	-15946
iyah	-15947
karz	-15948
khác	-15949
khắc	-15950
lano	-15951
litt	-15952
lusc	-15953
maid	-15954
ngat	-15955
noff	-15956
odle	-15957
olla	-15958
opic	-15959
oron	-15960
oult	-15961
ouse	-15962
pets	-15963
pool	-15964
ratz	-15965
rban	-15966
roch	-15967
rows	-15968
rump	-15969
scot	-15970
send	-15971
shhh	-15972
sote	-15973
thuế	-15974
tyne	-15975
têin	-15976
ukhd	-15977
ukov	-15978
uppy	-15979
uyêt	-15980
varo	-15981
veni	-15982
wani	-15983
wauk	-15984
woma	-15985
xmin	-15986
điêu	-15987
▁0,1	-15988
▁0,2	-15989
▁0,6	-15990
▁050	-15991
▁1-8	-15992
▁124	-15993
▁204	-15994
▁210	-15995
▁3,2	-15996
▁3.0	-15997
▁3.4	-15998
▁4,1	-15999
612	-16000
Eng	-16001
eer	-16002
fed	-16003
ker	-16004
nén	-16005
olo	-16006
ván	-16007
xen	-16008
ớng	-16009
▁AN	-16010
▁Lạ	-16011
▁Lổ	-16012
▁rủ	-16013
bonh	-16014
dard	-16015
iter	-16016
quat	-16017
▁380	-16018
▁4.0	-16019
▁4.4	-16020
▁457	-16021
▁480	-16022
▁498	-16023
▁533	-16024
▁6-7	-16025
▁6.7	-16026
▁7-8	-16027
▁7.7	-16028
▁722	-16029
▁787	-16030
▁8.2	-16031
▁8.3	-16032
▁880	-16033
▁9.3	-16034
▁987	-16035
▁AAA	-16036
▁ACR	-16037
▁AMD	-16038
▁ARV	-16039
▁Aam	-16040
▁Agu	-16041
▁Ayk	-16042
▁BAS	-16043
▁BRT	-16044
▁CRP	-16045
▁Cận	-16046
▁DSM	-16047
▁Dil	-16048
▁Doc	-16049
▁Dẫn	-16050
▁EPF	-16051
▁Esp	-16052
▁Ett	-16053
▁Exp	-16054
▁FAA	-16055
▁FAO	-16056
▁FDI	-16057
▁Fit	-16058
▁GRA	-16059
▁Gối	-16060
▁Gợi	-16061
▁HBO	-16062
▁Haa	-16063
▁Hak	-16064
▁Hes	-16065
▁IIM	-16066
▁IPO	-16067
▁Ida	-16068
▁Ign	-16069
▁JAW	-16070
▁JET	-16071
▁Jae	-16072
▁Jai	-16073
▁Khờ	-16074
▁Kit	-16075
▁Kol	-16076
▁Kêu	-16077
▁Lis	-16078
▁MCA	-16079
▁MET	-16080
▁MHz	-16081
▁MIC	-16082
▁Miy	-16083
▁Mạc	-16084
▁Mập	-16085
▁Mắc	-16086
▁NFB	-16087
▁NSF	-16088
▁Niu	-16089
▁Nét	-16090
▁Olm	-16091
▁PAM	-16092
▁PAW	-16093
▁PGA	-16094
▁Qat	-16095
▁Rât	-16096
▁Rạp	-16097
▁SIC	-16098
▁Sho	-16099
Bri	-16100
oil	-16101
tạo	-16102
▁BD	-16103
▁HK	-16104
▁KW	-16105
▁Ké	-16106
▁MJ	-16107
▁nư	-16108
▁rở	-16109
,300	-16110
Fran	-16111
TCOM	-16112
apen	-16113
arko	-16114
dong	-16115
fali	-16116
giới	-16117
hàng	-16118
idep	-16119
iero	-16120
ilin	-16121
illy	-16122
▁370	-16123
▁757	-16124
▁850	-16125
▁Kon	-16126
▁LDL	-16127
▁Rug	-16128
▁Sic	-16129
▁Sny	-16130
▁Sor	-16131
▁Squ	-16132
▁Srd	-16133
▁Sym	-16134
▁Thẻ	-16135
▁Tru	-16136
▁Trà	-16137
▁Trợ	-16138
▁Tàn	-16139
▁VII	-16140
▁Wel	-16141
▁WiT	-16142
▁Xer	-16143
▁Xoá	-16144
▁Xảo	-16145
▁ahh	-16146
▁bab	-16147
▁bặt	-16148
▁bẽo	-16149
▁bệt	-16150
▁bỉm	-16151
▁bổi	-16152
▁cso	-16153
▁cỏn	-16154
▁dam	-16155
▁dat	-16156
▁dig	-16157
▁doa	-16158
▁dạc	-16159
▁guỹ	-16160
▁gém	-16161
▁gảy	-16162
▁gẫn	-16163
▁gộc	-16164
▁hêt	-16165
▁hăn	-16166
▁hữa	-16167
▁luc	-16168
▁lun	-16169
▁láy	-16170
▁lăp	-16171
▁lịm	-16172
▁lọn	-16173
▁meo	-16174
▁mơn	-16175
▁ntn	-16176
▁nưã	-16177
▁pos	-16178
▁qúa	-16179
▁róc	-16180
▁rúc	-16181
▁rếu	-16182
▁rền	-16183
▁rỏi	-16184
▁rởm	-16185
▁rợp	-16186
▁sod	-16187
▁som	-16188
▁sạp	-16189
▁sẩn	-16190
▁sờn	-16191
▁toq	-16192
▁toé	-16193
▁tâp	-16194
▁tóp	-16195
▁tỏi	-16196
▁tốp	-16197
▁voà	-16198
▁vvv	-16199
VI	-16200
Rae	-16201
but	-16202
fan	-16203
gle	-16204
her	-16205
nor	-16206
nus	-16207
zia	-16208
úât	-16209
đối	-16210
▁ER	-16211
▁HD	-16212
▁HM	-16213
▁Hở	-16214
▁bả	-16215
2014	-16216
apal	-16217
aple	-16218
ells	-16219
houk	-16220
ikio	-16221
odel	-16222
osyl	-16223
urem	-16224
▁Bim	-16225
▁Bor	-16226
▁Mác	-16227
▁Nữa	-16228
▁Tận	-16229
▁XVI	-16230
▁gau	-16231
▁gum	-16232
▁lôn	-16233
▁lức	-16234
▁niu	-16235
▁trg	-16236
▁vấy	-16237
▁vỉn	-16238
▁xil	-16239
▁zip	-16240
▁Đam	-16241
▁Đậu	-16242
▁đoạ	-16243
▁đận	-16244
▁đễn	-16245
▁ạch	-16246
Arche	-16247
Atlan	-16248
Berry	-16249
Bribe	-16250
Brien	-16251
Bundi	-16252
EPFAR	-16253
Jayne	-16254
Kerry	-16255
Không	-16256
Morin	-16257
NTCOM	-16258
Pilot	-16259
Prize	-16260
Queen	-16261
Rides	-16262
Salon	-16263
Thous	-16264
Times	-16265
abaab	-16266
actyl	-16267
adira	-16268
aguay	-16269
aidya	-16270
alisa	-16271
alker	-16272
anamo	-16273
andMe	-16274
angel	-16275
anioc	-16276
apoli	-16277
aprio	-16278
arian	-16279
ariot	-16280
artzi	-16281
aswam	-16282
ataka	-16283
aulle	-16284
auser	-16285
awesi	-16286
becue	-16287
board	-16288
borni	-16289
bourg	-16290
carus	-16291
chỉnh	-16292
ctive	-16293
derts	-16294
donil	-16295
dương	-16296
eacht	-16297
easey	-16298
echno	-16299
pd	-16300
-80	-16301
Cầu	-16302
alo	-16303
chk	-16304
hái	-16305
lon	-16306
ych	-16307
đến	-16308
▁Bở	-16309
▁SV	-16310
▁Vả	-16311
▁fa	-16312
▁og	-16313
▁rạ	-16314
Land	-16315
alil	-16316
inho	-16317
nery	-16318
ouma	-16319
oway	-16320
tayt	-16321
zhen	-16322
▁2,6	-16323
▁Bic	-16324
▁Bột	-16325
▁Chớ	-16326
▁Edo	-16327
▁Gai	-16328
▁Gos	-16329
▁Hau	-16330
▁Hib	-16331
▁III	-16332
▁Nến	-16333
▁Shl	-16334
▁Yue	-16335
▁láo	-16336
▁rảo	-16337
▁shi	-16338
▁xúi	-16339
eddah	-16340
elope	-16341
elulo	-16342
erhan	-16343
erlin	-16344
eskes	-16345
evsky	-16346
ffael	-16347
firio	-16348
giông	-16349
golia	-16350
henge	-16351
hiols	-16352
histh	-16353
icity	-16354
iddle	-16355
ierre	-16356
ights	-16357
igram	-16358
ileyG	-16359
itius	-16360
itsyn	-16361
ivals	-16362
izzol	-16363
karia	-16364
konan	-16365
lboro	-16366
levue	-16367
linga	-16368
lysia	-16369
maker	-16370
malya	-16371
meyer	-16372
miral	-16373
ndale	-16374
nelly	-16375
nheit	-16376
ocamp	-16377
occia	-16378
occul	-16379
oghum	-16380
oizen	-16381
omics	-16382
ontra	-16383
orrow	-16384
otsie	-16385
oulos	-16386
ovacs	-16387
owicz	-16388
owsky	-16389
pdike	-16390
phins	-16391
pioca	-16392
plane	-16393
prise	-16394
rador	-16395
rafug	-16396
rakow	-16397
rassa	-16398
rawal	-16399
84	-16400
An	-16401
mh	-16402
yk	-16403
▁ỡ	-16404
Ann	-16405
VES	-16406
bid	-16407
led	-16408
zel	-16409
▁Ye	-16410
▁dợ	-16411
▁lỹ	-16412
PERS	-16413
acad	-16414
atia	-16415
inem	-16416
isha	-16417
riba	-16418
roll	-16419
seum	-16420
▁Ank	-16421
▁BLA	-16422
▁Dra	-16423
▁Duy	-16424
▁Gur	-16425
▁McN	-16426
▁Yum	-16427
▁gải	-16428
▁gữa	-16429
▁hoă	-16430
▁hưũ	-16431
▁ink	-16432
▁khò	-16433
▁vil	-16434
acyra	-16435
racad	-16436
ranus	-16437
rbana	-16438
reira	-16439
relin	-16440
richt	-16441
ropia	-16442
rrent	-16443
ruyền	-16444
rynin	-16445
sfeld	-16446
shead	-16447
shine	-16448
slist	-16449
smoke	-16450
swick	-16451
teoit	-16452
[...]
